#version: 0.2
Ġ k
n g
Ġk a
b a
Ġ ba
h a
Ġ l
Ġk i
i a
Ġ s
Ġ u
o ng
Ġ j
Ġ p
Ġl a
y n
e i
Ġ ia
Ġ d
Ġ K
i e
Ġ n
Ġ t
Ġ ha
i ng
a i
Ġba d
Ġ b
o h
Ġj ing
h i
t a
â Ģ
Ġ r
u h
a r
Ġ m
a ng
Ġba n
n e
a t
Ġ U
Ġ S
o n
Ġ i
a n
Ġ ng
u m
Ġk h
o r
Ġj ong
Ġs h
ĠK a
a m
Ġ (
Ġ B
Ġp yn
Ġd a
Ġ âĢ
Ġka ba
Ġs ha
Ġ H
y r
Ġl ong
Ġ N
ie w
Ġ J
Ġn a
l a
t h
Ġ 1
Ġk um
e m
Ġ M
e h
e w
Ġ L
a h
e r
u n
Ġ T
i t
u r
e n
Ġ P
a w
y m
ei t
Ġd on
Ġt h
Ġ w
i s
y l
u t
Ġ I
Ġng i
ie n
Ġki ba
o t
a d
w ei
yn r
Ġs hi
Ġ D
e ng
o m
Ġ h
Ġ R
ĠK i
y ng
Ġs ng
a l
ia ng
i h
Ġd ei
Ġr uh
Ġng a
Ġp at
k h
i m
Ġk yn
ie m
n o
i n
u k
Ġn ong
yl l
Ġka ne
ĠH a
Ġk ha
s i
o i
ai t
s ha
Ġka t
t i
e p
k a
Ġ 2
Ġp hi
a p
i d
l ei
Ġb r
u l
Ġka m
e t
Ġ A
Ġ :
ĠâĢ ľ
Ġ ong
ĠâĢ Ķ
k ha
t ien
Ġn e
Ġi oh
Ġm yn
Ġu ba
Ġba r
ie ng
Ġp yr
ĠK ha
) .
yn d
âĢ Ŀ
Ġka ta
Ġt ang
Ġ hi
âĢ Ļ
u d
Ġbr iew
d uh
Ġla h
Ġ ai
e l
s h
y iem
Ġbar oh
o k
u b
Ġw an
Ġ -
ynr ei
Ġp or
Ġsng ew
am ar
Ġ ;
Ġl eit
i p
ĠK h
Ġp h
r a
ĠKha si
ha ng
Ġs a
ĠB lei
Ġj u
yng k
ie h
ĠN g
o s
Ġn oh
o b
d a
ĠN ong
Ġk tien
Ġk yr
l ong
r i
u ng
n ong
Ġ a
n a
p h
th uh
Ġ 3
o g
Ġka wei
ia h
th ei
Ġsng i
ia r
Ġn ang
Ġ ar
yn ta
ba h
m at
Ġkh l
Ġs ne
ĠâĢ ĺ
r en
Ġ ym
Ġ W
Ġsh u
o p
Ġn amar
Ġjing s
Ġp ha
Ġl eh
r ai
Ġ *
e s
Ġr i
ĠL a
Ġ Y
Ġj a
Ġkh un
w ai
Ġt ha
p a
Ġsh ong
Ġjing k
i i
Ġ E
Ġha p
w a
yl la
Ġsne m
Ġka n
Ġ 4
a s
Ġu m
Ġki wei
Ġd ang
Ġjing ia
Ġha ba
Ġ C
t o
Ġki ne
Ġh ynrei
Ġkha m
ia m
Ġ eh
f i
ĠS yiem
yn n
Ġjing p
p hang
Ġb ha
yn t
Ġth oh
ia t
l i
Ġm a
Ġki n
Ġsh uh
Ġ o
m en
ĠK um
m a
Ġk ot
Ġ G
ai d
yll i
ĠJ ing
Ġu n
Ġk ren
Ġj ait
Ġt ip
r is
i r
Ġm ih
Ġ f
Ġsh nong
Ġ ei
u id
Ġ 5
ai n
i l
Ġ .
Ġkum ba
Ġb un
Ġb ynta
o l
Ġha duh
u s
l ang
r ei
Ġ '
d e
ĠS hi
Ġja ka
Ġ 6
Ġ1 9
Ġk l
k ai
m ih
a b
t eng
Ġpyr thei
k am
Ġpyn d
ĠS ha
ĠS h
Ġm ar
Ġkum ta
ĠT h
uk om
ul e
m ut
u p
Ġk s
ĠR i
s iem
Ġkh mat
m ie
Ġp oi
Ġb uh
Ġth e
Ġp ar
ng i
ng ew
Ġl yn
Ġr ukom
Ġsha phang
Ġha ng
d oh
th oh
d eng
ba r
Ġi m
r aw
Ġ 7
kha t
Ġ ^
Ġs ah
Ġd oh
ĠâĢ Ļ
Ġkhl em
ha r
Ġmyn ta
Ġl yng
Ġb ym
Ġ c
Ġb iang
ĠKh ris
Ġt o
Ġla ng
ĠHa ba
Ġki ei
Ġt e
b ha
i k
Ġkh ot
Ġpyn s
Ġm an
ĠNg a
Ġw at
Ġb or
Ġioh i
ĠJ is
Ġs n
Ġngi n
ĠB a
ei n
Ġka no
ĠJis u
Ġd ur
Ġla da
Ġd ieng
Ġjing t
K a
Ġt ar
l or
Ġng an
d ien
e d
i c
l eh
âĢ Ķ
ie d
s a
Ġs yiem
Ġkum no
d ei
d ang
e b
Ġba m
Ġkat ba
Ġs b
Ġkh n
ie j
Ġmyn siem
Ġ 8
Ġpyn k
Ġ 9
Ġshi m
1 9
ta d
ta b
Ġo f
b un
Ġs aw
N G
Ġsha h
ur om
Ġi ing
Ġjing mut
Ġu wei
Ġ ?
Ġia p
ĠB al
ynr iew
Ġsh em
Ġ1 8
c h
j uh
Ġ V
Ġb n
Ġki m
Ġba t
w ah
ĠM ar
o ne
ĠM a
ad a
Ġr iew
Ġ O
ĠKa ne
Ġl um
Ġjing im
Ġkyr teng
Ġs k
Ġla p
ĠT rai
Ġp eit
Ġba h
Ġlyn ti
k i
c i
ne ng
Ġkh ynd
ang bah
ta n
Ġm e
ĠK A
yngk ong
) ,
Ġ1 0
Ġk b
Ġi n
Ġjingp yn
Ġm ut
Ġl ing
Ġs am
Ġhap oh
. âĢĿ
Ġla de
Ġla i
Ġk ti
ĠM aw
ĠD on
ĠKum ta
l e
s t
ĠH ynrei
Ġshi s
an d
i eit
p ah
n i
ia w
Ġia thuh
at h
Ġshi t
k or
s hi
Ġki ta
Ġkh la
ia p
Ġm aw
ĠN a
Ġ1 2
j a
ĠI d
Ġt ylli
o d
Ġha dien
b r
ĠJ ong
Ġp a
Ġpyr khat
ĠP a
ĠB ar
ba n
d ong
ĠP hi
Ġpar a
. .
Ġ !
r ong
Ġr yngk
Ġp ule
Ġla ne
Ġna duh
Ġjing long
Ġda k
ĠKi tab
Ġk d
Ġki t
Ġha lor
Ġk mie
Ġla it
Ġkum ne
ĠL yng
Ġs dang
ĠKhris t
u i
Ġs la
ĠS oh
l am
p oh
Ġh ok
ym m
n ud
Ġs ur
ie t
Ġk ylla
Ġb urom
r n
t ha
ĠBal ang
s e
Ġjing j
ub or
Ġda w
Ġ1 1
s an
Ġd e
ia n
is h
u it
o it
Ġt rei
l em
yn sha
Ġr ub
Ġu ta
Â «
l y
Ġng am
is har
Ġk wah
m aw
r e
Ġpyn p
Ġtha w
ĠK at
Â »
sha i
Ġw ad
Ġsh ym
Ġs t
ĠL ada
is t
on kam
ĠB an
Ġn iam
Ġpha i
ynsha r
ynn ah
Ġs oh
Ġn yngkong
Ġj i
âĢ ĺ
ĠY n
j ing
en t
Ġia id
ĠU m
ynd a
ĠY a
Ġm et
Ġs iej
c t
Ġpyn mih
Ġ ieng
ĠB ah
Ġk yll
r am
Ġryngk at
w an
Ġk pa
i b
0 0
Ġpyn i
Ġkat ne
Ġphi n
Ġhap deng
j ar
ha m
ĠI I
Ġshi sha
p yn
Ġ yn
ta ng
one s
Ġk ur
i g
ĠS ing
Ġshi bun
Ġ ynda
Ġl ut
ba b
Ġs an
Ġkyn thei
a k
Ġ1 6
a g
u g
ĠP r
Ġjing d
m g
Ġ F
ba t
ĠM e
Ġia r
Ġk ut
Ġb ud
im a
Ġpyr sha
Ġla b
n oh
ĠNg i
i on
Ġr it
Ġkh ynnah
Ġhi ma
hi kai
Ġkyn tien
Ġbn ai
t hi
ĠM an
Ġ1 4
Ġj ia
ĠYn da
w ar
d ar
Ġl y
Ġp y
uk um
Ġng eit
Ġsngew thuh
n d
Ġk t
j at
Ġl ok
Ġkh raw
Ġr ah
Ġp aw
Ġsha i
Ġ1 3
Ġs ba
Ġu ne
s s
Ġw ah
l iang
r ep
b i
ng a
ti p
u wa
j an
r ad
Ġpyn long
Ġsam la
Ġkat to
ĠJ ones
ha i
Ġkat ta
Ġl em
Ġs uk
ĠD a
s ngew
Ġl ei
Ġ ap
, âĢĿ
i w
Ġpyn b
Ġsh ynr
ang ta
ĠB ad
Ġka ei
d iang
ym men
Ġd uh
ĠâĢ ¢
ĠD ei
Ġr angbah
Ġ v
Ġt yng
n ia
Ġi i
o og
Ġ and
Ġba k
Ġk ynr
Ġs at
Ġla m
ĠKa ba
Ġd ep
Ġtar n
r wai
b ynriew
Ġjings ngew
Ġkhla w
e v
ymm ai
Ġla d
p el
ng ai
s ra
Ġp al
Ġkh r
Ġsk ul
ĠJ er
ĠH ad
Ġpha h
Ġpynd onkam
ta r
Ġng ut
Ġsha d
ynr ai
Ġm on
o w
t b
Ġia k
Ġi eit
Ġt a
ĠH ima
t er
or d
ĠPa ul
Ġm iet
Ġhang ne
f l
ĠLyng doh
k ri
l ai
Ġ1 5
ĠP yr
Ġk y
un a
Ġdon kam
Ġkhl ieh
Ġi t
sh ong
Ġkhn ang
ĠL yn
om as
Ġt b
Ġla id
s oh
Ġl oh
ĠShi l
Ġpyn kh
ĠK I
l eit
Ġpat eng
Ġ1 7
âĢĿ .
Ġshu wa
ĠN amar
ph er
Ġk ba
Ġn ia
Ġt er
Ġjing b
j e
n am
Ġk p
ĠU ba
Ġj an
Ġt hi
Ġr ung
Ġt rai
Ġr ai
Ġngi m
ĠW at
Ġsngew bha
il l
Ġki to
Ġdoh nud
Ġj in
Ġb neng
o an
Ġk hi
Ġu no
Ġp aid
ĠT o
ym p
ĠM yn
Ġia i
Ġb ishar
Ġs yr
d it
h un
r ang
N g
Ġkyr p
sra el
Ġshis ien
Ġji og
Ġjing thoh
ĠT ang
ĠShil long
Ġhang ta
ĠKhris tan
b or
Ġnang ta
c e
Ġn am
ba i
Ġs y
Ġ g
ynd ai
ĠI srael
Ġ ,
kh ot
Ġd u
ta m
Ġ2 0
Ġhi kai
Ġs pah
la p
b er
n iew
r em
ĠShi thi
Ġkd ew
Ġs ei
Ġkyn ja
Ġpynp aw
Ġs um
Ġt yr
ĠTh omas
m ar
Ġn ob
f t
Ġm rad
ĠS a
ĠY m
Ġh eh
kh em
Ġp l
Ġia s
ĠP ha
1 0
Ġjing i
s aw
Ġkh ubor
ĠK ba
Ġda p
Ġm at
Ġkhynd ew
Ġp yll
Ġjing th
Ġka i
k ut
Ġk ylli
Ġj mg
Ġd or
Ġd el
ar y
kha r
Ġpal at
ĠN angta
ĠKi ne
Ġpyn ban
Ġnong p
hi sha
Ġpyn ia
K i
Ġnong thoh
l ia
Ġm ad
Ġj op
ĠK ot
Ġt eng
I I
Ġ ing
ng eit
ka ta
ĠKa m
k ar
m an
Ġkyn maw
Ġ2 2
Ġ. ..
Ġp r
H A
ta t
Ġ "
Ġb i
d on
Ġt ymmen
ĠSoh ra
Ġki ew
ei fi
Ġ2 3
Ġk o
Ġl iang
Ġkhynd iat
Ġkha t
n ai
n ar
r im
Ġjing kh
Ġk jat
br iew
Ġs ynshar
ĠT e
Ġshi p
Ġnong ia
l l
s ien
Ġn ym
Ġjingp yr
Ġshit om
Ġs im
ĠI a
Ġkha na
ĠHad ien
k s
Ġn o
Ġt r
Ġb eit
ph ew
Ġba ba
1 1
Ġsat ia
m u
ĠD r
ly pa
Ġkyn t
Ġ X
Ġpyn r
ĠR om
Ġsng ap
al or
os pel
l ieh
Ġsh na
Ġj ai
Ġth ung
ul ar
Ġkhn am
Ġp diang
ĠA p
Ġbat ai
Ġpyrsha h
Ġshynr ang
Ġha r
Ġth iah
Ġjing ieit
Ġi s
1 6
Ġd ih
Ġkat no
Ġjait bynriew
Ġlyng ba
us t
O NG
ng l
ta h
Ġs eng
Ġai u
1 2
e c
Ġb ynriew
ĠP at
kha na
t s
ie u
ĠA ss
ĠG ospel
Ġr ong
ĠN o
oi d
Ġl yngk
Ġu rn
Y N
Ġj rong
Ġb it
ĠR o
Ġka juh
ĠS am
al em
Ġpynd ep
v e
ĠH at
r it
Ġba s
Ġph ylla
ba m
ĠKba si
ĠS t
ĠH ang
os o
Ġ* *
1 4
ng uh
mie t
t ei
ĠTh e
j ong
Ġp an
Ġd ing
ĠJ iw
Ġ em
Ġh er
d i
Ġr ynt
ĠN iam
ynn iew
Ġmar wei
! âĢĿ
f a
Ġh iar
Ġk ein
ie r
b l
Ġb lei
ĠKat ba
ĠL um
Ġman o
1 8
c w
p at
Ġjing hikai
yll ung
Ġ2 4
Ġph er
Ġjingt rei
ar a
Ġth ymmai
ha w
ĠB A
ob er
Ġph uh
Ġkl oi
1 3
? âĢĿ
ĠS aw
ĠP yn
ĠD ur
I E
Ġ ieh
Ġb eh
Ġkum juh
k hi
ĠSing h
ĠJer us
Ġp hang
Ġr e
la h
r o
Ġj ar
ĠB ai
Ġju bab
ynt iew
ng oh
Ġkh mih
Ġ at
ĠJerus alem
Ġki la
ynn ad
Ġu la
Ġiar ap
ĠMan ik
Ġia dei
Ġpyn j
Ġ y
Ġjing tip
la d
Ġ e
Ġh ukum
Ġj ah
Ġr ing
er s
Ġl ym
p i
ĠR ev
Ġt ei
Ġr wai
Ġlyng doh
Ġp ait
ne m
ĠT ham
Ġnga p
Ġs em
ta p
ĠS oso
is si
Ġh yn
Ġkl et
Ġt nga
Ġjing sh
k yn
Ġp op
ĠK or
ĠI nd
Ġs ynr
Ġp ang
ĠJ o
kh uid
r iew
y er
Ġjing rwai
yll ong
Ġ2 6
Ġsaw dong
al oi
Ġph et
ĠK tien
men t
i ong
Ġs ang
Ġpha r
Ġlyn nong
Ġd em
Ġ ]
ĠP h
u in
Ġk ong
ba ng
Ġs ep
ĠU n
l ur
Ġha d
at ion
Ġ2 8
Ġj ied
ĠA r
Ġjingj ia
t om
Ġd khot
ĠS or
Ġ ad
Ġka jing
ĠK ong
Ġt ynrai
al m
Ġjings hisha
s pah
Ġkyn th
Ġkham tam
g e
Ġl i
Ġjingk yr
p deng
ĠR angbah
Ġsh wa
Ġioh sngew
o uk
Ġng uh
la de
Ġtar ik
Ġk n
Ġs ien
Ġt n
Ġj ur
ĠB ab
r ah
ĠNong k
Ġs yn
ĠI yer
Ġar tat
Ġb uit
Ġth ma
ĠP har
Ġ2 5
Ġly pa
k ur
ist or
c m
Ġd um
Ġm o
Ġsha kri
is a
Ġl oan
Ġjing leh
Ġr yn
k t
Ġk r
ĠL ait
ĠD aloi
Ġ2 7
Ġjing l
Ġb y
ĠJ u
Ġsn iew
ha dei
Ġth ew
Ġkh ie
ĠN alor
ĠR ai
s ngi
Ġk tah
Ġkh ein
Ġth ied
ĠU ne
Ġleh se
r y
u j
ie l
ad uh
ĠR am
Ġ )
ng ut
ĠK o
ĠJ I
ĠKh un
b lei
Ġia leh
Ġpyn l
ĠD or
ĠBar oh
i ei
Ġp ur
Ġp deng
sh uwa
ĠâĢĺ âĢĺ
ir ia
t rei
Ġ fi
ti on
ĠNg an
ĠB as
ĠL ong
Ġr ep
Ġjings tad
ĠInd ia
Ġk men
kh raw
t ia
ĠK yn
Ġ2 9
Ġ3 0
Ng a
sha h
Ġr ang
ĠH istor
ĠW ar
ĠRo y
o o
Ġt ap
Ġkyr d
Ġpynk ylla
Ġtyng ka
b y
s tad
Ġba p
ĠH ynniew
b it
s ih
Ġba ng
Ġba lang
ĠJ a
ur e
thuh lypa
Ġha jar
uk sa
yll iew
1 7
j ur
ha p
h oi
t e
ĠJ ud
al i
Ġf a
j ah
ep t
o c
Ġs or
ne w
Ġnong k
H a
Ġ an
Ġj ngai
oh n
Ġks iar
Ġthi k
ĠS ngi
ĠT iew
Ġsn am
Ġkit ei
Ġbak la
issi on
M ath
t ai
Ġkyn hun
Ġkyrp ang
r os
Ġt hang
s eng
ĠI n
Ġpaid bah
e a
p ha
Ġ [
ĠMyn siem
r u
Ġs lem
Ġd ie
Ġma si
Ġ on
ord or
ĠS an
Ġsha n
Ġjingpyr khat
Ġjing ngeit
Ġpyn kha
Ġ iew
Ġs ym
Ġpyrsha ng
Ġki rn
Ġsh oh
Ġjingia p
Ġjingia dei
Ġs tad
ĠH ukum
im on
ynn at
Ġbn iah
Ġjing m
ynd uh
ĠBai bl
Ġn i
ĠR ober
âĢĻ .
Ġsum ar
Ġjing kha
Ġr a
ar t
Ġpyn iap
ĠJ ohn
ĠP ut
ĠA n
Ġh yndai
2 0
l an
Ġ ang
Ġs ynd
Ġs yntiew
Ġ2 1
v er
Ġia lam
Ġn uksa
Ġb e
kh ie
Ġ |
Ġnong rim
el l
ĠPr es
p en
Ġi mat
ĠL ap
p aw
Ġia m
ĠC h
Ġst ep
ent en
ĠJI NG
k um
Ġm ei
es t
ĠDor bar
l iew
Ġba lei
Ġm en
ĠNong bah
* *
Ġjing ai
ĠM at
Ġtha in
Ġ18 4
j i
ĠS eng
Ġj am
Ġp o
Ġdur bar
k at
Ġn eh
ĠM on
ĠT ing
2 1
g i
s iang
ip h
Ġkhat duh
ĠN aduh
sha n
ĠPut it
k en
Ġnong s
Ġtha n
l yng
ĠK ynr
ĠD ieng
ĠK H
Ġb yr
Ġsha poh
Ġkha w
ĠA i
ia id
yn jar
ĠJ ain
I T
o u
ĠKa wei
ĠA m
Ġs khem
Ġmar iang
Ġnongp ule
T A
Ġs iat
Ġd uk
ug h
c n
y i
Ġw ei
Ġdoh kha
19 7
t t
y a
Ġ &
Ġt ur
Ġkat ei
ĠW ah
ĠMa hadei
Ġkyrd an
oh i
ĠS ah
ĠKa ta
Ġshi teng
Ġnong sh
1 5
r eh
ha d
Ġia lade
ĠP et
Ġkyn dit
ĠE ngl
u a
Ġ al
Ġla w
Ġpyn m
ĠM ei
Ġki no
Ġjing shai
Ġw ait
Ġlyngk ot
r at
Ġ Â
Ġb s
b urom
e k
n ang
o un
Ġs ap
Ġsh y
Ġkam ra
Ġ ah
ei h
Ġ4 0
ĠAp os
b ynta
Ġk ordor
Ġd una
ĠR ang
Ġphi m
ii i
Ġ Â«
Ġa kor
Ġjingk yn
tha w
u ba
ha t
ai fi
Ġjing ma
Ġmad an
D g
Ġl ynd
Ġj uh
Ġj ain
kh u
âĢĿ ,
to l
Ġpyll ait
Ġha jan
ynt ur
I A
v n
ng ap
ĠNg in
Ġar t
Ġkhr eh
l er
o ol
Ġka w
Ġka la
Ġs p
Ġm am
Ġkh uid
o ok
t or
ĠK an
Ġt eh
ĠM ynta
ĠT es
Ġnong b
Ġkyll eng
P hi
o oid
Ġkh oh
ynd ong
ĠRober ts
Ġk up
ba d
Ġi ong
ĠL ouk
ĠBal ei
Ġj er
ĠK pa
Ġt am
Ġb yn
el t
Ġks uid
Ġd ien
ĠM ission
Ġjingia thuh
Ġpynd on
Ġkhi h
ĠEngl ish
Ġia no
Ġsha no
aw a
b ok
s niew
ĠK s
Ġna lor
ram a
ĠPhar eng
2 2
Ġla no
Ġjing eh
Ġkat o
ĠA b
ub lei
L A
m i
Ġk oh
ng am
ne r
Ġi thuh
kh mat
ĠE dit
j uk
u pa
Ġj aid
Ġt iar
ai l
Ġi ob
ĠKi ba
ĠNg am
ĠC om
bat ai
st ep
Ġkynth up
s ar
Ġk ular
Ġp ap
ti c
c a
o a
Ġ 0
Ġf or
Ġkyrp ad
k b
yn na
Ġar ngut
Ġ19 7
ĠTes ta
Ġk nia
ynt er
ĠMar iang
ĠApos tol
r an
w at
ei la
ĠI V
ris tan
ĠSha in
Ġ ot
Ġk m
ĠK yllong
Ġjing ph
Ġjing leit
ĠM ynt
ĠNong thoh
ĠII I
ĠRai kut
d or
k it
Ġia lap
Ġth ong
ĠKum ba
u wai
Ġk j
Ġk er
ha h
Ġr aid
la w
ĠD ab
Ġkha ng
Ġsla p
r om
w et
Ġba khraw
Ġj em
Ġr em
Ġsa b
Ġjingk men
Ġ19 3
2 3
Ġd ong
Ġt uid
ĠT a
Ġs in
Ġpyn h
Ġsngew t
Ġjingk ren
sa iah
Ġrynt ieh
m on
o ur
Ġ {
ĠB i
it er
ĠI m
yll iej
Ġbar ob
ĠK l
ĠâĢ Ŀ
Ġth ei
ĠHang ne
. âĢĻ
n iang
ĠB hoi
b ei
la s
Ġnong hikai
Ġtha rai
Ġdu wai
c it
Ġi ba
ĠTesta ment
c ng
Ġba b
Ġpyn ieng
Ġsha bar
em ber
Ġpyns ngew
8 0
a iah
Ġha t
Ġm raw
Ġsh yntur
ĠB am
ĠSh eila
uj or
n is
s uk
yn ei
Ġd ew
Ġn ud
ĠS ait
Ġkyn noh
Ġnong pyn
st or
Ġshit hi
Ġl ew
Ġs uh
Ġsha ng
âĢĻ ,
Ġph ew
e ad
i v
Ġr ta
kh ong
us lai
ĠKynr ad
ĠEdit or
Ġki tab
Ġla iph
Ġsh on
Ġkyn duh
Ġks ai
Ġlyng kha
Ġhar um
ĠS yn
um a
Ġsaw a
Ġkp er
Ġsynr an
ĠBas an
Ġ <
Ġr oi
ĠPhi l
ill s
2 9
O H
Ġ â
Ġn ar
Ġr im
or e
Ġsh et
th ie
ĠT aw
ĠDab id
p t
ia l
Ġjing wan
ĠL am
ĠNong s
Ġar tad
Ġsuk i
) ;
Ġs l
Ġs ain
ĠS y
Ġtha t
* .
2 8
s ai
Ġs enten
Ġth em
ĠD khar
iar ap
Ġpl ie
k l
Ġp ah
ĠK yr
ĠL ang
ĠL ieh
Ġjings uk
Ġjingth mu
ĠJud ah
Ġnongsh un
r ap
ĠK it
hi h
Ġkh yll
Ġpyn t
ĠM os
ynta ng
ĠSha phang
ĠPyr thei
ĠPres by
i th
Ġh un
ĠA d
E I
l oan
ĠK b
Ġt ieng
Ġhi stor
Ġ* âĢĺ
Ġsn iang
O N
t rep
Ġ x
Ġk u
Ġp isa
Ġt an
ne h
ĠS k
ud a
Ġ19 0
Ġlaiph ew
ia d
Ġnong rep
Ġmyn t
ĠKh ong
Ġph lang
ĠKum no
Ġsy iar
ĠAss am
. )
K h
o in
Ġj ot
Ġi h
Ġsha duh
it i
ul i
Ġkyll iang
Ġship ai
2 4
b ym
Ġba bha
Ġm yllung
ĠS ch
Ġtha p
ĠMos es
p ei
Ġk wai
Ġj oog
Ġsh kor
Ġpyn shong
ĠJ ak
ĠT em
Ġjingia leh
d ur
k dar
r ieh
Ġka j
Ġp ud
Ġn iew
Ġsa khi
Ġsenten s
b uh
s ing
s on
Ġ >
Ġd khar
âĢ ¢
Ġh e
Ġriew stad
ĠJain tia
Ġkoh nguh
A I
p yr
Ġs ar
Ġi wei
Ġ /
Ġk em
Ġs op
Ġj l
Ġjing r
ĠJ eh
Ġai om
Ġias iat
ĠShain imon
ĠPresby ter
2 6
r oh
ia k
Ġm ap
an o
th er
Ġshi liang
Ġmyn no
Ġjingk ylla
uwa kdar
ĠBA D
Ġloan nis
T o
n iam
t n
Ġl ung
Ġj h
2 5
ei j
Ġkh ia
Ġth ep
sha ng
Ġnamar kata
Ġtha it
ab or
Ġloh i
Ġlynd et
N ong
f f
ng en
Ġl e
hi tom
ĠS ol
Ġkyn j
es s
19 6
Ġkhla d
l ung
p e
r on
Ġ og
Ġk ul
Ġk poh
Ġp oh
Ġpyr ta
Ġ am
Ġs ob
ĠH A
Ġpha n
ĠMar k
H I
m ai
r um
ba k
ĠT im
Ġbr ieu
Ġja b
Ġp ut
ur i
al ok
Ġsne ng
Ġks ew
ĠHat o
Ġrynt ih
ĠHistor y
Ġs ot
ĠS ym
Ġw ai
Ġjingt haw
Ġieh noh
ĠMynt ri
h ok
l ing
u si
Ġba a
Ġs iew
ĠJ ait
ait i
ĠNg im
ĠBa khuid
ath uh
. '
Ġ et
Ġkh yr
ĠA h
Ġjingk ylli
ĠG e
Ġkynr ad
ĠS al
ĠB un
Ġh o
sh wa
ra k
ĠDur bar
Ġjingsh em
L a
s im
ia i
ĠU ta
Ġpyn sh
Ġna ba
ĠM ih
Ġw al
Ġkha dar
ĠSh nong
Ġpait bah
3 0
Ġj o
Ġb ub
ĠH ills
Ġkyn d
ka ba
Ġpynb iang
Ġiak ren
Ġpynia id
ĠSch ool
n t
p hi
s iew
Ġ or
ia b
Ġp as
ĠU wei
Ġ3 1
Ġhar ud
i ing
ĸ ł
Ġk or
Ġs uit
Ġs uda
Ġt ad
ĠKha r
Ġpha war
tb ei
Ġthik na
j ied
Ġjong ngi
Ġsha it
ĠH eb
er b
ph na
ĠBar eh
B A
Ġk un
Ġs eh
Ġs al
Ġn ot
Ġt i
ĠM r
ĠP nar
Ġmyn ba
ĠE d
Ġbun sien
Ġiak ynduh
Ġpynkh reh
s ia
ng iew
Ġj ylliew
ĠS alm
Ġkha d
Ġks ing
oit ri
ĠPat or
ĠTaw at
ĠTem pi
b oh
d em
g a
n h
Ġj yr
Ġla shai
Ġb u
ĠB at
Ġsha t
Ġsha ne
ĠL A
Ġth uh
Ġph ong
2 7
J ing
S alm
e th
t r
Ġk rem
Ġba j
Ġd ci
Ġha neng
Ġr iam
Ġm in
at ure
ĠS yr
Ġpyn th
ĠH yn
Ġkha n
ĠW ill
Ġjings ynshar
ris t
il on
Ġpar alok
ĠPha li
Ġnongia thuhlypa
ept ieng
3 4
k ylla
p ong
Ġm y
Ġkh ong
ĠH er
Ġbar im
ĠW an
Ġhang no
Ġsk um
Ġphar shi
ĠPet ros
ĠSol om
c r
Ġl eng
Ġl ieng
Ġu d
Ġd ob
ĠN ang
ĠL ar
ram mar
Ġshan iah
. ,
l ot
ie b
or t
ĠB or
Ġpyn shai
ĠP ule
ph rang
Ġ6 0
Ġc on
Ġet c
e e
k yr
r iang
Ġjing batai
Ġw as
Ġkyn tang
ynd em
Ġa ha
Ġum mat
ic al
Ġshis nem
. *
h e
l uid
o e
s ng
ta tien
ĠS ynrai
em aiah
ĠR al
Ġmyn shuwa
Ġa s
Ġpynb eit
juk ut
b u
Ġ aiti
Ġba pher
Ġl u
Ġl ynter
Ġp om
Ġb new
Ġjing mih
ĠH angta
ri k
fi ia
ĠSha ni
^ .
l yn
r ia
Ġ ~
Ġl ieh
Ġp ai
Ġp ung
Ġd o
Ġr am
ĠL ai
ĠR ait
00 0
Ġsor kar
k ren
l en
l et
ia s
Ġs ai
Ġs ad
Ġb ieit
Ġsngew sih
Ġ3 6
Ġ19 6
Ġta iew
ĠLap ang
i ne
Ġt ong
Ġjing bam
Ġkam ram
soh pen
ust ur
ĠJeh o
ha la
Ġp un
Ġp ep
ĠN e
Ġkha p
el ia
Ġar liang
Ġpynk ut
Ġkur im
ĠJak ob
ĠSolom on
j er
w ir
ĠK HA
ing uh
Ġpyn im
ĠI ng
sh em
Ġshynr ong
Ġd rama
Ġth ylliej
ĠR ab
Ġc a
l um
p bang
ĠS ynt
Ġth wei
ĠC ol
ynt oi
tha h
art iang
h er
hi s
th ub
ud ui
Ġnang ne
Ġma ne
ĠSor kar
Ġk f
Ġk eifi
ta l
Ġm l
Ġpyn duh
ĠM ath
yngk ai
ĠC a
ĠLyn nong
ĠRait ong
j u
Ġba ieit
Ġl en
Ġb elt
Ġkh yn
ĠN artiang
ĠL ah
Ġbr i
ĠNong ia
Ġlyng ngoh
Ġ18 9
b iria
f e
l ait
Ġia pher
Ġt ep
yr wa
Ġna pdeng
ĠT rep
ĠP an
ĠR a
w er
Ġjing h
Ġda wai
Ġsha tei
ĠN G
Ġ3 3
Ġ19 8
Ġ9 9
h uh
Ġ $
Ġ =
Ġs et
Ġt im
ĠM or
ĠP al
yngk at
Ġ3 8
br ot
3 5
O R
Ġj uk
Ġpyn ph
ĠP ar
Ġ3 2
Ġjingia id
ĠCom m
iter ature
N am
T H
j ait
l ar
s o
w ad
Ġ Q
Ġs ait
Ġia ka
Ġt yll
Ġt ymp
Ġda wa
Ġnong t
Ġ3 4
ol og
je kt
Ġpynl ut
b ri
i o
Ġt yn
Ġb ba
ĠS er
Ġkh wai
Ġsh ken
Ġshi phew
sh ua
Ġjingp ang
ĠSh elia
Ġks iew
Ġsym bai
Ġmynt oi
A R
Ġj ngoh
Ġth liew
ĠD an
sha d
et ry
Ġtang ba
ĠBar im
Ġjingkyr men
Ġshy ieng
ĠWill iam
u th
Ġl eb
Ġs pel
Ġt ih
Ġm ai
kh ei
Ġkhl ur
ĠG o
ĠTh oh
Ġjingj op
Ġart ylli
Ġâ ĸł
c k
s b
Ġp er
hi t
Ġkh et
ĠL i
Ġkam ai
sh on
Ġbym jukut
ish on
Ġit ynnad
pat or
3 1
3 6
5 0
s l
ĠB eng
ĠN am
ĠJ i
Ġw ith
yng ng
ĠA g
ynd ang
ĠJing rwai
Ġkp u
Ġhyn men
j ot
Ġia t
Ġb t
Ġsh lei
ĠL ir
Ġ3 7
ĠE m
Ġkba m
ĠRal iang
b ih
l yngk
Ġ op
Ġba i
Ġd ait
ĠK ol
ĠS ec
ĠH om
ĠP o
Ġjingp ule
Ġpyns khem
Ġjingkha ng
d n
v el
Ġt ied
Ġ3 9
Ġsn ieh
Ġkong san
Ġryn ieng
a a
p or
u e
Ġp d
Ġb iria
Ġnong bah
ip t
ĠRi jied
ic w
' .
3 2
A T
e u
Ġ \
Ġn ih
ta ra
ĠJ an
th iah
al ang
kh oh
ist er
ĠBab ilon
ĠSait sohpen
^ ^
t on
ng an
Ġs u
Ġs ong
Ġla thuh
ie s
ĠS oc
Ġkh ristan
Ġkh uslai
em b
ĠP ait
ut i
Ġnong wei
ĠNg aid
ĠW al
Ġ4 9
ĠMa kri
Ġdu wan
Ġlym da
Ġtn at
ĠLir pator
ĠS ar
ĠJ ai
ĠJ os
kh iew
Ġ3 5
ĠV II
ĠBab u
Ġp ei
Ġp uk
Ġd k
Ġsh yr
ĠI t
ĠC on
Ġpynd ap
ĠMar in
ĠMe g
Ġshad em
3 7
l o
s em
u el
Ġk oit
ha si
Ġia d
Ġd i
ĠS ep
Ġsh en
ĠL y
is ha
ĠHa pdeng
ĠKha t
Ġkyr shan
Ġtha i
Ġ5 0
Ġjingd uwai
Ġjan ai
ĠHistor i
ĠSynt eng
n or
p r
r eng
Ġd pei
Ġd ustur
oh sniew
ĠN ONG
th iang
Ġth mu
in t
Ġmyn step
Ġph yr
ĠC al
Ġjingt ep
ĠV I
K o
b ishar
n c
n ah
Ġ eb
ĠK om
ĠM ai
Ġth or
ĠI j
Ġ4 4
Ġjingb ym
ĠAss emb
d k
s ad
s yiem
Ġk ei
ĠK ai
Ġha mar
Ġi d
um ar
ĠH ooid
ynr ang
Ġpyr sa
ĠW a
Ġkl iar
Ġsb ong
.. .
Ġpynr oi
ĠPat sha
ĠSah ep
Ġwal lam
d op
s ur
Ġk long
Ġl ymp
Ġj ii
Ġp oitri
Ġr ieh
ĠJ en
ĠJ in
er e
it y
ĠR is
in th
Ġkam on
ynd on
ĠNong t
Ġjings awa
shi sha
Ġsynd on
ĠAb ra
ĠPresbyter ian
f c
v v
Ġjing iarap
Ġm yr
Ġng at
Ġsha w
ĠJ on
ĠM yll
Ġw a
ĠI ngl
ĠD ang
ĠD ep
im ai
as t
ĠDon bok
Ġst em
Ġsngewt ynnad
ĠSyn od
4 1
4 6
m e
p er
w ait
Ġk li
Ġki w
Ġb tap
Ġr upa
Ġm ib
ur a
uk or
Ġkhl ain
Ġpynk hih
Ġkhynd ai
Ġjingd um
lyng doh
Ġjab ieng
ĠIngl is
h em
n at
Ġt t
Ġjing shah
Ġr an
ar i
at e
on i
Ġhi s
Ġjingia s
le ge
iet y
Ġly oh
Ġpynkh uid
Ġsyr iem
kur im
ĠHer od
ĠAssemb ly
3 8
j ia
Ġ oh
Ġla in
Ġia b
Ġn at
Ġkh yllung
ĠKi m
ul d
Ġph ut
Ġph ra
Ġjingk ieng
ĠJing pyn
Ġjan miet
ĠRam ew
ĠLouk as
E R
j rong
u ag
Ġs iang
Ġj aw
Ġt y
Ġt uh
Ġb lang
ĠS c
ĠKa ei
ĠH os
in a
Ġ4 5
ĠSha la
Ġpyns hitom
Ġkb ubor
Ġship or
Ġsep ngi
Ġjingiathuh khana
P nar
S I
Â ®
Ġka li
Ġp b
Ġb teng
ĠS ob
ĠH ok
er a
Ġth iang
ĠHa poh
Ġa b
Ġar s
Ġjingia pher
Ġmih ngi
ĠSh uwa
Ġdur iaw
ig h
ĠPr im
3 3
p an
Ġj ynjar
ĠK ut
Ġr iat
Ġr khie
ĠS H
ĠB l
ĠT yr
Ġkyn ti
rai n
ĠE l
Ġ4 8
Ġ6 6
hai os
hala ya
ĠAbra ham
d ing
e ar
s ah
ha n
Ġl ia
Ġj yn
th ma
Ġth ob
kh ia
Ġpyns hisha
Ġsur ok
je ct
o li
t ong
u c
Ġb ok
ĠD oh
ĠR ym
ĠA l
ĠNong thaw
ĠNong lyngdoh
ii g
Ġ4 6
Ġsb i
shi tom
Ġkyll on
Ġjia g
ĠJo shua
ĠDan iel
' s
) :
E W
s k
Ġ +
Ġs i
Ġp la
Ġla k
Ġn c
Ġha ka
Ġb ynr
Ġb et
Ġb ynrei
Ġm ot
am in
un om
ĠT ar
ĠT am
Ġdon bor
Ġth eh
in ong
sha id
ep h
Ġju tang
ĠKum juh
ĠG rammar
Ġei ei
Ġpynd em
Ġrit i
ĠJeho bah
k men
t en
Ġn ew
Ġb ein
ĠS i
Ġsha thie
ĠH alor
Ġlong briew
ĠT ip
ĠA ng
ĠE ph
Ġjingia seng
ĠJing im
Ġsba i
bak la
ĠRab on
* âĢĻ
p d
Ġs og
Ġt dong
Ġr yndang
ĠL ew
yl h
ĠR ead
Ġar tatien
one ri
Ġ10 0
se k
Ġnongia lam
Ġkynt iew
ĠJu bab
Ġjingkyn maw
Ġhistor i
* ,
a an
k mie
m et
Ġs o
Ġr yng
ĠJ yndem
ĠM uk
ĠM es
ti l
sh ew
Ġ4 7
ĠShi sien
Ġpynr ung
Ġlym ne
ĠJo wai
K um
R A
R om
c y
h oh
k ba
s ot
Ġka l
Ġs d
ĠS e
ĠB ath
ĠB ib
Ġh ynriew
kh lieh
Ġbr an
ĠLa kor
Ġkan c
tb uh
ĠMark os
ĠMeg halaya
d ieng
d ub
d ob
k ti
l at
n ot
p ain
w i
Ġ Â»
Ġka r
Ġl o
Ġn ujor
Ġt ing
Ġjing bha
ĠB ynta
ĠâĢ ŀ
ĠL eh
ĠD am
sha ri
ĠNong pyn
ĠW el
Ġ7 0
Ġc om
Ġiar oh
ĠNongk rem
4 0
: âĢĶ
N a
b en
f ii
Ġt oh
ang a
Ġna poh
th ong
en d
ĠJing ia
ymm ei
YN N
IE W
Ġpynj ot
Ġsar ong
3 9
E N
d uma
u ta
Ġba je
Ġb ook
Ġkh iew
Ġpyn bha
Ġ19 5
Ġpyns ah
Ġshim ti
ĠNamar kata
Ġjingm yntoi
ĠCol lege
ĠSoc iety
ĠWal es
M a
k ong
o uld
s y
Ġk las
Ġb ei
Ġb sa
ĠS ur
Ġkh ublei
ĠJ yrwa
ĠP ers
ĠI saiah
Ġh ynr
ĠKha m
ĠKh lem
ri l
iw ell
G en
L ouk
j op
Ġla wei
Ġia leit
ok tor
Ġkyr k
Ġriew spah
ist ri
ĠKor inth
ĠMat haios
Ġpynm ib
b yn
c p
o f
s is
ng em
ba l
Ġl it
Ġki ad
Ġt ai
Ġt aw
ĠP aid
ĠP ol
in d
Ġai n
Ġph la
Ġkhun lung
Ġ5 9
ĠHad uh
ĠMon don
I S
M ar
g h
h u
j ai
l d
Ġu ei
Ġha ve
Ġban yngkong
ĠS ab
Ġkh mut
Ġsh eptieng
Ġmyn miet
Ġmyn jur
Ġkyr hai
Ġ4 1
ynn ai
ĠMa si
Ġpyll un
Ġdor bar
. âĢĶ
A P
B lei
E M
K A
b e
r ing
Ġs aid
Ġr un
ĠS ng
Ġi w
ĠJ ob
ĠL uh
ĠL aw
ĠP ur
Ġkyn dong
Ġkyn san
Ġpyr tbei
Ġjingk it
ĠJing ieit
tha it
ĠF or
Ġphar eng
ĠHeb ru
6 0
B a
p b
p ai
u la
Ġd d
Ġn ep
Ġr iang
Ġsh un
Ġdon burom
ĠA le
Ġar phew
ĠE lia
Ġ4 2
Ġo a
Ġmaw siang
ish oneri
Ġst et
Ġjingd on
Ġphylla w
ĠKs iar
k bat
n ing
p ad
t ng
Ġka diang
Ġs ub
Ġia shong
Ġt iew
âĢ ľ
Ġi ta
ot duma
kha i
Ġ6 8
ĠBar o
tar y
Ġjingb ishar
ĠPhil ip
ĠBath ymmai
ĠWel sh
' t
U N
s at
Ġka h
Ġj ngi
yn maw
Ġn oog
Ġjing ong
ĠN ap
ĠT ap
Ġshi n
Ġkha r
Ġjingk nia
Ġ4 3
ic tion
Ġ8 0
ĠMaw long
ĠMyll iem
b eit
p et
t ra
Ġia kh
ĠS b
ĠM en
ĠL ei
ĠP eit
Ġshi phang
ĠD uwakdar
Ġnong ap
Ġpyr th
âĢĻ *
as ter
Ġshit nga
ug ust
Ġter n
Ġthi s
Ġfi iew
ĠHom iwell
d ai
m l
Ġs ynt
Ġjing it
hi ch
Ġkh lei
ĠM yr
ĠM ik
ĠL at
ĠT ymmen
al eh
Ġbr et
Ġbar it
Ġjings dang
ĠJer emaiah
Ġit ynnat
Ġis ynei
Ġpynh iar
istri ct
ĠElia s
. "
. ).
Ġs e
ĠS ot
ĠB ang
Ġpyn wan
ĠP as
kh ubor
ph lang
Ġc i
Ġ18 7
ui tara
Ġkyll um
ĠDur iaw
ĠTim ot
ĠSal ong
b nai
k ot
k una
m yn
p ud
s am
y o
Ġu to
Ġia l
ie o
ĠS ept
ĠH am
Ġna dien
ĠM o
Ġh ep
ĠR iew
Ġwan rah
Ġ* '
ĠC har
fi iew
ma ne
Ġ5 6
Ġ6 7
Ġ7 9
19 8
Ġkd ar
ĠMan o
Ġjingth ung
ks od
IE N
d t
Ġk una
Ġj or
Ġn on
kh law
ip mat
Ġjingp ynd
Ġf rom
Ġsb u
ĠPhi n
Ġjingj ot
ĠKat no
ĠX X
Ġe x
ĠGo ver
8 6
S h
b lang
i oh
Ġs m
Ġla r
Ġt rep
hi r
Ġr eng
ĠS ier
Ġkh eifi
ĠH ar
ĠN yngkong
Ġkum wei
ĠKi wei
Ġbar abor
Ġai h
ĠJing k
19 5
ĠO h
Ġkd up
ĠPyr em
TA B
ĠKan aan
Ġkul ai
Ġphyr nai
ĠBib le
ĠTimot hi
O T
r oi
w it
Ġk bun
Ġia da
ĠH i
ĠT yng
Ġw ar
Ġkyn ud
Ġnamar ba
Ġjings niew
es os
ĠE s
Ġ6 4
Ġbuh rieh
one r
bi tar
Ġky ang
Ġkhana tang
Ġno un
Ġsang eh
ĠSym ph
yngng ad
e j
e ct
Ġp li
Ġd am
Ġd ul
Ġd uwakdar
ĠK ar
Ġt yngkai
Ġjing ri
ĠS ang
ĠS ir
ĠS ngew
on d
ĠP om
ĠD ew
Ġkha ii
Ġkam bah
Ġ5 5
ĠKI TAB
ĠSa ul
Ġjingkyr khu
ĠLong doh
Ġsob jekt
uag e
U T
h o
p l
p hai
Â £
Ġla s
Ġt m
ĠS iej
ĠB ir
ĠN ai
ĠD ada
Ġh y
kh lia
Ġmyn shwa
ĠE sek
fi c
ĠKum ne
ĠG rik
Ġ5 3
ĠShi m
Ġjingpyn long
shi t
Ġkynr oh
ust oh
ĠSaw kuna
ĠKHA SI
olog y
ĠIj ipt
" .
4 2
: -
k aw
Ġ en
Ġka it
Ġj unom
Ġb o
ĠB id
ĠL u
Ġw eng
Ġw hich
ĠI J
uk i
il at
us e
ic m
Ġjingd onkam
ĠSam pain
ĠMes saiah
' ,
. -
A N
c ut
n r
p ule
q u
Ġba inong
Ġl et
Ġl ea
Ġp ra
Ġia wan
ar e
Ġm em
Ġpyn hap
ĠKi ta
sh oh
Ġkhn ai
Ġjingj ynjar
Ġtyr wa
Ġjingi thuh
Ġpr uh
Ġship ara
Ġno vel
ĠSan de
ĠAn ti
Ġnongb ishar
ĠPal est
ĠSymph up
T e
k m
ba pt
Ġla t
Ġi b
Ġsha dien
la ia
ĠM ustoh
ĠI mat
ĠD u
kh e
kh un
âĢĻ âĢĻ
es e
Ġf c
Ġf t
Ġsb uh
Ġshem phang
Ġshis ngi
Ġpy i
Ġsyr tap
ĠRom an
ĠMih ngi
Ġmin ot
ĠJos eph
I sa
L ada
S ha
W ar
d s
g es
l ew
p ung
t hang
Ġr ngai
Ġng uid
Ġkh on
ĠR on
Ġnong trei
yll ok
ĠNong rum
Ġjingk wah
ĠG al
Ġkit e
Ġpynb na
Ng i
Ġkynt ait
Ġnongb ud
ĠMuk en
ĠPalest ain
bapt is
4 9
l oi
l ain
t em
Ġl ob
ĠK mie
Ġha to
Ġb in
Ġjing sha
ĠS hang
ĠS HA
ĠM in
ĠR e
Ġ2 00
ynd iat
ĠKh ubor
Ġkyr khu
ir ang
Ġ5 2
ĠSh ong
Ġkynr iah
Ġsyr ngiew
Ġbi tar
ĠNongk o
Ġbap li
Ġiob i
Ġjh ur
ĠKhat duh
6 6
D a
b on
d ew
d er
g ai
m raw
r angbah
Ġba bun
Ġd eng
Ġth up
ĠD ON
Ġh ynniew
al l
ul om
sh nong
Ġa ba
ph et
ĠâĢĺ *
ĠY ing
il ia
Ġ6 5
Ġdieng phna
Ġ? âĢĿ
Ġjingpyn im
re tary
ord an
Ġpyll eng
ĠSam uel
ĠPyn ban
Ġjingl ait
h y
i ur
k on
k an
l ut
p u
Ġki ar
Ġd ud
Ġt l
Ġha ei
Ġr u
Ġsh lur
Ġsha ba
ĠL al
ĠI A
ĠR s
Ġsng cw
Ġnga b
ul t
ĠA ugust
ĠKha ng
Ġa a
ĠW ei
Ġkl os
ĠRi bha
Ġpynk ynmaw
Ġshim et
Ġkb ot
Ġkb mat
Ġiathuh khana
ĠDa v
Ġkhi m
Ġtyr p
Ġkynt u
ĠNo un
ĠMission ary
Ġkhyr dop
ĠPaid bah
iction ary
I M
^ ,
c c
d r
o v
Ġl A
Ġs oi
Ġd an
Ġd iang
Ġd ung
Ġt ien
Ġbad uh
Ġr y
ar o
Ġm ishoneri
ĠS ad
ĠS im
ĠH oi
ĠJ ar
ĠT ir
is s
ĠD un
ĠR aid
Ġkyr men
Ġsah eb
Ġkhn iang
Ġmat lah
Ġpur a
Ġnongk ren
ĠEsek iel
4 7
4 8
K hasi
l in
r uh
t ieh
w iang
ha ra
Ġs uin
ĠK y
Ġn ai
Ġb ur
Ġjing a
Ġr ad
Ġr ben
Ġkh um
Ġpyn hun
ĠJ ap
ut y
yll on
kha n
ynd i
ok otduma
ph oh
Ġsne p
Ġ5 1
Ġhang tai
tha t
ĠSt em
rat i
E ksod
S hi
b ong
k n
k wah
l eng
n ujor
p ar
r ut
Ġk ob
Ġk eih
Ġs ia
Ġs iem
Ġj ylli
Ġp uh
Ġjing bakla
ĠM al
ĠT om
en ce
is tan
kh uh
oi ig
Ġsne r
Ġ5 7
Ġjingpyn bynta
Ġtb ian
ali laia
Ġtymp ew
4 4
J i
U H
b iang
b ud
b ynna
p ang
s ong
s wet
Ġ ed
Ġs ieh
Ġp liang
Ġd up
Ġr is
ne ss
ĠS ngap
ĠB eth
ĠH ugh
ĠH igh
ĠN or
Ġkum to
ĠL YNN
Ġshi l
ĠKi w
in i
Ġsa k
Ġkyr siew
Ġa inguh
Ġnang no
ĠE x
ĠG re
kor dor
Ġjingb uh
Ġjingi oh
Ġml ien
ĠEph esos
cut ta
' *
U M
a e
r ow
w ang
hi n
ĠS ai
Ġkh ynr
ĠKa jing
ĠB ook
ĠL iterature
ĠT oh
ym g
Ġth ngan
ĠD ictionary
Ġnong kh
sha in
ynd ew
Ġhi m
os t
ĠNong rim
Ġkhl eh
Ġ6 1
Ġ6 9
Ġpyns an
Ġjingt em
Ġtb oh
Ġtn ad
Ġkhyll ipmat
ĠJait bynriew
ĠBeng ali
ĠLeh se
Ġrun ar
4 3
U R
g n
j am
r khie
s ew
v r
Ġk om
ng ain
Ġl ip
Ġki im
Ġp ub
Ġla is
Ġd ub
Ġt em
Ġb id
Ġb thah
Ġm ail
Ġkh ei
Ġsh yll
ĠB o
Ġsha phrang
ĠN oh
la b
la ka
ĠM ishon
it ion
ĠI S
Ġkyn ta
no w
ĠKha na
Ġa g
ĠE sra
ic n
ĠKA M
ak ot
Ġkt hang
Ġtb ob
Ġat iar
ros e
ĠCal cutta
ĠPers ia
L L
^ '
b n
g ew
k na
t l
t iew
v i
Ġk shaid
Ġka d
Ġla ka
Ġia ia
Ġia iam
Ġt ah
Ġha i
Ġr o
Ġr ud
ĠH y
ĠN ep
ĠJ ang
ĠJ em
la k
ĠT ha
ĠP re
ĠP ugh
Ġth ymmei
is tic
ad ar
ĠKh ron
Ġar sien
Ġjings neng
Ġmar jan
Ġhang to
Ġsb oh
ĠMaw s
Ġlait luid
Ġkhr iat
Ġtr eh
ĠLap alang
Ġbs ein
Ġjingithuh paw
H ooid
d d
j ang
m er
n l
Ġ el
ng it
Ġba sa
Ġp ad
Ġia shem
Ġd ar
Ġd kut
ĠK n
Ġn an
Ġt at
Ġjing nang
Ġr isa
ar ap
Ġban se
Ġsh ub
yr ia
ĠJ ordan
la ss
th ew
ĠM ang
ĠM as
ĠT r
ĠT ab
ĠP ud
Ġw or
ad b
ĠD istrict
ĠR yngk
Ġkyn jah
ĠA bi
sh op
ĠG i
ĠSha i
Ġmar eh
Ġshis yndon
Ġjingth iah
Ġjingpyr shang
ĠAp ril
ĠÂ £
Ġhistor y
O S
b ur
l ng
p un
s ap
y an
Ġba san
Ġs mai
Ġp yngngad
Ġd ng
ĠK T
ĠU ni
ĠB er
Ġsha r
ĠJ am
ĠT eng
ĠI sa
ynr ong
ĠD ol
Ġpyr kbat
ĠNong buh
ylla h
li c
ĠG alilaia
ĠSh u
Ġc h
19 80
Ġpy o
Ġlam ler
Ġtb it
Ġ... .
Ġbas tad
ĠSk ei
ĠKai sar
ĠAng el
c il
j or
p ara
t g
t in
v an
Ġk yl
ĠK yll
ĠK san
Ġt ba
Ġha n
Ġha s
Ġha khmat
Ġb l
Ġr at
ne d
ĠS ynshar
ĠS ib
ĠS ou
Ġi ne
Ġi ii
Ġkh eit
ĠB yr
Ġpyn iar
Ġsha rak
yr iem
ĠN eh
iew spah
th ung
Ġw iat
om e
Ġkha si
Ġkat ai
kha ra
Ġmyn sngi
ĠNong war
ph ra
ĠE li
Ġjingia lam
Ġma hadei
Ġ5 4
Ġ5 8
il la
ic h
ĠX I
Ġjai fi
Ġy ou
Ġnongk yndong
Ġjingkha wai
ĠSec retary
ĠDep uty
ĠDam bri
' ^
E H
N amar
U i
b neng
j ri
l t
n ei
s ynei
Ġj yll
Ġia don
Ġd om
ie a
hi m
ĠS oi
ĠS ain
Ġi v
Ġkh or
Ġsha pbang
ĠT H
it os
Ġth iaw
ĠD rama
ĠR I
ĠR ong
ĠR yn
ĠKi n
yng khong
Ġsng ur
Ġnong rwai
sh lur
ĠG anga
ĠSh yllong
Ġsah lang
Ġbym man
ic e
Ġsb em
Ġiathuh lypa
Ġ12 0
Ġsur i
ĠKat to
ct ober
Ġpynb ud
ĠSor dar
ner al
Ġjl ng
ĠNang ne
ĠSep ngi
Ġthai fi
6 1
C a
M e
d ih
i f
j m
j em
k in
s n
s op
v en
ĠS ynr
Ġi uh
or y
Ġpyn rem
ĠH e
ĠH o
ĠJ ONG
ĠM ad
ĠM ular
ĠT hang
Ġw ill
ad ei
Ġshi bit
ĠD e
Ġkyn bat
os e
ĠG at
ĠLyng ngam
Ġkhr oh
Ġkp ut
Ġnongs ynshar
Ġlaw bei
Ġjingph ohsniew
Ġop his
ĠJen til
Ġkyrk ieh
- âĢĻ
5 3
T h
p li
r yn
Ġk ni
Ġka jong
ha s
Ġl uh
Ġj on
Ġbad on
Ġb ut
Ġb na
ar oh
Ġm iaw
Ġkh u
ĠB iei
Ġsha p
ĠJ e
ĠM em
Ġja k
Ġkan i
il e
Ġ6 2
Ġkb lem
ni uh
ĠUm soh
Ġjingsngew bha
ĠDieng doh
lyngk ot
Ġlymp ung
ĠJon ah
' m
M aw
j in
r iat
Ġ er
Ġba khuid
Ġia h
Ġn iang
Ġn ylla
Ġbad ien
ĠS in
ĠS niew
ĠJ ler
Ġna dong
si d
si on
et er
Ġmyn s
ĠKh n
ĠKh mih
ĠNong bishar
Ġar e
ĠY oh
ĠC ha
ĠSha n
Ġsn oh
Ġ9 0
Ġbn iat
ĠO ng
st it
Ġshis pah
Ġbi eij
ĠJu tang
ĠÂ ®
lyn ti
Ġshyr khei
ĠPrim rose
ĠBl ci
ĠLYNN ONG
khara iah
7 0
b ynr
j ub
k o
k pa
l ish
r ta
t uh
Ġs uid
Ġu r
Ġp e
Ġp ul
Ġp vn
Ġjing is
Ġm u
Ġm uk
at i
ĠS ub
Ġjong no
Ġlong doh
ĠP d
ĠI eit
ĠR yngkat
Ġkyn shew
Ġpyr d
ĠKh yr
ĠKh yndai
yngk ot
op e
Ġtha la
ĠC enten
Ġo ne
Ġf l
Ġ. .
Ġim lang
ic ng
ish ni
tb ub
Ġky i
Ġtyr khong
ĠKit bor
Ġjingr oi
Ġjingshem phang
Ġsal ia
Ġjyr ngam
ĠNongia thuhlypa
ĠRead er
' d
* '
- ^
. ),
7 9
j n
p eit
s la
t m
w ieng
Ġka bym
Ġl iterature
Ġki eng
ĠK yndong
Ġn um
Ġb is
Ġr n
Ġm ul
Ġm udui
Ġm okotduma
ĠS HI
ĠB on
Ġsha wei
ĠN A
is kam
ĠI cit
Ġkha h
ka iah
ph uh
ph ylla
Ġkhl am
Ġtha d
ii r
ĠJing mut
ĠJing shai
Ġ19 80
ĠSha d
ĠSh ul
ĠTh ei
ui fi
Ġpynp hai
ĠPait nia
Ġiaia de
H eb
R ev
U m
a u
b et
d m
f or
j na
t y
t ylli
Ġ ).
Ġp ol
Ġia sngew
ĠK ynd
Ġr oh
ĠS ba
ĠS ylh
ĠH amar
th ymmai
ut ion
ĠI c
Ġnong leit
sha t
ka p
ul y
ĠA nd
Ġkhl ai
Ġri ch
Ġ6 3
Ġsah ep
Ġ18 8
ĠO f
Ġjingpyn iaid
Ġji ug
Ġkur a
Ġly iur
Ġjingsngew nguh
Ġkhr iam
je e
ks eh
Ġpas s
Ġkhad duh
ĠBeng al
ĠPas tor
ĠDav id
ĠCenten ary
5 1
H ynrei
L yn
Q g
Y R
b uit
f er
j aw
m udui
n da
v ers
w ci
Ġjing khot
ta ri
ĠS wer
Ġi f
Ġkh op
ĠJ at
ĠM i
ĠP er
ĠP ad
ĠP ara
Ġth iar
Ġshi kat
Ġh u
Ġnong ai
Ġkyr s
pa b
ynn in
Ġbor abor
Ġ8 9
Ġjingpyn shitom
ĠF ran
saw lia
ĠX V
Ġsynd ah
Ġpo etry
ĠSk ul
Ġjingh eh
Ġars ut
ĠTir ot
ĠDol oi
ĠSylh et
P H
W at
d up
h on
o am
r et
r ip
t yr
Ġ Z
Ġl or
Ġl ui
Ġd war
Ġt or
Ġt ab
Ġb ih
Ġm ang
ĠN at
th em
em ent
ĠT haw
it ical
ĠP am
og rap
Ġjingia kren
lang brot
ĠSh yr
Ġ7 6
ĠMar ch
ĠF ir
ymp ei
ce ne
ĠRom ilia
ĠSam la
Ġpynj ah
Ġpur i
Ha ba
Ġsngewt ynnat
ias iat
uc ation
- '
A W
Y M
c tion
d ep
h eh
k ano
p ap
p ore
r up
s it
Ġs iaw
Ġj oit
Ġj tng
Ġp p
ei i
Ġia ieh
ĠK ur
ĠK ylla
Ġb h
Ġjing shong
ne n
ĠS tat
Ġkh oit
Ġsh or
Ġsh er
yr khat
Ġw ere
is i
ĠKh ie
ra b
Ġkyr t
ĠY ap
Ġma ham
ĠMar i
Ġsam rkhie
ĠNa ba
Ġkut n
Ġtyng eh
ymp at
Ġsei soh
ĠPha war
nar phna
Ġbas dang
pi tal
ĠJa ka
te e
Ġjaid bynriew
Ġog i
Ġkhong pong
uth or
ĠNongt rai
Ġmyr siang
Ġsog ew
ĠSe kharaiah
ĠSept ember
5 5
O M
b ba
p ng
p oi
r ew
s un
Ġia w
Ġia ki
Ġia trei
ĠK t
Ġjing bitar
ang nud
ĠS ei
ĠS ut
Ġkh m
Ġjong nga
ĠB rit
ĠH I
th ing
Ġshi miet
om i
Ġsng e
al am
kh lad
Ġsngew nguh
Ġph ieng
ĠNong sh
Ġkhl ieng
ynn oh
ol l
ĠTh ess
Ġpyns um
Ka ne
ic a
Ġ9 8
ĠMa y
ui j
ish ot
Ġjingd una
Ġpaw nam
Ġjingsngew sih
Ng am
ĠSt ew
ĠSt en
kyn thei
Ġkn m
ĠJud ia
pha n
Ġsynd uk
ĠAm os
ynna b
âĢ¢ âĢ¢
Ġpynsh lur
ĠNG AP
Ġjii ig
Ġjinglait luid
Ġrad bah
5 4
A H
L EI
c ti
d w
k tien
l es
o ag
r t
r iem
r in
Ġba kh
yn siem
Ġt ym
Ġr es
Ġm g
Ġm reng
ne s
on oun
Ġkh ra
Ġsh l
Ġsh ukor
ĠH in
Ġna dub
Ġth ok
ut ia
ĠR ep
kh mi
Ġkyn thoh
Ġnong shong
Ġkha i
oi i
Ġkat kum
ĠW ow
Ġshong kha
Ġjingk ut
ynt ih
ĠBa k
Ġiap oi
ĠO nd
ki ba
Ġryngk ew
Ġ11 8
Ġst ing
Ġpy ut
Ġkynr am
Ġkhi in
Ġjingkh raw
ĠNo v
ĠRo ba
Ġad ong
Ġrep ort
Ġsym boh
Ġra khe
Ġsop ti
ĠPresbyter y
Ġjingh iar
ĠKol kata
ĠSoi tan
b eh
d ie
f ed
h iang
y s
Ġk fiia
Ġba la
Ġba poh
Ġs aifi
Ġu p
Ġj ubor
Ġia mih
Ġb er
ĠB ym
Ġpyn tha
Ġsha rai
Ġsha neng
ĠH ead
ĠN i
ĠM u
ĠL ym
ĠL ad
ĠT itos
ĠR ad
amar ia
ĠKh oh
es li
Ġja khlia
Ġtha u
Ġ7 8
Ġsb un
Ng an
ĠHang no
ĠJu ne
Ġal l
ĠÂ ©
Ġshy iap
Ġkj it
Jing pyn
ĠSer am
ĠLew in
ĠChar an
ĠLal oo
Ġjinga inguh
ven ir
J o
R i
c ha
l h
r ie
s ieh
t is
w e
Ġ aw
Ġp i
Ġp bi
Ġla not
Ġd oktor
ĠK YN
Ġn eng
Ġt lang
Ġha no
Ġb yll
Ġr ei
Ġi ia
Ġsha tai
ĠN P
ĠM ap
ĠP ub
ĠR iti
ih on
in k
Ġnong kha
Ġnong mih
yll ait
kha p
Ġmyn si
Ġjings hitom
Ġjingk oit
ĠKum ar
ĠJing long
Ġjait byn
Ġ' âĢĺ
Ġ19 9
ĠBa khraw
ĠLyng ba
Ġkt ieh
ec ember
ĠAss yria
kyn tien
ĠPres s
ĠJING S
pyr khat
ling ki
Ġjingmih pat
lyn nong
ĠPo etry
Ġjingpynd onkam
Ġkhynr aw
/ -
4 5
6 8
I N
I a
k k
k u
m it
s neng
s tan
t yn
Ġka b
Ġia hap
Ġr ain
at ed
ĠS o
Ġkh y
ĠB os
ĠB ilat
ĠM er
ĠI X
ĠI b
no b
Ġbr icw
kha m
Ġph iah
Ġbha briew
Ġpynk yntang
ĠO ctober
Ġsk ei
ja ka
Ġpa ka
Ġsba phang
Ġsat i
Ġsy aid
Ġpl eng
Ġnongia thuh
ĠPat eng
Ġhad ub
shan iah
Ġ197 9
Ġthei r
Ġkun i
sng iat
ĠMor ris
Ġpei sa
Ġbynr ap
ĠLew is
Ġiw bih
ĠShang pung
ĠSeram pore
/ âĢĻ
A i
b le
d h
d um
k up
m oh
t f
u ary
w iar
Ġk rai
Ġka bu
Ġs yngk
Ġs war
Ġla jan
Ġt yngk
Ġha m
Ġb leit
Ġb erb
Ġm iej
ĠU rn
Ġng ain
Ġkh ulom
Ġsha ta
Ġth ri
Ġw it
ĠI s
ĠD A
ĠD o
ĠD uitara
al ei
Ġkyn sha
ul mar
Ġai fi
Ġpha d
Ġleh noh
as ong
ĠC oun
ynt u
ĠJing tip
us on
Ġ7 7
Ġsb is
Ġpynk up
Ġ10 8
ymm ang
Ġ11 6
Ġsba pbang
je kti
ĠPha n
Ġjingth ob
Ġis ih
pat eng
issi oner
Ġdum a
oun d
Ġsbi bun
ĠPol itical
ĠNeh emaiah
ĠSut nga
5 2
5 6
M i
S oh
b ir
j on
l ieng
n ment
s iar
t ri
Ġk tang
ng at
ba p
Ġki ci
Ġs li
Ġj n
Ġia th
Ġd ai
ĠK hi
Ġn usi
ing ut
Ġm as
ĠS uk
ĠB is
Ġpyn trei
Ġsha dong
Ġsha rati
un d
un i
ĠP UT
Ġth rang
is hah
ynr am
ĠKi ei
kha w
kha ng
Ġhi n
og i
Ġjingk fiia
Ġks ah
Ġsah narphna
ĠBa la
ĠMa la
Ġ10 7
ĠMaw khar
Ġ11 1
Ġpyni oh
ĠF r
Ġkynr up
ow el
ĠLyn ti
Ġtr an
Ġpynkha m
TA P
Ġbyn eng
ail ar
ĠAd am
ĠRis aw
Ġtoh kit
Ġtyrp eng
vers ity
ĠBrit ish
Ġbleit haw
jekti b
. ^
B ad
E S
h iar
k san
l im
p rah
s ang
Ġ ev
Ġk ub
Ġk ol
ba s
Ġki i
ia og
Ġs ul
yn e
Ġd ik
Ġr m
ar d
Ġm i
ĠS imon
an i
um ai
ĠB ur
ĠB urom
ĠH or
ĠJ ia
Ġna p
er y
it tee
ĠR yng
yng ngoh
kh ing
uk u
uk hi
Ġnong wan
ĠHa g
Ġkha jna
op le
Ġleh niam
Ġpynd ei
Ġlang brot
Ġiap yn
Ġsk ud
Ġjingpyn i
Ġlam wir
Ġjingi ohi
Ġni ut
ĠJING K
ĠSah eb
ĠJi og
ĠRis ing
Ġsub ject
ĠEs ther
ĠLu khmi
ĠShul lai
ograp hy
, âĢĻ
9 7
E NG
O h
Y m
b ein
c an
h ep
l la
n n
p n
Ġk op
Ġk uin
Ġs ian
Ġj wat
Ġp uit
ei d
Ġt ub
ne t
Ġi u
an t
Ġkh iah
Ġkh rei
ĠB I
ĠB iel
Ġdon nam
Ġw rit
ĠI f
Ġkiba n
ĠR ia
ĠR ung
kh yr
Ġkyn to
Ġkha wai
id e
kha wai
el i
ĠKh nang
yngk iang
ĠNong sawlia
ri g
Ġshong kai
ĠE i
Ġo og
ĠG aro
Ġks ang
Ġ7 2
Ġman briew
ĠV ol
Ġsk it
and ar
and er
br u
bat on
bi kai
Ġap pe
bai bal
ĠPha lingki
ĠX II
yi ur
sar ong
Ġjingph ylla
Ġ193 7
Ġpynh er
Ġpynt ngen
ĠSyr ia
ĠComm ittee
ĠTam ti
E k
E ph
N O
P ule
T he
Y NG
f li
h ur
j g
k r
k om
l ynnai
n m
p y
w oh
ia dei
Ġu bym
Ġj it
Ġj al
Ġp j
Ġd is
Ġt in
Ġt yndong
Ġt ngen
Ġha ti
Ġjing duh
Ġm h
Ġm ission
ĠKa l
ĠB uh
Ġpyn tip
Ġlong shuwa
ĠN oog
ĠM y
ĠM yllung
ĠP usi
ĠP ink
ien ce
ĠD oktor
Ġh iew
ĠR ol
lei n
ĠA kor
ynd ep
Ġsa hit
ĠC hi
ĠC os
rei s
Ġks an
mie d
Ġthe y
Ġpyns niew
Ġsn ieu
Ġsb nong
Ġ8 6
shi m
Ġ12 6
ĠUm iam
Ġsan i
thi h
Ġpl ung
Ġjingkh ein
Ġan tad
Ġpo im
Ġjingma ne
Ġker n
Ġtan k
ĠGe neral
Ġpynth or
ĠCa jee
ĠComm issioner
ĠDoh nud
Ġtaw iar
ĠNap deng
ĠGover nment
ĠSou venir
ĠCoun cil
ĠRol and
' '
A m
d uwai
j ih
j ones
o ta
r eit
t ung
t ain
v m
Ġl U
Ġl oog
Ġki d
Ġki ng
Ġs leh
Ġs uba
Ġp u
Ġla rap
Ġia iap
Ġia bam
Ġt al
Ġt oi
ne y
ĠS amaria
Ġkh yllah
ĠB ha
ĠB riew
ĠH ei
Ġlong iing
ĠJ it
ĠJ ylliew
Ġw ould
ĠR od
ĠR uth
kh iang
Ġnong kam
ti g
ĠA sia
Ġhi r
Ġai lad
Ġph ohsniew
ĠW est
Ġum ph
Ġma ian
il g
ol d
Ġ' *
Ġpynd ait
ĠTh ylliej
Ġ7 3
Ġsb ym
Ġ8 7
Ġ8 8
Ġin shi
ĠId ba
ĠF eb
Ġ13 0
Ġtyng shop
Ġlam et
Ġjingsngew thuh
ĠMyn ba
Ġtn um
Ġjingai ei
ĠÂ §
Ġjingma ham
Ġmam la
ĠKit o
Ġthap niang
Ġjo ag
ĠVII I
ĠSob ra
era cy
ml uh
ĠMik ir
ĠSir dar
Ġjingsha kri
ĠUni versity
ĠIsa ak
sid ent
ĠKhoh wah
ĠPUT IT
) -
, *
9 6
A L
A NG
K at
T I
b yr
b eifi
c l
c in
c har
k ul
k ir
p liang
Ġk ym
Ġk ynrei
Ġs dien
Ġj y
Ġla ma
Ġla leh
Ġia thub
Ġia nujor
ĠK op
Ġn m
Ġn yng
Ġt c
Ġb eifi
Ġr ngiew
Ġm ain
Ġm ishon
ĠU p
on s
on ia
Ġi it
Ġsh n
ĠN ah
ĠJ uly
Ġna h
Ġna ka
en tari
ĠI ch
Ġh or
kh mih
Ġkyn tbei
in c
Ġnong tb
ti r
Ġbr ie
ĠKha sis
sh or
ĠKh ublei
Ġph rang
Ġph riang
ph ong
Ġkhl aifi
Ġjings umar
Ġjingk ular
ĠE h
as am
Ġhaba r
Ġkin c
ir ect
Ġ7 5
Ġsb it
Ġsb ub
Ġiap eit
Ġbat ri
ĠO r
Ġmaw bynna
Ġnongp op
ĠKong san
Ġkr iah
Ġkr cn
Ġpur iskam
ĠCh rist
Ġ184 2
kat ne
ĠKH UN
197 8
sim ai
ĠSab baton
istic s
ĠSin ai
N ai
P a
S ait
^ -
d o
g an
j ng
j ew
j ir
p g
p ur
s iej
t eh
t ymmen
u o
Ġ }
Ġ eit
Ġl in
Ġki juh
Ġs liang
Ġj ng
Ġj at
Ġj ynd
Ġp ym
Ġia jan
ĠK uku
Ġb oi
Ġb ynn
Ġr uk
ar tatien
Ġm ong
Ġsh niuh
ĠKa p
ĠB en
ĠB ud
ĠB neng
ĠB nai
ĠN eb
ĠL ur
ĠL eb
ur al
ur ch
ĠP YN
Ġw e
kh ein
kh rah
Ġkha tar
ob oam
Ġkyr huh
ĠE n
ĠSha no
ĠSh uh
Ġ7 1
Ġjingt hang
Ġjingt bit
Ġ9 7
Ġ10 1
Ġjingpyn kylla
ĠPhi m
re e
ct or
Ġ15 0
Ġky iad
Ġit s
ĠSa jer
IE M
Ġhyn ne
Ġang nud
ĠNongs teng
Ġpah uh
ĠEd ucation
Ġpai la
ĠEl isha
ĠSng on
ĠRyngk ew
ĠKT IEN
ĠEli jah
ĠGat phoh
A p
B aroh
K H
b is
c o
e f
f r
h en
i uh
l u
o Dg
s m
t ba
v ng
z en
Ġk raw
ha na
Ġl ur
Ġs ima
Ġs tar
Ġj ylla
Ġp uson
ĠK u
Ġjing iar
Ġm us
at ia
ĠS uba
Ġi in
or ei
Ġpyn leit
Ġsha ei
ĠN ar
ĠL ber
ĠL yiur
ot e
ĠD ecember
Ġnong jop
yll up
sha r
Ġmyn h
Ġpyr s
ĠKha d
sh u
Ġ- -
ĠNong khlaw
ynta h
Ġshong thait
as iat
ĠC iti
ynt ieh
Ġpar ab
Ġim g
Ġ7 4
Ġst ieh
Ġjingd ap
iw bih
Ġtyng shain
Ġg rammar
Ġpynia pher
Ġjingkh iah
Ġtr ap
Ġbas niew
ĠSaw dong
IE NG
ĠKong thei
Ġkr ung
ĠJa iaw
ĠCh yne
197 9
had em
ĠLang uage
Ġkaj ia
ĠMr s
ĠLai phew
ĠKom entari
Ġthor n
ĠTyr sim
Ġkal andar
stit ution
Ġrm iang
Ġumph niang
ĠCiti zen
U ba
b d
k e
k y
n ap
r st
t el
t ynnad
w d
Ġ _
Ġ ie
ng aw
Ġba thiang
ha jar
Ġs ing
Ġp yngkiang
yn saw
Ġd t
Ġha ta
Ġjing la
Ġjing shaniah
Ġr uma
ĠS l
Ġkh ep
Ġsh yn
Ġsh iah
Ġsh ynna
ĠN ew
ĠM us
ĠL on
Ġw ho
ĠI pa
ynr oi
ĠD aw
ĠD in
ĠR upa
al oni
ih g
kh er
Ġkyn ih
yll iang
id a
Ġioh thiah
ĠKha ra
Ġph reis
ph y
Ġ3 00
Ġar ti
Ġjingia thuhlypa
Ġo ut
ĠSh wa
Ġks aid
Ġlyng ngai
Ġpyns uk
Ġ9 5
Ġ10 9
Ġjingpyn paw
Ġkti k
ĠSoh pet
tha i
Ġkyll ain
Ġjingd awa
Ġkt em
jan ai
Ġpynb ynta
bor ne
Ġpynia bynta
Ġpr oh
ĠSt ep
Ġe ks
Ġad j
ĠKH R
ĠWah lang
Ġmam a
our se
Ġle ft
Ġog a
Ġpynph riang
ĠJingpyn paw
ĠHos ia
ĠSH IT
ĠNongpyn im
ĠSain simai
ĠUmsoh sun
Ġmul uk
ĠFir st
ĠNov ember
B an
L ei
S a
d om
f it
g ut
h ei
l m
o ut
o ugh
p yll
s c
s bar
t rai
ng iam
ba si
Ġs ta
Ġj yntang
Ġp ng
Ġia soh
Ġn yn
Ġt d
Ġt yl
Ġt ynnat
Ġt lot
Ġha w
Ġb esli
oh nguh
Ġjing bun
Ġjing angnud
Ġr om
Ġr ap
Ġr ympei
Ġr ishot
at or
Ġi r
Ġsh rieh
Ġpyn lah
ĠH ind
ĠJ yr
ĠJ ah
Ġ1 19
ĠL ONG
ĠL ister
ĠT er
is m
ĠD i
ĠD ak
Ġh ynt
ĠR ukom
Ġnong ri
ynd it
sh er
ĠKh ynnah
wa b
ĠJing p
ĠJing stad
Ġkl im
ĠSha tei
eb on
ĠV P
Ġriew ngeit
Ġkti cn
ĠPa ham
ĠLyng dob
ĠBan k
ow er
ĠPyr thew
Ġkp ep
Ġpynia soh
ĠThe ology
ĠLum lang
Ġy ear
Ġkn up
ru ary
Ġpo em
ĠDieng iei
ĠKH U
ĠAm er
ĠKs ew
Ġkhyll ie
Ġkynj oh
olog ical
ĠJan uary
ĠRym bai
ĠPur imai
ĠBang la
ĠKhana tang
lish ed
Ġshikat dei
ĠKop sop
6 2
A h
C i
K ol
a o
k un
k ed
n ad
s nem
w n
w al
Ġk re
Ġk ner
ng ar
Ġs lia
Ġj yng
Ġp bai
yn juh
Ġia tbuh
Ġd us
Ġn or
Ġt iak
ing s
ai i
Ġb uj
Ġr um
Ġm yll
Ġm iat
Ġi o
ĠB TAP
Ġpyn neh
Ġsha id
Ġsha jrong
ĠN ia
ĠN on
ĠN ad
ĠN ihon
ĠT bam
Ġw oh
ut e
ĠA men
Ġmyn nor
Ġnang iaid
ĠâĢĺ ^
Ġpha lang
Ġjingia lang
Ġjingp eit
ol ar
Ġks eh
Ġks iah
Ġc la
Ġsn i
Ġsb im
Ġ8 1
br ieu
Ġpa ge
Ġryngk ang
poh liew
re at
Ġv i
ord it
Ġg o
Ġpynr iewspah
ober b
ĠCh urch
IA NG
LA W
Ġsab ut
Ġpynh eh
ĠSy icm
ĠKb rist
Ġ190 8
Ġpynth ut
Ġ198 3
Ġnongt uh
ast ieh
Ġhynr ci
gh t
ĠPhilip i
kaw ei
ĠAnti ok
ult ure
ĠNor th
ĠPre sident
Ġpe ople
ĠStat e
fed eracy
ĠRia kor
" ,
, .
8 1
C T
U K
U a
a ch
i ot
j c
k al
o us
s nam
s khem
w o
z ar
Ġ q
Ġ ord
Ġk e
Ġk k
Ġk dang
Ġl on
Ġki jing
Ġs er
Ġs ma
Ġs yngkai
Ġs ympat
Ġp ot
Ġla lam
Ġla jong
Ġd khiew
ĠK on
Ġt f
Ġt on
Ġt en
Ġt ion
Ġm al
Ġkh rong
Ġjong ki
Ġsh yng
Ġsh lan
Ġpyn bun
Ġsha pha
ĠH yndai
ĠN an
th ied
ĠT I
ĠP or
Ġth ere
Ġw ang
Ġw in
yl i
ĠI g
om bor
Ġsng eu
kh reh
Ġkyn jat
Ġnong bat
ĠA uthor
Ġne b
ph or
ii l
ĠE ur
Ġma y
Ġma la
Ġf ii
ĠShi nam
Ġpoi kha
bar im
Ġc o
Ġsn ap
Ġsn cm
Ġjingt b
Ġ8 2
Ġiap yr
Ġin to
ath er
iap ur
Ġpynp oi
ist ia
Ġkt ieo
Ġv erb
Ġiak yn
Ġthi r
ĠBas a
art ment
Ġnongs iat
Ġkaw ci
Ġnongpyn kylla
ĠKyr teng
Ġkul mar
ĠMih pli
Ġpas iaw
Ġbu aid
Ġbaj rong
TH OH
shon hi
ĠAg ent
Ġsog i
ĠHam let
Ġdul an
ĠDun can
Ġpul it
ĠOnd rom
ĠHag gai
6 9
9 1
B alei
E P
I NG
K I
P yr
Y nda
h iew
j ab
k ad
m ei
m uri
r un
s kum
t ih
t ep
w in
ba san
Ġba it
ha l
Ġl ot
Ġs iar
Ġj ir
Ġp re
ei gn
Ġt ak
Ġt dem
Ġbad ub
Ġr ia
Ġr akot
Ġr asong
Ġm oh
Ġm ait
at o
ĠU ei
ĠS un
ĠS NG
Ġi c
Ġkh ud
Ġkh mied
Ġsh uki
ĠKa shari
ĠB e
Ġpyn leh
Ġpyn noh
Ġsha lan
Ġlong sem
ĠJ al
ĠJ ymmang
Ġna d
er na
ĠT ok
it on
en i
ĠP HA
Ġth er
ĠI an
ynr iah
sha it
ĠA ll
Ġpyr khing
sh un
Ġsngew dei
Ġkyr doh
ĠW il
Ġleh rai
ĠLa ne
ĠC are
Ġ' '
Ġmar ch
Ġ9 6
ki ei
Ġkb raw
Ġkb yndiat
Ġjingpyn beit
ĠMaw phlang
shi para
Ġpa ki
Ġbud dien
Ġ14 0
Ġv owel
ĠPyr khat
Ġky o
Ġpl an
Ġing dong
Ġkynt on
Ġli fe
Ġfi rst
Ġ184 6
Ġduk an
Ġkaw eh
Ġpyndon burom
Ġbarob or
Ġkynd eh
ĠCa es
Ġpuk ri
Ġlymp at
Na ba
fii uh
Ma y
Ġpyrth ci
Ġdul ir
ĠBir th
ymg am
cti ve
ilg rim
ĠAmer ica
3 00
E m
E IT
I D
J a
J u
M an
O K
S HA
d uid
k ynduh
l s
o ah
p uh
p le
t yng
u istics
v ed
Ġ %
Ġba l
ha ti
Ġl oit
Ġs yng
Ġu tei
Ġj r
Ġp neh
Ġla ingut
Ġd it
Ġb il
Ġb yndi
Ġjing wad
Ġr hem
ĠU no
ĠS O
ĠS pah
ĠS yngkhong
Ġi kt
ĠB oi
Ġda bor
ĠN ine
ĠJ ab
ĠM oin
ĠT i
ĠT ro
it ed
Ġth ie
Ġth ym
is e
ĠI aw
Ġh ei
ĠR iang
ĠA in
Ġpyr sad
ĠKha s
Ġsngew synei
Ġph ur
Ġph oi
da y
ĠNong l
ĠNong hikai
Ġjings y
ĠLa b
Ġkhun swet
as e
ĠC l
ynt ngen
ĠHaba kk
Ġ10 4
Ġsam oi
le y
st is
Ġshis ba
ist s
Ġ16 0
ĠPr onoun
ĠPyr t
Ġiai neh
saw a
ĠNo ah
Ġbas khem
Ġphuh mat
Ġsyn ei
Ġkyrd em
Ġnongk it
Ġbe en
pen i
Ġsp ong
Ġkhoh wah
Ġkhoh siew
ĠPhil istia
Ġsot ti
Ġml uh
ĠDep artment
Ġran ab
ĠSc ot
ĠGal atia
ĠGre ek
Ġshyll iah
ĠJe ebon
Jo sh
Ġlehnoh ei
Ġsul oi
ĠSHIT HI
ĠHabakk uk
, ,
5 7
8 9
B R
I V
M EN
N A
b ol
d u
i im
j t
k d
l and
m ang
m ah
q g
x x
y ieng
Ġ oi
Ġp en
Ġd oi
Ġn y
Ġt J
Ġha juh
Ġb ii
Ġb ir
Ġjing Y
Ġjing tar
ar ong
ne p
ĠS up
ĠS cene
Ġi Q
Ġi l
or a
Ġjong u
Ġpyn ap
Ġpyn wai
Ġpyn shad
ĠH ynr
Ġna og
Ġna bar
ĠM ed
ĠL e
er o
ĠT ohi
ĠP ah
Ġth ylli
Ġw ir
yl ia
ĠD ong
ĠD ai
ĠD khoh
ĠR op
kh on
Ġkyn thih
Ġnong rah
Ġmyn saw
el y
da k
ĠNong kha
ĠâĢĺ '
Ġjings ng
Ġjings hit
pa s
Ġshong man
Ġshong kurim
Ġjingk ordor
Ġjingk yntu
ĠE ast
Ġjingp ah
ĠJing khawai
Ġf e
Ġf ca
de d
Ġtar a
one y
Ġ10 6
ĠMaw mluh
br ang
Ġjingj rong
Ġ11 3
Ġpynp ait
Ġkyll uid
Ġlut e
Ġsan phew
thi kna
sngew bha
Ġap ot
ĠJer oboam
Ġjingb it
Ġsy ep
ber t
ĠSa ei
ĠThe od
kyn sew
Ġkn ieh
had adar
Ġsap h
Ġpynsngew bha
ĠKhong dup
ĠHyn fiiew
ĠNongia lam
ĠWilliam s
ĠPait bah
ĠWa hadadar
ĠLuh blei
ĠTom lin
illa ges
ryn ieng
Ġpyrd ain
Ġkub ur
ĠLon don
Ġeks amin
ĠHind u
ĠCare y
ĠCaes ar
) âĢĶ
. **
J ain
L yng
R AI
S S
S c
b ed
f fi
h ukum
i li
k roh
t et
t ed
u wei
Ġ ob
Ġk rad
Ġba ar
Ġba iong
Ġba pdeng
Ġba shisha
Ġki b
Ġs ylli
Ġs ada
Ġu ng
Ġj oh
Ġj yntah
Ġp ong
Ġp iam
Ġp bar
Ġia long
Ġd uitara
ĠK li
Ġha na
Ġjing T
Ġjing ud
ta iew
Ġr ng
Ġm b
Ġm or
Ġm er
ne sis
ĠS um
ĠS ynd
Ġng l
Ġkh rai
Ġkh wan
ĠB h
Ġlong dien
Ġlong kpa
ĠN iang
ĠT lang
ĠP art
ĠI ll
ad u
ĠD khan
ĠR l
ĠR it
ĠR ub
Ġnong leh
si c
ĠKha ai
Ġsngew hun
Ġtha ih
Ġjingia m
Ġjingia lap
Ġ' ^
Ġc m
Ġlang uage
ik l
Ġpyns leh
Ġdieng soh
ic i
ic t
19 0
ĠMa jaw
ĠO li
Ġlai ong
Ġshit yllup
Ġ12 8
ĠPa ge
Ġ! âĢĿ
Ġ11 7
Ġiar wai
fl iew
Ġkp ong
Ġtyr sim
ĠPha dar
Ġnongp eit
man uel
Ġre g
Ġhyn fiiew
ĠAr bnai
Ġsyn juk
ĠPhar shi
ĠRam hah
Ġan y
197 3
Ġkm e
ĠAd v
Ġmynt ri
ĠLai seng
Ġtyll ai
sl ation
Ġiab eh
ĠSc ience
ĠSob jekt
oli k
ĠRym phang
Ġsm ew
ĠKar ew
Ġib h
ĠThang khiew
ĠCos ta
ĠNah um
Ġikt iar
* ^
9 2
J ob
S yiem
W a
Y LL
d in
h ong
i um
j ok
j ig
k es
k jat
l f
n amar
r r
s p
s ei
s in
s bi
w el
y se
Ġk now
Ġka oe
Ġba o
Ġba lor
Ġba thymmai
Ġl upa
Ġki oe
Ġs ch
Ġj ap
Ġp nah
Ġia tip
Ġd ier
ĠK ath
Ġb od
ĠS u
ĠS id
ĠB ei
Ġpyn baptis
Ġsha rum
yr khei
ĠN ab
ĠJ or
ĠJ aid
la khai
th u
th od
ĠM iaw
ĠL ok
ĠP H
ĠP bar
ym b
is oh
ĠI ta
Ġshi rta
Ġkyn da
ait ung
Ġphi kir
Ġpyr that
Ġai bor
ĠNg ap
ĠNong kseh
ri c
og ew
ĠY ohi
Ġjingp ut
Ġo ur
ĠG il
ĠSh ynna
Ġto d
Ġjingt ei
Ġ8 4
Ġ8 5
Ġpynk san
Ġ9 4
ĠMar wei
Ġriew khuid
Ġ12 4
Ġkynr um
Ġias aid
Ġjingth ew
Ġnongia lap
Ġjai h
di ih
ĠLait kynsew
Ġpo et
ĠKH LAW
ĠAi om
Ġbs eih
Ġkynj ai
Ġkynj ri
Jing kh
Ġtim e
Ġbt in
ĠKol os
Ġkei fl
Ġkiw ci
Ġso em
IS T
Mar k
ĠAle x
ĠGover nor
Ġtm ang
ness ar
ĠGi ri
Ġiasngew thuh
ĠThess aloni
ĠHead m
Ġnongmih khmat
ĠIb id
ĠRod borne
ĠUp per
ĠEur ope
ĠMoin a
, "
6 7
J en
J irang
b rai
b new
e og
j o
j oh
l on
l os
p ut
r yngk
r ation
s aid
t iapur
v a
w ell
y t
Ġ yr
ba w
ha ba
Ġl yntang
ia leh
Ġs tang
Ġs fa
Ġu tai
Ġj ang
Ġj yndem
Ġj ymgam
yn ti
Ġia ei
Ġia ieit
Ġia iaid
Ġd oo
ĠK J
ĠK ren
ĠK up
ĠK pu
Ġn ur
Ġt yngkong
Ġha bud
Ġb om
Ġb uk
Ġjing iwbih
ĠS nem
on y
an a
an da
Ġsh o
ĠB erb
ĠB LEI
Ġkaba n
Ġna phang
th ob
ĠM is
ĠM id
ĠM YN
ĠL ish
ĠT u
ĠP ap
Ġdon bok
Ġth um
Ġth ut
Ġshi kyntien
ĠR akot
kh l
Ġnong i
Ġnong mudui
ĠKha dar
ĠNong ap
Ġkyr duh
Ġa hi
Ġa cc
Ġpha wer
Ġshong shit
Ġhap ob
ylla w
as ar
as on
fi iang
Ġo e
ĠJing s
ĠShi sha
ĠRi baibal
Ġsah kut
Ġlyng khot
Ġlyng wiar
ik na
Ġdieng duh
Ġjingt ynjuh
Ġtar i
Ġ9 1
Ġ9 3
ĠPhi lem
Ġde kri
ish op
ĠPr oberb
Ġtyng ab
Ġkhr um
Ġkhnang ba
je ctive
saw phra
Ġtr iem
Ġpan sngiat
ĠBA M
ĠNongk it
ĠKyn thei
Ġbang ne
Ġsp ar
Phi l
.âĢĻ *
ĠAh om
ĠBun sien
ĠEd om
ĠKut shari
pd ung
ĠSot ti
Ġsak ma
ĠPd ia
ĠKylla lyngkot
Ġappe al
ĠChrist ian
Ġcla use
ĠTheod ore
Jain tia
ĠPhilem on
) *
6 3
8 8
9 9
K HA
N ov
U n
Y L
b o
b yndi
d onkam
f ore
j l
j r
k er
k ieh
k rem
k yntang
m rad
p ool
Ġ eng
Ġl ep
Ġl ynt
Ġki aw
ia pher
Ġs ut
Ġs ynn
Ġs ynrai
Ġj b
Ġp ba
Ġp et
Ġp elt
Ġp cit
Ġd en
Ġd iat
ie f
ie ne
Ġn ba
Ġn om
Ġha li
Ġha teng
Ġb thei
Ġb ishni
ta w
Ġr ec
Ġm ore
ĠS p
on ath
Ġi rat
Ġng iah
Ġjong phi
Ġpyn it
yr nai
ĠN ailar
Ġna ei
Ġna wei
em on
ĠM am
ĠM et
ĠL I
ĠL yngk
ĠL ord
ĠL ymp
ĠT ong
ĠT ynrai
it t
Ġw ow
ĠI T
Ġshi bnai
Ġh os
kh iah
Ġkyn diang
uk had
Ġnong shah
sha rai
ap her
ĠA t
ud i
sh e
Ġsngew tbuh
ĠNong lait
ĠNong peit
na bas
Ġleh rain
ylla d
Ġjingia tip
to in
ĠJing lait
ris i
Ġmih pat
Ġf ing
ĠShi liang
ĠSha thie
ĠSh ynr
Ġmar k
Ġpar om
Ġhang nc
Ġ^ ^
Ġ^ âĢĺ
Ġc an
Ġsn ier
Ġ9 2
Ġriew blei
Ġbah eh
ki wei
ĠMaw siang
ĠBar s
ĠBar nabas
Ġkd en
Ġ11 0
Ġsan de
ĠPr of
Ġpynkh iah
je k
Ġbi kai
Ġjingkh uslai
Ġtr ud
ĠThe ological
Ġjingsh eptieng
Ġpang nud
Ġryn san
pha bet
ĠRober t
ĠAn ne
ĠCh er
ĠMei kha
Ġjingkyn thoh
Ġlynd ang
Ġkaw ang
LA NG
Ġlew duh
Ġnar ud
pt en
Ġx v
ĠKhong wir
Ġthap ba
Ġsal t
Ġkf ii
Ġ198 1
Ġpynph ong
ĠCon federacy
ĠMik ah
ĠBeth el
Ġlais ien
ĠNoh prah
ĠBak ra
ĠChi na
Ġdus mon
ĠNine be
5 9
7 7
7 8
A M
D on
E L
K YN
M ei
M ynta
^ *
b in
f ai
h g
h ia
j ngai
m t
m ib
n iap
p ieng
p ham
Ġ es
ba ri
Ġs wai
Ġs up
Ġs ier
Ġu a
Ġu juh
Ġj ri
ĠK ui
Ġn ik
Ġt ok
Ġb oh
Ġjing artatien
Ġr us
Ġm ian
ĠS ong
ĠS par
Ġng ai
Ġjong ka
Ġsh lem
Ġsh ould
ĠB eh
Ġsha m
Ġlong kmie
Ġkum jub
ĠT hi
Ġw ieh
ĠI w
ĠI oh
ĠD en
Ġh ynnin
ĠR ob
kh o
kh nam
Ġkyn sai
ĠHa p
ka ne
ul op
ĠA s
Ġmyn barim
âĢĻ ;
ud y
ĠKh lieh
Ġph one
ph u
op g
ĠY athuh
Ġjingk er
Ġ4 00
Ġma u
ĠJing thoh
Ġjait by
Ġf liew
Ġkl at
ĠSh e
ĠSh utia
ĠTh len
Ġbym hok
Ġc he
ed ic
Ġ8 3
ĠBal e
Ġriew hadem
Ġ10 5
Ġkb yndew
st rak
Ġpa shat
Ġ11 2
ĠKat kum
ct ure
ĠPr yse
Ġiar yngkat
Ġ14 1
Ġpynb or
Ġbak ut
Ġkhr iang
Ġiak ut
Ġthi iew
Ġrai ot
ĠMyn th
ber b
ks iar
oso phy
ver pool
Ġ184 1
Ġ184 9
ĠKan o
Ġjem nud
ĠBi lad
Ġpynsngew thuh
ĠKit ei
196 7
Ġam gut
Ġpynsh oi
Ġtyll ep
io us
ĠSep hana
Ġiab ud
ĠTam or
pd eh
ĠRead e
ĠAle ks
ĠLat in
198 2
Ġshil ynter
ĠMaws ynram
Ġdng iem
ĠKhyr im
Ġkyrs oi
Ġshor n
ĠRep ort
ĠBI ci
ĠRung u
ĠJit lakhai
irect or
Ġbynn ud
ĠNeb ukhad
6 4
D e
I H
J ones
M r
N e
N ing
S T
V I
W EI
f ew
g in
k ok
k ylli
k ni
k ular
l om
l pa
l eb
m s
q ue
r ar
s ieng
â ĸł
Ġk g
ng in
Ġka p
Ġba khat
Ġp bang
Ġp ile
Ġia lang
Ġd et
ĠK ti
Ġn yngk
Ġt ynr
Ġt ulop
Ġb f
Ġr ymm
Ġm astieh
Ġi cw
an ai
Ġkh ung
Ġkh eih
or ah
ĠB el
Ġpyn lang
ĠN ur
ĠJ A
ĠM ali
ĠM iss
er i
ĠT b
ĠT oi
ĠP AT
Ġth n
Ġth en
ĠI huh
ĠD k
ĠD ing
Ġh ooid
kh lem
in ot
Ġbr ed
Ġuba n
Ġpyr to
Ġhi ll
el eb
sh ynrang
ĠKh rang
Ġkhl cm
rai d
ĠE van
fi g
ma u
ma y
ĠJing hikai
ĠShi s
ĠSh ukor
Ġlyng ng
Ġdieng bah
ic it
Ġ18 0
ĠV a
Ġin ter
shi sngi
Ġmaw lynnai
Ġ11 4
ent s
bab el
war d
Ġpynb it
Ġpynkh lad
rang biria
Ġpynia suk
Ġpynia khlad
ĠBA N
Ġsynr op
Ġjingkyr pad
Ġjingleh niam
ĠLait um
ĠLait hat
Ġjingl ut
Ġwait lam
Ġ193 1
Ġbab e
Ġdew lor
Ġniew kor
ĠGe nesis
ĠSal in
ĠBat iton
ĠPan kwah
Ġnongt em
ĠLi verpool
Ġpuk ir
ĠKom peni
ĠJen kin
Â® .
RA NG
ĠJingia thuh
Mar ch
ĠFor eign
Ġjingit ynnad
ĠHugh es
ĠMang ring
Ġjingis ynei
Ġnusi b
Ġkynto it
Ġmission ary
ĠDin onath
ĠHeadm aster
H i
J er
L eb
M M
P o
T a
T i
a ta
f ei
g iene
h eng
l uh
l ien
m o
m ad
n p
o th
r yng
r es
t ing
t ew
t ok
w eng
z ine
Â §
Ġk wab
Ġl iter
Ġl laka
Ġki jong
Ġki bym
ia thuh
Ġs na
Ġs mat
Ġs ii
Ġu s
Ġj f
Ġj yngk
Ġj lang
Ġp am
Ġp yng
Ġp uid
Ġp dang
Ġla dei
Ġd at
Ġd oa
ĠK OT
Ġn n
Ġt uk
Ġt wo
ne ri
ĠU N
ĠU T
ĠU s
ĠS C
ĠS d
ĠS yntiew
Ġkh ynnab
Ġsh e
Ġsh no
ĠB om
ĠB iang
ĠB ap
Ġpyn thikna
Ġsha k
Ġsha jan
ĠH u
Ġlong kur
ĠN aitung
ĠJ U
ĠJ mg
em ak
ĠM ills
ĠT ai
ĠT uh
ĠT ngaw
ĠP e
ĠP oitri
Ġw ord
ĠI h
ĠD irector
Ġh iang
Ġh oi
ĠR ap
Ġkyn hoi
Ġkyn thah
Ġnong iap
Ġnong iarap
ti b
ĠA es
Ġbar ieh
Ġwan phai
Ġsngew thub
Ġsngew kmen
ĠNong ai
Ġ* ^
Ġjingk hih
Ġjingk ulmar
Ġjingia trei
ĠC ent
Ġjait bynr
ĠTh ma
Ġc ol
Ġte d
ĠBa zar
Ġpynk oit
Ġpynk yllon
Ġsaw phew
ĠMa ka
ĠMa ji
Ġ10 2
Ġ12 1
ĠLyng d
tha p
ĠKat o
Ġst ait
jing mut
Ġ16 8
Ġpy a
Ġtb eh
Ġsyr wet
Ġsyr pai
Ġnam es
Ġtyr so
Ġias yr
Ġmat ti
Ġpr o
Ġ** *
Ġy o
Ġkynth er
Ġdie og
Ġni uh
Ġ184 0
Ġbyr ngem
Ġpynm ong
mi ner
Ġnongpyn iaid
Ġjingialeh kai
ĠGe ography
Ġpynth iah
ĠWan swet
Ġtyn juh
ĠThoh mut
Ġiat eh
ĠWa la
ĠHos pital
Ġjyn thung
kba na
ĠKham tam
Ġkhlei n
ĠMo ab
Ġlas iat
iss or
Ġshil liang
ĠRong biria
eter miner
Ġbis bar
Ġaw ria
ĠBur ma
ĠWest on
Ġhynt hai
ĠOndrom oney
ĠNebukhad nessar
De ut
, '
B ab
G al
K ha
L amin
N o
P YN
b em
b ot
c es
d ait
d iaw
k ynta
l n
l ie
n k
r al
s uh
s ok
s iat
t im
t ynnat
v ei
ng ia
ba da
Ġba le
Ġba jah
ha b
Ġl up
Ġs on
Ġs yl
Ġs oit
Ġu t
Ġu wci
Ġj ob
Ġj umai
Ġj ihg
Ġp ylla
Ġla lot
yn jur
Ġd c
ĠK R
ie ra
Ġt om
Ġt ung
Ġt yndai
Ġt asam
Ġb ec
Ġjing ra
hi uh
ta tion
Ġr ym
Ġm anga
ĠS ak
Ġi g
Ġng en
Ġkh us
Ġsh ngai
Ġpyn eh
Ġda b
Ġsha khmat
ĠH ai
ĠJ uk
la og
ĠM oh
ĠM ul
ĠM el
Ġth op
is ing
is ed
ĠI r
ot i
ot es
ĠD y
Ġh um
Ġkyn h
Ġnong bikai
ĠA P
Ġmyn ne
âĢĻ '
sh ut
sh et
ĠKh law
Ġph ia
Ġph ud
Ġkyr tong
ĠC ourse
Ġkham bha
Ġjingp y
Ġma ta
Ġo ther
ĠG au
ĠJing suk
ris a
Ġf ew
rei n
de og
ĠTh ied
mie r
Ġpyns ab
Ġman ang
Ka ba
Ġpynk ynriah
Ġsaw ngut
Ġ10 3
ĠMaw p
ĠMaw lai
shi p
ja khlia
od uc
lam phrang
Ġkur n
Ġ13 5
Ġkynr an
ĠJer kha
fl ia
Ġloh sngew
Ġkba na
Ġthi t
Ġpl ied
ĠPha risi
Ġpr ah
Ġjingkh uid
Ġnongia leh
Ġtr iang
Ġrong biria
Ġre ad
Ġ26 0
ation s
ĠKyn maw
Ġang el
Ġnongs ngap
Ġjingma ian
Ġkaw d
Ġ197 7
iv il
Ġâ ĺ
sng cw
Ġlu ta
Ġ189 7
yngng er
ĠAg rip
ĠSec ond
sur thiang
Ġcom p
Ġsynt iat
ĠChar les
ĠSang ot
ĠDun bar
Ġshyll ang
Ġshar ud
ĠDe ut
ati ve
ĠNat surthiang
tyn jang
ĠMala khi
ĠFeb ruary
ĠBoi ra
ĠSynd uk
ĠSid ney
Ġhos pital
* -
7 6
9 0
A d
B OR
E T
H ang
J on
L ang
T ang
W A
b na
b lai
f n
f ti
f id
h na
p diang
r iam
t u
Ġ 00
Ġ qu
Ġk v
Ġk on
ng u
ng ot
Ġl l
Ġl ik
Ġj t
Ġp rong
Ġd ken
ĠK ristan
Ġn t
Ġn iar
Ġha la
Ġbad um
Ġbad no
Ġbad uk
Ġb eih
Ġjing man
Ġjing riew
Ġm il
Ġm uij
Ġi bha
Ġkh em
Ġsh ri
Ġsh op
Ġsh riew
am e
ĠB iria
Ġpyn wit
ĠN ik
ĠN ow
ĠJ l
ĠM A
ĠM il
ĠT ew
ĠT ad
ĠT had
ĠT athuh
ĠP P
ĠP oi
ien t
ynr ih
kh ur
Ġkha it
si b
ti i
Ġbr ai
ĠA CT
ynd aw
el e
sh kor
Ġsngew phylla
ĠKh yll
Ġkyr te
ph ieng
Ġri cw
Ġum pohliew
Ġjingia soh
ĠC eleb
ĠKum bur
Ġpynd am
ĠSha pha
ĠSh en
Ġks aw
Ġlyng a
ĠBa kh
sa y
ĠV ic
ĠO bada
Ġsk ong
Ġmaw kordor
ĠPa k
Ġryngk oh
tha m
ĠKat ei
ag og
Ġly og
Ġpy om
Ġkt iea
bi eij
Ġshynr iah
tb it
Ġg e
II I
Ġjingkh ia
ks uid
Ġkynt ing
Ġpynr it
ĠSam son
Ġbas uk
Ġsynr ang
ĠJo el
ĠAr on
Ġad v
Ġpur on
ĠLong shuwa
Ġrang li
ĠWar jri
Ġbap ob
ver b
kb ot
Ġdew lynnong
ĠLam et
ĠNongs ynshar
kl es
Ġkul ong
Ġkhong dong
.* '
.* âĢĻ
Ġram ew
Ġram hah
Ġ189 6
Ġtymp an
Ġtyn sat
ĠEm manuel
Ġsu ch
ĠLy og
ĠMai long
ĠDang sah
igh t
sk ul
ĠSi las
Ġkar khana
Ġiakh lad
Ġsynt u
myn siem
ĠXX X
ĠTyng er
ĠDu wan
ese kaiah
ĠMin or
Ġris ai
ĠKhron ikl
ĠTab emak
Ġwor k
ĠKaisar ia
ĠOf fic
ĠMap hi
Ġsbis ien
Ġnongtb oh
Ġparab riew
ked onia
ĠTok in
ĠRop may
ĠAlex ander
ĠSephana iah
ĠAes op
ĠTabemak l
/ *
7 2
9 4
9 5
9 8
D an
I R
M PH
N aduh
P har
W ei
a ne
b g
c ular
d am
f m
j h
j it
l oh
m ong
n ieh
p m
r ung
s ied
u og
v in
y iar
y pa
Â ©
Ļ ¦
Ġka ia
Ġka ra
ba og
ba ngeit
Ġba lieh
Ġba jur
ha it
ha jon
Ġl er
Ġl iam
Ġs ti
Ġj lan
Ġj adu
Ġp ers
yn i
Ġia u
Ġia ph
Ġia wad
ĠK las
Ġn ng
Ġt duh
Ġha og
ai h
Ġb m
Ġb ylla
Ġjing lah
Ġr khiang
ĠS on
ĠS la
ĠS uki
Ġi ei
Ġi ig
Ġkh hiang
or ge
ĠB rut
Ġpyn janai
Ġsha l
Ġsha lor
Ġlong shwa
ĠJ c
ĠJ ub
th mu
ĠM n
ĠL ukhi
ĠT ib
ĠT HA
ĠT uta
ur n
ĠP R
ĠP oit
Ġth ombor
Ġw ell
ĠI wai
Ġshi jur
ĠD uh
ĠD ul
ĠD khot
ĠD ustur
Ġh us
ĠR im
kh ol
Ġkyn don
Ġnong seng
ti k
ĠA f
ĠA ram
âĢĿ ;
Ġsngew lem
ip al
Ġsa ian
Ġju ban
ĠNong shong
Ġkyr woh
op hi
Ġjings ah
Ġjingk ynnoh
ĠE H
ĠKum ari
Ġf r
ol e
ĠTh o
Ġpyns noh
Ġjingt oh
Ġjingt boh
Ġbam ja
Ġsb on
Ġpynk yr
Ġpynk men
Ġiap om
ĠV i
ĠO ne
st em
re k
Ġpynp yrkhat
Ġst ew
Ġst ru
Ġpy t
Ġap p
Ġkynr iang
Ġ17 0
Ġpaid bab
Ġias am
Ġtymmen basan
khi h
ro ugh
Ġpynj em
ĠInd ian
Ġjingkyr duh
ĠPhar oah
Ġpynl ait
iei d
ĠJud as
oc k
ĠAn ton
Ġ184 7
Ġnongs umar
ĠJain tiapur
Ġbs eifi
IA M
Ġ193 6
Ġbab eit
Ġksai h
Ġsain dur
ĠSy iar
Nong bishar
Ġkynj ang
Ġog am
Ġsiew spah
Ġbu hai
Ġthuh lypa
Ġ196 6
Ġtyll iat
Ġpuk ni
ĠHos tel
pan y
Kum ta
Ġ79 300
ĠHar ry
Ġhy orei
ĠBook s
Ġnongkh rong
ĠMaws mai
ĠKhn st
Ġkhlai h
ĠPad sha
ĠFran k
ĠThaw lang
Ġnongkha ii
Ġmynsi cm
Ġtran slation
Ġkol ej
Ġbuj li
Ju ne
Ġbil or
Ġtara jur
ĠMynth na
Ġhill s
ĠGau hati
ĠAgrip pa
ĠBoira gi
7 1
H ei
K am
N oh
P OH
a f
c d
c mg
f ul
g r
j ain
l un
l li
r iah
s r
s bai
v t
v ai
y g
y on
Ġk w
Ġk rang
Ġk ft
Ġba kha
Ġba kordor
Ġl ynn
Ġs c
Ġs ew
Ġs un
Ġs yllok
Ġj uti
Ġia ng
Ġia shim
Ġd ia
Ġd ain
ĠK ni
ie v
Ġt ain
Ġb iar
Ġb iej
Ġr up
Ġm ied
at n
ĠS w
ĠS ap
Ġi bit
Ġsh ot
Ġsh ngain
Ġsh ngiam
ĠB uit
ĠB ishar
ĠB ishop
ĠH ong
ĠH esekaiah
yr tap
yr pad
Ġlong pun
ĠJ es
Ġna jrong
th li
th yndaw
ĠM ir
ĠT yngnger
Ġth nam
Ġth ese
Ġw et
ad e
Ġh uh
Ġkyn sh
Ġkyn shi
Ġkyn tb
Ġkha rai
Ġphi rat
ĠA ct
Ġtang nah
Ġai d
sh uh
Ġsngew sarong
ri th
og y
ĠW eb
Ġjings pel
ĠE kles
as a
ĠG a
ĠJing shisha
Ġtip briew
ir n
Ġf ci
ab le
ĠSha kri
ĠSh ynrang
Ġks ih
Ġpar t
Ġpar um
Ġc iei
ĠBa al
Ka ta
tha b
Ġ11 5
lem ent
Ġniam ra
Ġjingd ih
Ġ13 8
Ġwah duid
Ġv illages
Ġjingsngew rit
ev er
Ġsyr doh
Ġias yriem
Ġpr at
Ġpr ew
Ġbi iew
ec tion
ara ar
Ġkhmih lynti
Ġjingsh oh
kyn maw
Ġsang sot
Ġad berb
Ġkn ot
Ġsyn sbar
ĠLait kroh
Ġialeh kai
iei j
Ġbap aw
Ġan na
Ġjingm ap
Ġah em
Ġjingkyn shew
Ġkm ic
ĠPhil osophy
Ġ190 2
Ġ190 3
Ġ190 5
Ġjh oh
Nong krem
ĠGe orge
Ġsal it
Ġdob nud
Ġ60 6
sng e
ĠNG A
Ġtyll un
ĠSer ub
Ġpd ot
Ġdk oh
me tic
Ġars ap
Kum no
Ġsd ie
sam la
198 1
ĠPom reng
hara ct
ĠHy giene
ĠJang puh
ĠBer ry
Ġsuid tynjang
Ġjingis nei
Ġsyngk ien
Ġpoim an
Ġarti kl
ĠPaham bir
Ġnik om
Ġche que
ĠEvan s
ĠWanswet t
ĠAnton y
' âĢĻ
) ^
- .
K an
K or
M en
N D
O I
O P
P A
W AI
a ba
b ng
b raw
c on
d uk
f in
f fl
i it
i ih
i kho
j ap
j aid
j ynjar
k ynt
o ud
r ukom
s eh
s er
s ut
t oi
x t
y c
Ġk bat
Ġba mut
Ġba tip
Ġba sngew
Ġl O
Ġl yr
Ġl iew
ia ka
ia lap
ia stis
Ġs ieng
Ġs tat
Ġp ri
Ġp dem
Ġla l
Ġia it
Ġia buh
Ġia shad
Ġt u
Ġt li
Ġt up
Ġt rad
Ġha in
hi i
Ġr ob
Ġm eh
Ġm ill
ĠS ymp
Ġi j
Ġkh ynn
Ġsh oog
Ġsh rah
Ġsh uti
Ġ( ^
ĠB lang
Ġpyn Y
ĠH um
ĠH ep
Ġlong p
th ia
em e
ĠM E
ĠM ug
ĠL yngkot
en dar
ĠP la
ĠP ent
ĠP ynter
Ġw ab
Ġw ak
ĠI C
ynr iam
ĠD al
ĠD el
Ġh ch
ĠR h
no l
Ġnong die
Ġkha k
Ġ2 16
Ġ2 000
ul l
ul or
et n
ĠA ni
Ġpyr t
ĠKha n
Ġtang muri
Ġhi t
sh ia
sh lei
sh yrkhei
ĠKh r
ĠKh ein
Ġsa tang
os ition
ri b
mat ion
Ġkhl ir
ĠW or
ĠW ad
Ġjings iew
Ġjings arong
Ġtha ba
Ġjingk iew
ĠE laka
ĠC i
ĠC an
ĠC as
Ġkham bun
Ġjingp yllait
Ġo ong
ĠG ar
ĠJing kyr
Ġtip sngi
ĠSha h
ĠSh em
ĠRi bok
Ġlyn them
Ġbym don
ik or
Ġjingt ngen
Ġsb ynrang
ĠO n
Ġling syiem
st er
Ġ12 3
Ġ12 7
Ġpa hai
Ġpa jih
ymm iew
Ġjingj ylliew
Ġjingj anai
ĠUm tong
ĠSing b
ĠMe thod
Ġiar khie
nd i
Ġv ery
Ġkhlaw ait
ĠJer ikho
ow n
Ġta og
Ġpynkh ein
Ġjiog mut
ĠTang ba
Ġnongp ang
Ġpynia dei
Ki ne
kar a
Ġjai l
Ġjai fl
Ġhiar thma
ĠSaw thyndaw
Ġjar i
ĠUn ited
Ġad jektib
Ġkajing im
ĠNongk roh
Ġsyn jat
Ġkr oh
ĠLait step
Ġpynl yngkot
ĠJa ne
ea ce
pha war
Ġsym ph
ĠCh ed
Ġ184 5
Ġal e
Ġart et
Ġart ed
Ġ193 0
Ġbab iang
Ġsuh sieng
Ġsl ew
ĠAd jektib
ĠKhong sit
Kh ie
Ġjl iah
cr ipt
ĠRa ja
ĠNG I
ĠMor kha
Ġpynph uh
int ed
ĠMai rang
Ġkiw d
dai ja
ĠNai lur
ĠNai wieng
Ġtyrp ait
ĠJap an
Ġpub on
Ġpub lished
Ġpad iah
ĠShad ap
Ġnongleit kurim
ĠMu ong
ĠRad hon
Ek le
Ap ril
Ġjingiar oh
ĠAuthor s
Ġjingtb ob
ĠScot t
ĠRub imai
ĠKath olik
ĠPbar eng
Ġthapba lieh
ĠJenkin s
ĠCeleb ration
ĠVic tor
MPH RANG
ĠBrut us
Ġhus iar
Ġjingtoh kit
- -
. :
6 5
F eb
J an
M S
O ct
P HA
R iew
S i
T IEN
b h
b iah
b od
c ca
f o
k os
m ynta
m ed
n ih
p o
p s
r ed
s ynshar
t d
t it
v es
y or
Ġk c
Ġk vn
ng iem
Ġka in
Ġka da
Ġba th
ha in
Ġs lang
Ġs ome
Ġs pab
Ġp nat
Ġia thong
Ġd khat
ĠK ait
ie p
Ġn u
Ġn em
Ġn ier
Ġt ik
Ġt ngit
Ġb ui
Ġjing bat
Ġr el
Ġr ab
Ġm m
ne l
ĠS j
ĠS na
ĠS il
on t
Ġi ca
Ġi cng
Ġi eid
Ġng m
Ġng t
Ġkh dn
Ġsh la
Ġsh ut
ĠB et
ĠB lah
Ġpyn T
Ġsha ll
Ġlong kha
ĠJ op
ĠJ lng
la da
th en
ĠM iat
ĠL o
ĠL eit
er ed
ĠT han
ĠT RAI
it n
it or
en cy
ĠP i
ĠP u
ĠP uk
ĠP ilgrim
Ġth iew
Ġw hat
Ġw hen
is b
ĠI k
ĠI l
ĠI ing
ien shonhi
Ġshi bynta
ĠD ar
ĠD eng
ĠD IENG
om a
Ġh ymmen
ĠR um
ĠR el
al e
kh oi
Ġkyn dang
Ġkha ra
Ġkat n
ka ei
ĠA k
ĠKha w
sh ing
ĠKh la
ĠKh mer
Ġph iang
Ġa k
og a
Ġpha si
ĠLa ban
Ġjingk dew
ii k
ii ia
ĠE ll
Ġhap d
iat e
Ġma j
ris hna
ir man
Ġf ch
Ġ19 10
ĠSha w
ĠSha kes
Ġpynk yndit
Ġ18 35
ĠMar ban
ĠMa kai
Ġjingpyn mih
Ġjingpyn jot
ĠMaw bynna
ĠMaw rie
Ġjinglong mraw
Ġkd iah
maw bah
ĠUm mat
Ġkyll an
Ġ16 2
Ġ14 3
ev v
Ġpal ei
Ġkhr ew
Ng in
Ġsy ier
Ġg reat
Ġbaba ng
ĠX L
YN D
ĠPyn hun
ĠBai ble
Ġpynj aw
Ġy our
Ġjingsh lei
kyn ti
Ġsep sngi
Ġ27 0
iel d
oc al
Ġnongk nia
Ġsym bol
lyng ngem
Ġtur n
IA H
ĠAb strak
Ġdew met
ĠNongs toin
ĠKb ristan
Ġx i
ĠSyr ngi
Ġ189 1
ĠPar ad
ĠJos aiah
Kum ba
sot ti
ĠNongpyn long
Ġjingpynd ep
ĠMin ot
ĠBo as
ĠBo ard
ĠKn ii
ĠXI V
cha ri
ĠPub lic
Ġpynkham ti
ĠKap kap
ĠLeb i
ĠKhad duh
Ġsngeu thuh
ĠSNG I
ĠKolos ai
ĠKup li
YL LA
ĠCher ra
Ġbakhat duh
Ġlik e
ĠShapha no
ĠObada iah
ĠJangpuh ding
* âĢĻ.
7 3
8 3
? .
B i
C h
K ot
L E
R I
S l
S ad
T ong
W AR
c b
c s
d at
d en
f lang
g ot
k ei
k ait
l ih
m ur
m ap
o si
p it
r h
r hem
r yntieh
t le
x i
Ġk U
Ġba ll
Ġs kai
Ġj ym
Ġj ub
Ġp ain
Ġp oit
Ġp vr
Ġla te
Ġia la
Ġia is
Ġd n
Ġd kh
Ġd wai
Ġd iaw
Ġd kbot
ĠK un
ĠK ok
ie og
Ġt ia
Ġt la
Ġt iang
Ġt ir
Ġt mier
Ġb d
Ġb el
Ġb ed
Ġb yndai
Ġjing ng
Ġjing hun
ta k
Ġr et
ĠS YN
ĠS kum
on a
Ġsh ei
la l
ĠM ot
ĠM ynn
ĠM od
ĠL ieng
ĠL ano
ĠT et
ĠP ong
ĠP ul
Ġw er
ĠD om
ĠR iah
ĠR us
ĠKi no
al iar
ih uh
Ġpat sha
Ġnong m
yll ai
yll un
ĠHa ei
Ġkha la
Ġkha in
Ġkha lai
oi kha
ka jing
id i
Ġbr isoh
ĠA H
ĠA nai
ĠA rab
Ġmyn leh
ĠKha sia
ĠKha sl
ynd ah
âĢĻ ^
ub on
ĠKh raw
ĠKh nam
ĠKh lur
Ġju bap
yngk ang
os kular
ob or
da og
ĠNong b
ĠNong poh
ĠNong hukum
Ġkyr shut
ph la
Ġnang roi
Ġkhl ich
ĠW ang
Ġtha h
Ġjingk y
ĠE k
Ġjingia long
Ġjingia kynduh
ĠC O
ĠC am
ĠC lass
iam ra
iam tra
Ġo ver
Ġf ia
Ġf ar
Ġf li
Ġ19 28
Ġmar dor
mie j
Ġ^ '
Ġpyns y
Ġpyns lem
Ġsb ur
Ġsb ip
Ġsb ib
ĠV erb
ĠMa had
ĠKA BA
Ġkb ynnab
Ġjingpyn kut
Ġjingpyn khreh
ĠMaw phu
le ct
st ra
Ġmaw long
Ġ12 5
br ary
Ġpara bangeit
ui g
ĠSoh rar
ynsha i
Ġpynp ra
ĠUm kieh
Ġyn i
Ġ16 7
ĠPr o
ĠPr inc
ĠF ather
war ds
Ġpaw khmat
Ġ13 2
sngew thuh
Ġv ii
Ġkynr oi
ter ian
lai fi
Ġky ieng
Ġkp ieng
Ġsyr ti
Ġdu jok
ĠThomas jones
Ġpyll up
Ġjmg long
Ġjmg mut
Ġtr ait
ĠAss istan
Ġpan poh
fa a
ĠBai eit
Ġlym b
ĠPh et
ĠPh run
Ġ28 0
ĠNongk ynrih
Ġsyn ia
Ġkr ih
Ġpynl yngngoh
Ġfi iang
ĠKyn pham
Ġ29 0
Ġang i
kum ba
ĠAi u
yi la
Ġbs uh
Phi m
Ġ197 8
Ġkj ap
ĠNongs aid
sai da
Kh ubor
Ġjingr iam
tn at
Ġjh ep
ron ath
Ġkhyr dep
Ġ198 2
ister i
Ġdk bar
Ġwa y
ĠPrim ary
Ġpla ce
Ġbynr ieu
ĠLaw bah
ula b
ĠDew saw
Ġdng ong
Ġnum ber
for mation
fer ence
ĠShyr ten
ĠSei on
Ġbyll ai
Ġhin rei
Ġsbit om
ĠLur shai
Ġjingla lot
Ġgo od
ĠWil son
ĠJab ieng
Bab ilon
sok pen
Ġstru cture
rith metic
ĠPent ek
ĠSohrar im
ĠUmkieh un
, -
. ;
/ '
5 86
D UH
E i
H ukum
H ato
I n
J ong
L ong
O o
P eit
R ang
S L
T O
T ing
U l
U ta
U NG
b t
b ew
b oi
c ai
d ng
d an
e o
e ak
f S
g ia
j d
k ynr
k ra
m ot
n ta
n al
n yngkong
r ot
r ih
s ep
s tar
u x
| |
ng ur
ng iah
Ġka ha
Ġka shari
Ġka jaka
ba sa
Ġba is
Ġl uk
Ġl oi
Ġl og
Ġl ynnai
Ġki lo
Ġs it
Ġs tan
Ġs bab
Ġu w
Ġla kam
Ġla ki
Ġla tom
Ġia kha
Ġd es
ĠK S
ĠK e
ĠK j
ĠK lia
ĠK rist
Ġn th
Ġt ait
Ġt da
Ġt ram
Ġt wad
Ġt yndep
Ġha b
ai os
Ġb ta
Ġb la
Ġb en
Ġb dn
Ġjing hi
Ġjing tap
Ġjing hap
ta o
Ġr ul
Ġr iej
Ġr nai
Ġr nh
Ġr wiang
Ġm uid
Ġm ent
ĠU BA
ĠS A
ĠS I
Ġi ci
Ġi phieng
Ġkh nong
Ġsh t
ĠKa per
Ġpyn bang
Ġpyn shah
Ġda y
Ġsha b
ĠH all
ĠN om
ĠN ero
ĠJ um
ĠJ aw
ĠJ ylla
th e
th ep
th up
Ġkum tei
ew thuh
ĠL iter
er sion
un o
ĠT y
ĠP ai
ĠP oh
ĠP ang
ĠP ilat
ĠP YR
Ġth y
Ġth yll
is ion
yl U
ĠI bong
ĠD er
ĠD ui
ĠR in
ĠR es
ĠR ynn
ĠR il
ĠR AM
Ġsng aid
Ġpat haw
kh yll
Ġkyn um
Ġkyn oi
Ġnong thaw
ka ia
Ġbr iw
Ġpyr em
el f
sh oi
Ġsngew bba
Ġph reit
ĠNong p
Ġa ah
Ġa nem
ph ur
ph now
og eit
Ġnang pyn
ĠW ab
ĠW adar
Ġjings uh
Ġjings an
rai fi
wai n
Ġjingia i
Ġjingia ishah
to ne
ĠSyiem lieh
Ġjingp an
Ġbha h
Ġo Oo
ĠG er
ĠJing ai
ĠJing sngew
Ġun c
Ġf it
ĠShi t
ĠSha poh
ĠSh y
Ġpar eh
bar oh
Ġc oun
Ġto o
Ġpyns ngap
Ġdur iap
Ġsb isha
Ġ18 50
ĠMa g
ĠO F
ĠO H
Ġbah ok
and ria
ĠId i
br ip
Ġkd or
iet n
Ġjingj ied
re ement
Ġ16 6
ag e
bat emon
Ġ14 2
Ġ14 8
Ġ13 6
ĠâĢ¢ âĢ¢
Ġtyng am
Ġtyng khap
Ġkynr ong
Ġky an
Ġtb ymmai
Ġjingb eh
Ġjingb ishni
ymp ang
Ġpl uh
Ġias uk
Ġjmg im
Ġmad ei
Ġpr es
Ġbi in
Ġjai pdeh
ĠSam u
rit ik
ĠLum mawbah
Ġring mraw
Ġli ne
Ġkn or
ĠLong pun
Ġrang bab
** .
kat ta
ĠAi fi
197 6
197 7
Ġal u
Ġpynm yntoi
Ġpynm ynsaw
Ġah nong
Ġsp eh
Ġjingph uh
our th
ĠIm lang
Ġdew iong
Ġ190 4
ĠKhong dong
Ġkaj ih
Ġjo Dg
cr ip
ĠNang no
his ba
ĠPan aliar
Ġnongt ied
ĠAg ency
ĠKhat sawphra
Ġmot or
Ġmot to
ĠLaw ei
ml ien
Ġlar kam
ĠAnti pas
km ei
Ġpyi khat
ult ural
ĠMad an
ĠPer ea
Ġsnge ub
ĠNongsh li
ĠLad ew
Ġnusi p
Kat ba
kul in
Ġjynd at
ĠKHU BOR
Pyr thei
erna cular
ĠNongl wai
ĠNongkha rai
Ġjingiatip lem
ĠLaitum khrah
Ġsyl em
ĠDy ko
Ġpynsab ut
Ġkyrte og
ĠMug hal
ĠEll en
ĠMarban iang
, ^
5 8
B ah
E h
H e
L ONG
N E
U ne
a v
a kor
c ep
d ia
k ain
l di
m ta
m eng
o ji
s ein
s kor
s pong
s pab
t iah
t lang
v at
Ġ z
Ġ ent
Ġk ram
ng or
ng ab
Ġka bi
Ġba iap
Ġba jar
Ġki r
Ġu i
Ġj ew
Ġj oi
Ġj oiig
Ġp ih
Ġp eij
Ġla ei
yn a
Ġia n
Ġia sh
Ġd ok
Ġd khoh
Ġd own
ĠK shaid
Ġn araar
Ġt ie
Ġt it
Ġr h
Ġr ak
Ġr ieu
ar n
Ġm ust
ang eh
ĠU eh
ĠS Y
ĠS at
Ġi ch
Ġi ll
Ġi cit
Ġi eij
Ġi lng
an tic
Ġng on
Ġkh w
Ġkh iem
Ġsh cm
ĠKa pten
am i
ĠB ot
ĠB ronath
Ġpyn bam
Ġpyn bakla
Ġda ys
Ġsha to
Ġsha bi
ĠH is
ĠH ari
ĠN O
ĠN ig
ĠN ote
ĠJ ot
ĠM aid
ĠM aster
ĠL t
ĠL ut
ĠT O
ĠT in
ĠT IEW
ĠT hir
ĠP y
ĠP hai
Ġth lieh
Ġth len
Ġw i
ĠI q
Ġshi b
ĠD eb
ĠD gi
ĠD ngiem
ĠR yntieh
al at
kh or
kh om
Ġkyn k
no k
Ġnong wad
Ġkha li
ti ne
ĠA rithmetic
ĠKha tar
sh ei
Ġwan poi
ip g
ip en
ra ck
ĠNong bri
Ġkyr ang
Ġa ss
Ġar jait
Ġkhl uit
ĠW oh
Ġjings hi
Ġpha m
es ter
es sion
ĠLa bor
ĠY ou
Ġshong suk
ii ig
ĠE p
ĠE aster
Ġjingia da
ĠC o
ĠC ar
ĠC ivil
Ġjingp yntngen
li r
Ġma hajon
ĠG hat
ĠJing iap
ĠJing pyr
Ġtip blei
Ġf f
ĠShi pai
ĠSh on
ĠSh rieh
ĠTh em
Ġdoh lieh
Ġman y
Ġman shuwa
Ġbor bah
Ġsb wa
19 37
Ġriew sniew
Ġsk ill
Ġsk bem
ki w
Ġkb eit
Ġjingpyn baptis
Ġmut dur
Ġling uistics
Ġsam thiah
Ġlai wat
ĠDon kam
le k
st ru
Ġshit rhem
ĠId t
Ġpa ges
ĠPa la
ĠPa iem
ĠSoh iong
tha u
Ġjingj ah
Â« Â«
Ġshym pr
Ġsoh pet
ĠUm tis
Ġmet iap
jar i
Ġ16 1
Ġ16 3
Ġkt in
Ġ13 3
Ġ13 7
Ġky pa
omas Jones
Ġjingb thah
ĠMyn no
Ġsy ing
Ġg row
Ġias ah
Ġias yllok
ĠKba sl
Ġpynia s
Ġpynj ynjar
Ġy in
ĠJo int
Ġjingl yngngoh
ĠKo ina
ĠBas aw
ĠIn stitution
Ġjingm udui
kum ta
Ġ184 8
197 4
Ġal phabet
kb uid
Ġ197 3
ĠNongs ei
rap h
Kh mih
Kh ublei
uli o
Ġjh ia
athuh lypa
Ġkor bar
tr oduc
ĠLar iam
ĠSoc ial
uti ve
ĠNONG THOH
Ġkei ft
ĠJen dar
ĠRis ang
Ġjingias iat
ĠTip sngi
Ġ59 7
ĠMylliem ngap
Ġjingit ynnat
ĠLat ympang
Ġjor g
ĠSngew bha
kn ii
ĠBeth saida
ĠHugh let
ĠMas kulin
Ġwor ks
ĠGi ulio
ĠSynr an
Ġmuk a
ĠKynd it
Ġshl ip
ĠHin di
Ġjaitbyn new
Soh ra
Ġjng um
ĠSohpet bneng
ĠJyr ngam
Ġyear s
Ġkre o
Ġmyll en
Ġmoh khiew
Man ik
ĠOli ver
ĠMYN S
Ġsynn ia
ĠLymp ung
edic ate
Ġshyllang mat
ĠEkles iastis
ĠShakes pe
ĠAssistan t
ĠPentek ost
' *.
- *
- ,
8 2
8 7
A D
A r
D ei
E sek
J ia
K hun
P yn
R S
R IEW
S ept
T rep
U t
a ja
c le
c re
f d
f ter
g l
h ynrei
h yndai
i ba
i ve
j up
k poh
l ed
m ew
m al
m iat
n b
n ng
o ot
o ther
p os
s ba
s yn
s uid
s ain
u w
u ia
v ing
Ġ ieb
Ġk si
Ġk ui
Ġk thaw
Ġba saw
ha ka
ha war
Ġl iem
Ġki uh
ia ki
Ġs ih
Ġs ui
Ġs ara
Ġs ail
Ġu se
Ġj m
Ġj jng
Ġp v
Ġp eh
Ġla nd
Ġd r
Ġd ot
Ġd ano
ĠK m
ie vv
Ġn in
Ġt ra
Ġt ynnad
Ġha ki
ai r
Ġjing f
hi b
Ġr l
Ġr nong
Ġm vn
ĠU M
ĠS D
ĠS op
ĠS ara
on al
Ġi ol
Ġi phuh
an ce
Ġng iew
Ġng cit
Ġkh er
Ġkh long
Ġsh yngk
ĠB ih
ĠB il
ĠB le
ĠB ui
ĠB YN
ĠB ran
Ġpyn ngat
ĠH on
ĠH en
ĠH ed
Ġlong shai
ĠN ising
ĠN IAM
ĠJ d
th ci
ĠM ishoneri
un at
ĠT ieh
ĠT his
it e
ĠP dang
Ġth et
Ġw h
is ation
ĠI M
ad an
Ġshi wat
ĠD ath
ĠR y
ĠR wai
kh el
kh os
no og
Ġnong sharai
si li
ul ang
ul man
ĠA li
ĠA ust
ĠA ngl
kha d
kha s
Ġioh pdiang
ĠKh yndiat
Ġph niang
Ġph ria
ĠNong pah
ĠNong die
Ġa uthor
Ġ3 16
iar y
Ġnang tai
Ġar tic
ĠW ait
op y
op ment
Ġjings ei
rai h
ĠLa k
ĠLa sar
ĠY ule
Ġtha b
Ġtha r
Ġjingk yllon
as ur
Ġum jer
Ġum biah
Ġjingia thub
Ġjingp diang
Ġo ang
ma kaw
ĠG en
ĠG ol
ĠJing ngeit
Ġf ound
ĠSha ta
ĠSh ken
Ġbuh khoh
Ġpar ad
Ġlyn sher
Ġsah nud
Ġc ar
Ġc it
Ġte a
ik ir
Ġpyns hi
ĠBa iang
Ġjingt r
Ġjingt ha
Ġjingt ieng
Ġjingt yrwa
ic s
sa u
Ġbam sap
Ġsb ynrong
Ġpynk iew
Ġpynk loi
Ġpynk ulmar
19 00
Ġbn iab
ĠMa ha
ĠO i
Ġsk aw
tan t
Ġ10 00
Ġkb mih
Ġjingpyn shlur
and i
Ġmaw shun
ĠNa omi
Ġ12 2
Ġ12 9
ĠKat ta
Ġsoh pdung
ĠUm tr
Ġ16 5
ĠPr ob
Ġjingd ie
ĠF ourth
Ġ14 4
Ġ14 7
Ġpy ok
Ġpy iar
Ġ13 1
bi in
Ġpynb yr
Ġbak yn
Ġbak hih
Ġlam phrang
Ġkhr up
Ġky oh
Ġpaid lang
ĠMyn miet
Ġjiog k
Ġjmg thoh
Ġmad e
man ir
man ik
Ġpr onoun
ks ang
Ġno li
Ġno ag
Ġtr ci
Ġpynr angbah
Ġpynr yntih
ĠAp nl
Ġlyngk ien
ĠSaw ang
Ġsang am
Ġhad nh
Ġkajing long
ĠNongk yndong
kt or
ĠKyn she
Ġbang la
jur y
ru pa
ĠSan irang
Ġjingm ong
ĠAn th
Ġbe fore
ĠJING R
ĠKynr em
ĠAm wi
yi long
197 1
ĠSah lang
oun t
Ġkaw el
Phi n
Ġ197 4
Ġkm ang
Ġjingph la
Ġbab ba
suk a
ĠSait so
Ġnongpyn jot
ĠSyn agog
Ġkaj ub
pyr thei
Ġmap hi
ess or
196 2
196 3
196 8
ĠSym bai
sim os
phi n
Ġjyr mie
Ġbaj em
pong deng
Ġpai sa
Ġ196 4
ĠThoh pan
ĠNam blang
ĠNam bru
ĠEm ma
lyngk niap
Ġbai oh
ĠPo im
Ġjingias yllok
ĠPrim er
Ġjyn haw
EN E
ĠLei long
myn ken
ĠHam an
195 5
195 7
ĠHi kai
ĠDew i
ĠKhang weng
Ġtem pi
Ġjyll op
Ġur long
ĠBon ai
isi oner
ĠSei ros
oll ow
Ġnongiathuh khana
ĠKal bari
Ġkym at
Ġmynh yndai
ĠKHR IST
fit ia
Ġob ject
Ġrng ad
ĠSum er
ĠJaid bynriew
ĠShis yndon
ĠMoh on
ĠSerub babel
Ġiais ah
ĠKok kok
ĠKaper nam
ĠSY IEM
ĠNig el
ĠMaid uli
ĠUmtis ong
ĠMYNS IEM
ĠDath ew
ĠLasar os
ĠUmtr ew
! !
/ ,
: ^
B L
D ienshonhi
K ong
L I
L ocal
O B
R angbah
S U
S ai
S ah
S aw
T IEW
a ka
b ic
d ap
g o
i ta
i in
j ad
k ia
k ing
k iew
k oi
k ieng
k nia
l op
l uit
l ieb
p ia
p op
r od
s or
s pe
t c
t oh
t ieng
u ih
v ang
v ii
v ir
v ice
w t
Ĥ ¬
Ġk S
Ġk rong
ng eh
ng ah
Ġba ka
ha li
Ġki en
ia si
Ġu ong
Ġp ied
Ġla lap
Ġla lade
Ġla kren
Ġia im
Ġia phet
Ġd m
Ġd id
ĠK UM
Ġt ii
Ġt ill
Ġt yllong
Ġt uta
ing a
Ġb iah
Ġb ima
Ġjing rep
ta g
Ġr ew
Ġr oit
Ġm eng
at eh
ĠU to
ĠS iam
ĠS tar
ĠS yi
ĠS uri
ĠS mit
on o
Ġi no
or iew
am ei
Ġpyn um
Ġpyn poh
Ġpyn bat
Ġsha in
ĠH an
ĠH al
ĠH il
Ġlong rynieng
ĠN ob
ĠN asar
ĠJ ca
la ne
Ġkum ah
em in
ĠM AW
ĠL ing
ĠL an
er on
un ds
ĠT k
ĠT ra
ĠT rei
it eng
ĠP eace
ym ai
Ġth l
Ġth oin
ĠI ong
ĠI ci
Ġshi kur
Ġshi hajar
Ġshi taiew
ĠD UR
Ġh t
Ġh el
Ġh ow
ĠR iat
yng ka
al th
ih ei
Ġpat har
Ġpat iaw
kh um
kh en
kh leh
kh mah
im en
Ġkyn nob
uk a
Ġnong lam
Ġnong thob
ĠHa jar
ĠHa jan
si cn
oi fi
ti ve
Ġ2 10
Ġ2 17
Ġphi ra
ap a
id ien
Ġbr u
ĠA ward
Ġmyn thi
Ġmyn sb
Ġmyn der
ynd eh
ynd et
ynd onkam
Ġtang on
el ist
sh ynr
sh yieng
Ġsngew rem
Ġsngew tbub
ip at
ĠKh mat
ĠKh ynriam
Ġph yll
ra u
Ġsa tar
ĠNong th
Ġa la
Ġa gi
ĠâĢĺ âĢ¢
Ġjings ma
Ġjings iewspah
Ġja kar
Ġtha m
Ġjingk ah
Ġjingia tylli
ĠC or
ĠJing kren
ĠJing duwai
Ġf C
Ġf ollow
Ġ5 00
Ġ5 36
de u
Ġ19 29
Ġ19 26
Ġ19 25
Ġ19 41
Ġkl ew
Ġpynd una
ĠTh iar
Ġks ain
Ġsah miet
Ġdoh thli
Ġlyng khuh
Ġc ould
Ġc haract
leh em
Ġbat b
ĠMar y
Ġriew lum
Ġriew shlur
Ġriew kynthei
Ġriew tymmen
Ġkb ia
Ġkb yn
Ġjingpyn ia
Ġling mane
Ġling byndi
ĠMaw saw
Ġmaw bah
ĠId wei
Ġpa hara
ĠBar ak
ĠPhi da
.. ..
Ġkmie kha
ĠSoh lyngngem
Ġkyll ut
ag i
Ġjingd om
Ġpy oi
Ġkt len
Ġshai ong
Ġ13 9
Ġii ba
Ġpal i
Ġmon jur
ter s
ord s
ĠPyr da
Ġtb ma
Ġpynkh uslai
Ġrai khoh
Ġnam lang
bai os
Ġg a
Ġpl aid
Ġdor khas
Ġnongp ut
ĠKam ra
kar iang
Ġ22 0
Ġjingkh wan
Ġjingkh ublei
Ġjingkh riat
Ġjingpyr ta
Ġno Dg
Ġis nei
Ġlyngk i
Ġ24 0
Ġphuh mut
IE J
ĠPh reit
ation al
lade sh
Ġby ota
ĠKhun langbrot
ĠIn ter
lyng ngoh
ĠKynr am
Ġkhaw pud
ĠAm or
ĠAm mon
TA N
Ġtur oi
Ġnongsh oh
Ġal so
ĠKs ing
ĠKs uid
ĠEdit ion
ĠCom pany
Ġ0 8
Ġ193 3
Ġ193 4
Ġ193 8
ĠBam on
Ġnongpyn iap
Ġsl ii
ĠLang brot
Ġx xx
Ġ190 6
Ġ190 7
ĠAssam ese
Ġsar ang
Ġjl ih
196 5
Ġpoh jait
ĠSym boh
Ġjo ug
BA H
Ġti ot
Ġjyr hoh
Ġthuh khana
Ġpynth ymmai
Ġsai h
her e
Ġbri u
ĠNam lang
ĠAg reement
Ġbt ep
Ġsnieh doh
Ġsu kher
ĠSar nia
ĠLy stra
ĠCal vin
vv ei
Ġmib ngi
Ġlak ait
amin ation
Ġryng khat
Ġcom e
Ġbook s
Ġ195 6
Ġjingkit khlieh
pb ew
ĠNap hang
Ġse ason
ĠBang ladesh
ĠXX I
195 6
Ġtm ain
Ġpyi thei
Ġlob i
kan i
ĠSad usi
Ġris aw
ĠEx ec
ĠByr saw
EH U
Ġjyll ei
Ġer iong
ĠCha nd
ĠCha irman
Ġmuk otduma
ĠSHI LL
ĠXV I
Ġkyrt cng
Ġkhm ib
ĠLym da
ĠBos co
ĠHor mu
Am wi
Ġord er
Ġshyng oid
Lyng doh
Ġmor ph
Ġreg ister
ĠNab on
ĠGil bert
Ġpba war
Po etry
Ġjyngk ieng
ĠBakh us
ĠPak istan
Ġshynriah ti
ĠBuit tuh
Ġkyntb up
ĠPrinc ipal
ĠRAM EW
ĠThir d
ĠDeb orah
Ġshympr iah
( ^
< >
> .
B LEI
C ol
D OH
E K
G G
M yn
T iew
U ang
a si
b ut
b ii
b isha
c er
d b
e si
f ong
f at
f eng
i id
i kai
j f
j j
j un
k oh
k ah
k li
k lia
k ohnguh
m os
p ait
p aid
r ob
t ur
t yngk
t ymp
u aid
x n
| ^
Ġ ew
Ġk A
Ġk J
Ġk ew
Ġk lang
Ġk tha
Ġk ritik
ng iang
Ġka na
ba wa
Ġba lai
Ġl iar
Ġl iap
Ġki e
Ġki ha
Ġki et
Ġs ied
Ġs ci
Ġs riem
Ġj ali
Ġp n
Ġp da
ei ii
Ġia thoh
Ġia lum
Ġia her
Ġd un
Ġd uid
Ġd khai
Ġd yngkhong
Ġd icng
ĠK ei
ĠK ing
ĠK en
ĠK is
ĠK br
ĠK yntiew
Ġn ei
Ġt v
Ġt op
Ġt bai
Ġt iei
Ġt rab
Ġha man
Ġha jir
ai k
Ġbad ei
Ġb on
Ġb that
Ġjing ieh
Ġjing bang
Ġjing lamphrang
Ġm is
Ġm aloi
Ġm ula
at han
ĠU i
ĠU la
ĠS n
ĠS v
on jin
Ġi thaw
Ġng op
Ġng iam
Ġkh iaw
Ġkh ui
Ġkh uri
ĠB ieit
ĠB hu
ĠB row
Ġpyn tam
Ġpyn tbit
Ġsha nam
Ġsha lyng
Ġsha ring
ĠH eh
ĠH ir
Ġlong shua
ĠN issor
ĠJ t
ĠJ ha
ĠJ ci
ĠJ rong
ĠJ ail
ĠJ unom
ĠJ irang
th s
Ġkum oo
ĠL or
ĠL et
ĠT yn
ĠT en
ĠT ien
ĠT mar
ĠT hap
ĠT hat
ĠP deng
Ġth yr
Ġth ud
ĠI p
ien i
ĠD D
ĠD g
ĠD war
ĠD ari
om long
Ġh eit
Ġh uk
ĠR ow
yng khuh
al ek
kh yndai
im g
im el
yll ep
oi l
ti d
ti fic
Ġ2 11
Ġ2 13
ap h
Ġpyr dai
Ġhi ut
âĢĻ )
âĢĻ âĢĻ.
Ġai li
sh na
Ġsngew leh
amar jan
ĠKh mut
ra a
ra g
ra ta
os a
os it
os iem
ob i
ĠNong kyn
Ġkyr eit
Ġkyr don
Ġa c
Ġa fter
ph um
ph ut
Ġ3 12
ĠW e
Ġjings am
Ġri ght
ĠE a
ĠE nt
fi x
li on
Ġma kna
Ġo x
Ġun der
Ġf ob
ol is
us a
de k
Ġ19 19
Ġ19 11
Ġ19 46
ĠTh or
Ġmynta n
Ġlyng dob
Ġc ase
Ġkiei n
Ġpyns hit
Ġpyns tet
Ġsn ur
Ka ei
Ġsb uwa
Ġkhn iot
Ġpynk yntiew
Ġshah shkor
Ġiing mane
Ġ18 53
Ġbat bit
ĠMar am
ĠMar tyr
ĠMa kedonia
ĠKA WEI
Ġkb er
Ġkb ynnah
st ing
ĠId ne
Ġpa j
ĠBar ber
ĠSoh manir
Ġsur on
re en
shai fi
Ġpyni thuh
Ġ16 9
ag a
bat ri
Ġpy os
Ġpy od
Ġkt im
Ġkt ung
Ġsba d
Ġlei lieh
Ġbak yr
Ġjingsngew lem
Ġtb ew
Ġpynkh raw
Ġnia d
ĠMyn shwa
Ġjiog long
ce ae
Ġsy iang
ft g
Ġpl iah
Ġjmg pyn
Ġbi li
Ġjingkh lad
mu la
ĠSt ud
Ġding phnow
Ġpynj ulor
Ġe ff
ĠPh ra
Ġsep ei
Ġli im
Ġryn sied
ĠRam brai
ĠJI SU
Ġon ly
Ġjingm ynsaw
Ġang ew
Ġsynd et
ĠCh ief
ĠMat ti
Ġbyr tap
Ġbs ut
Ġah ong
IA R
Ġbyn i
ĠCom p
Ġ197 6
.âĢĻ '
Ġpynsngew sih
ĠLam in
ĠKyr shan
Ġx iv
ĠSk ot
Ġih oh
son ant
Ġhe ar
niam tra
196 9
ĠKhar suka
ĠEd en
Ġmin it
kyr khu
Ġ196 0
Ġ196 3
Ġkhap pud
Ġkhap brip
ĠPar iat
ĠComm isioner
TH EI
bri cw
Ġtyn neng
Ġleb se
ĠLi kai
Ġiat ur
ĠSar ang
Ġkiw el
Ġran ei
Ġars nem
ĠKut chari
ĠTyr na
ear ch
Ġlak ynduh
ĠNongpyn baptis
kong or
sy iar
ĠPers onal
byn new
Ġial eb
ĠHar ud
ĠTyng ab
ĠPom blang
ĠAnti o
Sha phang
ĠBeth lehem
Ġnan iar
Ġtba w
ĠTH OH
ĠKhn ap
ĠSub ject
ĠPd ah
khaw iah
Ġwrit ing
YNG K
Ġhor kit
Ġpyrs bang
ĠDaw iing
Ġrom antic
ĠNan doh
ĠTI P
Ġiapyr shah
Ġjingsy aid
MEN T
ĠSup er
Ġthylli eij
Ġnongpeit kai
Ġsch ool
ĠAleks andria
Ġjingra khe
ĠMel khi
Phar shi
Ġlynn iar
ĠWeb ster
Ġnem sniew
ĠPul it
Ġsngeub ha
ĠEaster n
ĠLariam mon
ĠShakespe are
ĠAngl o
ĠExec utive
" '
' -
) >
2 00
< Â»
A BA
A ugust
B ar
D ec
D EW
D istrict
E r
F l
I L
I ng
J ak
M AT
N i
N angta
S iew
U LA
] .
b uid
b ieit
c u
d ot
d ud
d khot
h or
i ia
i om
j ylliew
k ew
k wai
k ulab
l c
l k
l ok
l aid
l ui
l upa
m ly
n an
n id
n iah
p j
p on
r f
r eb
s al
s ait
s ti
s es
s dang
s oit
s bang
t w
t iar
t li
u al
w and
y U
y in
z e
Ġ iem
Ġ awa
Ġk oid
Ġk fa
ng uid
Ġka ri
Ġka ci
ba it
ba id
Ġba pa
Ġl ook
Ġl elt
Ġki un
Ġs om
Ġs ka
Ġs oskular
Ġu b
Ġu h
Ġj iar
Ġj ngut
Ġj ynduh
Ġp um
Ġla n
Ġla roh
Ġia rong
Ġia tbub
Ġd ii
Ġd ara
ĠK dor
ĠK iad
Ġn d
Ġn j
Ġt is
Ġt ynn
Ġt ci
Ġt iap
Ġt re
Ġha lade
Ġha jrong
ai fl
Ġb g
Ġb ne
Ġb im
Ġb uid
Ġb lad
Ġjing at
Ġjing eb
Ġjing ban
Ġjing lap
âĢ ŀ
Ġr ie
Ġr ip
Ġr uid
ar p
ar ad
ar sap
Ġm ah
Ġm uri
ĠS N
ĠS en
ĠS et
ĠS tad
ĠS bai
ĠS TA
ĠS OH
ĠS yllad
Ġi or
Ġi yng
Ġkh yllong
Ġkh ek
Ġkh fiiang
Ġkh rek
or am
or ial
Ġ( âĢĺ
ĠB r
ĠB eit
ĠB rah
ĠH it
ĠH el
ĠH ist
Ġlong jait
ĠN uksa
ĠJ ur
ĠJ ust
ĠJ uli
ĠJ umai
th o
th ut
th nh
ĠM ah
ĠM iet
ĠL Y
ĠL ngam
ĠT aid
ĠT ran
ĠP b
ĠP ung
aw ei
Ġth yn
Ġw ain
is u
ut n
ĠI ca
ynr ap
ynr op
Ġshi i
ĠD ieh
ĠD uwai
Ġh eb
ĠR as
kh uit
kh lain
im e
im os
in al
Ġnong mane
yll ang
Ġkha ni
si cm
Ġkat e
Ġ2 12
Ġ2 18
ul ai
ĠA R
ĠA c
Ġmyn la
Ġwan dur
Ġsngew rit
Ġsngew bit
Ġsngew burom
ip ur
ĠKh ynd
Ġph on
Ġph ot
Ġph rah
Ġph ylliew
Ġsa gew
Ġju ng
ĠNong ta
ĠNong kh
ri w
Ġa y
ph iang
og ai
op ia
Ġjings ep
Ġpha k
ĠY ai
ĠE ar
ĠE ksod
as noh
Ġum saw
Ġjingia teh
Ġjingp yndon
Ġma o
ma si
ĠJing trei
il iary
ol s
us es
Ġ19 20
Ġkl ba
Ġmar tyr
ĠTh ong
ĠTh ymmai
ĠTh ere
Ġks am
Ġthe ory
Ġc or
Ġc all
Ġpyns angeh
Ġjingt im
Ġjingt hala
19 33
Ġiap hi
Ġiap ait
Ġiap ber
ĠV ersion
Ġbat oh
ĠMa j
ĠMa ur
ĠO rig
ki no
Ġkb um
ĠDon rai
Ġpa shait
Ġkd ait
ĠLyng ka
Ġsla jat
ĠSoh kha
lam wir
tha n
Ġdaw bah
Â« *
Ġsoh phan
Ġsoh mynken
Ġmet or
pyn im
ig n
Ġ16 4
ag er
Ġ14 5
dar i
Ġpy ii
nd ia
Ġkt t
Ġv iew
Ġv iii
Ġii og
Ġbak braw
Ġkynr uh
Ġkhr ing
Ġiak yr
fl g
omas jones
Ġtb ikna
Ġpynkh yll
Ġpynkh leh
Ġpynkh eifi
ĠKI BA
Ġjingb urom
Ġsyr wa
Ġsyr pud
Ġsy icm
Ġg iv
Ġtyr ut
mar eh
Ġpyll on
Ġpr uid
Ġkynt em
ec ial
Ġbas ngur
Ġre qu
ro in
Ġpynj rong
kyn hun
kyn sai
ĠPh emin
Ġsyn sar
Ġsyn lar
Ġkr uin
Ġkhie shoh
Ġrang san
Ġbap ber
Ġbang ta
Ġsym pa
Ġjingm inot
ĠJING PYN
ĠMat rik
Ġbyr ni
yi li
197 2
197 5
Ġlaw bah
Ġbs ah
ĠRang li
sar ang
Ġ197 1
Ġ197 5
ran ce
Ġjingph et
Ġ193 2
our t
bei fl
ĠSait sokpen
Ġâ Ļ¦
kl in
Ġpynt ieng
Ġjingr ing
196 6
Ġam ong
ĠHA POH
ĠSym pa
ĠSchool s
ga zine
ĠLA MPHRANG
Ġbaj ylliew
ĠSyr na
Ġdo khol
Ġsai fl
ĠCa char
Ġpynph ieng
Ġtymp ang
ĠSer mon
ĠJai h
ĠCon stitution
ĠLy oh
Ġthai fl
ĠCal endar
Ġty Ui
Ġpb in
Ġab o
ĠTip lut
ĠAng ell
Ġkar ta
Ġpyrth ew
Ġfiiew kor
Ġsm all
Ġtl ieng
ĠLal ung
ĠMal ar
Ġed n
Ġed ition
ĠEx amination
Ġnongkh wai
Ġag in
ĠKyll eng
Ġbl uit
Maw long
Ġmu ch
ĠMi z
Ġshikat ta
Ġjn it
Ġappe ar
ĠXII I
TI P
Ġnongtb ob
Sait sohpen
pur aw
ĠMus iang
ĠStep han
pyll ieng
Ġjir g
ĠDai oi
sic al
Ġpoet ri
ĠRob in
ĠDk bar
ĠSC ENE
ĠTuh hok
Ġâĺ Ĩ
Jon ah
ĠSw ami
Ġtup ia
ĠChed rack
ĠMakai fl
ĠRus sia
ĠKlia si
ĠRynn iaw
ĠAnth ony
ĠSHILL ONG
Col our
ĠBhu yan
ĠDieh shonhi
ĠPhemin in
7 4
< ^
B hoi
C M
D ieng
H ima
J uly
K yn
K ei
L eh
L ym
M g
O i
O ng
P h
S H
U S
Y A
a inguh
c g
c j
d aw
f g
f ia
f ar
g y
g ong
g eit
g al
i j
i ieh
i ohi
j yr
j en
j amin
k ang
k em
k im
l r
l it
l ii
l ymb
m m
m y
n y
n cm
o ug
p ros
p nah
r s
r ess
s oi
s ab
s bun
s yndah
t ynrai
u ed
v al
w en
y og
Ġ om
Ġk ordit
ng ei
ng ad
Ġka o
Ġka iph
Ġka ae
ba o
Ġba in
Ġba ph
Ġba iar
Ġba jan
ha lang
Ġl ud
Ġl il
Ġl ed
ia na
Ġs w
Ġs ik
Ġs ein
Ġs ent
Ġs ec
Ġs oc
Ġs ee
Ġu jor
Ġj had
Ġj yndong
Ġp in
Ġp ulom
Ġla shem
Ġd p
Ġd one
Ġd eterminer
ĠK d
ĠK iang
ĠK ynt
ĠK rem
ĠK yntang
ĠK yilong
Ġn ub
Ġn ain
Ġn ow
Ġt un
Ġt lor
Ġt iong
Ġt ula
Ġha k
Ġha l
Ġb eb
Ġb ynda
Ġb istor
Ġb vn
Ġb thing
Ġjing n
Ġjing bikai
hi ma
ta a
Ġr uli
ar iew
Ġm d
Ġm it
Ġm yl
Ġm aster
Ġm gai
Ġm ost
Ġm ict
Ġban k
at eng
ĠS ta
ĠS uid
ĠS pain
on sar
Ġi k
Ġi on
Ġi di
Ġi thiang
an c
Ġng oh
Ġng or
um ta
Ġkh ur
Ġkh ub
Ġkh na
Ġsh r
Ġsh rong
Ġsh fiiuh
am is
Ġ( /
ĠB ut
ĠB od
ĠB tei
ĠB ro
ĠB ura
ĠB boi
ĠB RIEW
Ġpyn ngeit
Ġpyn nang
ĠH em
ĠH ynn
Ġlong knii
ĠN E
ĠN ot
ĠN al
ĠN oi
ĠN os
ĠN EHU
ĠJ oit
ĠJ ngai
Ġna jan
th et
Ġkum an
ĠM ong
ĠM ynd
ĠM uri
ĠM AR
ĠM okotduma
ĠL ot
ĠL MS
er n
ĠT an
ĠT ylli
ĠT ig
it o
ĠP ynd
eit i
is an
ĠI v
ĠI eh
ad ong
ynr aw
Ġshi k
Ġshi jam
ĠD O
ĠD ut
Ġh ong
ĠR E
ĠR ympei
kh roh
Ġkyn bun
Ġkyn kiw
Ġnong lum
ĠHa ta
Ġkha saw
ait uh
sha m
Ġ2 14
id t
ĠA B
ĠA a
ĠA rist
Ġpyr da
Ġpyr tb
ĠKha i
ĠKha ldi
ip a
ĠKh nong
ĠKh onjin
Ġph m
Ġph ymai
ra ft
Ġsa y
ĠNg eit
ĠNong lyngk
ĠNong phlang
Ġkyr da
Ġkyr ngah
ri ca
Ġ3 18
Ġ3 20
Ġar shah
ren ch
Ġjings n
Ġri war
Ġkhun kha
Ġshong kun
ĠE S
ĠE r
ĠE thi
ĠE vang
Ġum dih
Ġjingia ieit
Ġjingia shong
Ġjingia tbub
ĠC hap
ĠC art
ĠC ulture
fi iaw
ma ian
ĠG O
ĠG ur
ĠG aios
ĠJing kh
ĠJing sneng
Ġf h
Ġf ong
Ġf ai
Ġ5 86
ol oji
de kaiah
Ġ6 00
Ġ19 40
Ġkl iam
Ġpynd um
Ġpynd kut
ĠSha ne
ĠSha phrang
ĠSh oh
ĠTh u
Ġks oh
Ġks iang
Ġpar o
Ġpar amarjan
doh nud
Ġim iang
Ġ^ *
ĠâĢĻ âĢĻ
Ġlyng d
Ġc ame
Ġpyns aja
Ġsn ar
ĠBa kbuid
Ġdieng iap
Ġjingt eh
Ġjingt wa
Ġjingt uid
Ġjingt ied
ed s
sa ia
Ġpynk it
Ġiap ra
Ġiap yrkhat
Ġ18 38
ĠV ice
one l
Ġriew don
Ġlap ngar
ci fi
Ġkhynd cw
ĠKA S
Ġin d
ĠMaw thoh
ĠMaw iong
and hi
Ġpa ju
Ġkit bok
Ġlait ylli
ĠLyng skor
ĠSoh bar
se dek
re am
Ġpynp er
Â» .
Ġst ud
Ġji Dg
ĠUm ngot
ak ren
Ġjingd uk
Ġjingd up
ĠMan ipur
Ġ14 6
Ġ14 9
Ġpy or
Ġkt ba
Ġ13 4
Ġsba ne
ss ue
ĠDa y
Ġlei l
Ġv al
Ġtyng ier
Ġbak ong
ev el
Ġpal ong
ĠHad em
Ġ15 1
Ġ15 6
Ġ15 8
Ġky ot
Ġ17 8
Ġrai bi
Ġsyr deng
Ġsyr dep
Ġjiog pyn
Ġg ro
ĠSa v
Ġnongp ynroi
Ġpr op
Ġbi ih
Ġjingkh eifi
Ġjingkh eih
ĠX a
ĠAp oll
Ġlyngk or
ĠSt udy
IE IT
ers on
Ġlym biang
Ġjingsh et
Ġphar ia
Ġad jective
ge on
Ġkn ii
Ġryn i
Ġkr at
Ġpur ew
bit om
pha t
ĠSan niew
ĠJING IA
ugh t
197 0
had ur
ek ah
Ġah or
IA T
ook am
Ġnongb uh
Ġkhoh ruh
Ġiob sngew
Ġsab eb
Ġsuh sat
ĠLam a
Ġsl at
ĠLang rin
Ġx a
Ġpynshong nia
AI N
iak ren
.' *
Ġkhyr wait
Ġkynd at
BA R
ĠHyn fliew
Ġmy ota
Ġcon s
Ġlen til
Ġbri ow
ĠNongia thuh
ĠPan i
ĠMor lan
TH UH
Ġnongt ong
Ġper i
ĠJai fitia
Ġshyr ti
Ġkei S
ĠHerod ia
Ġphra se
uag int
ĠSH ONG
ĠDoh kha
sk rit
ĠSe dekaiah
Ġjingbha briew
sy ep
ĠPol o
IS TAN
KA M
ĠNap oh
ĠMyr siang
ĠSept uagint
ĠJingk ieng
ĠDew lynnong
ĠRe g
Ġsoi tan
Ġdan da
Ġris ang
ĠGre en
Ġnongkh ein
ĠNep al
ĠMas kut
ĠKyll ang
ĠSou th
ĠByr lieh
ĠMad ur
Ġjak oid
Ġkyi la
ĠJat inga
ĠFran klin
YM M
YM P
Ġiaw bei
ĠNongsh un
Ġknm ba
âĢ¢âĢ¢ âĢ¢âĢ¢
Ġkhra at
ĠRad io
Ġkuni ba
ĠBis ing
Ġjynd ei
ĠBen jamin
ĠBud d
ower ing
ĠPHA WAR
Ġlehrai fi
ĠIaw bei
ĠIaw daija
ĠCl ub
ĠHynr ci
Ġjingsng cw
Ġsaph ret
ĠOli b
ĠNur im
Ġthn um
ĠJingiathuh khana
ĠLyngd khur
ĠDeut eron
ĠOne simos
yg en
ĠHong ma
nol ogy
ĠMynn or
ĠLieng makaw
ĠArab ia
ux iliary
troduc tion
ĠBYN TA
spe ctor
Ġjakar ieh
ĠDD T
Fl owering
wand ur
Ġawa y
Ġkaiph ot
ĠEthi opia
ĠCart el
ĠApoll os
* !
- >
; âĢĶ
< *
B ynta
D r
E l
J eh
M n
M t
M ig
O O
O f
O ctober
P EL
R ung
S eng
S hisha
U P
] ^
a j
b ib
c hi
d ro
f ield
g em
g er
h l
h ed
i u
j om
j al
j li
j od
j nh
k j
k sha
k ii
k nor
l ip
m d
m h
m n
m el
m yntoi
n in
n iat
o y
p ra
r ng
r ngiew
s u
t ti
t imai
v ate
x ide
Ġ end
Ġk lass
ng ub
Ġka a
Ġka id
Ġka oo
Ġka ji
ba is
Ġba ki
Ġba khia
Ġl ih
Ġl ir
Ġki na
ia tion
Ġs ug
Ġs wet
Ġs iig
Ġs jc
Ġs miej
Ġu o
Ġj j
Ġj p
Ġj id
Ġj nat
Ġp f
Ġp el
Ġp uta
Ġla duh
Ġla li
Ġla ter
Ġla pher
Ġla shisngi
Ġia ong
Ġia ip
Ġia bat
Ġia nga
Ġia shah
Ġia wer
Ġia shoh
Ġia ishah
Ġia risa
Ġd op
Ġd ied
Ġd ou
ĠK f
ĠK k
ĠK oh
ĠK ka
ĠK ynta
ĠK iel
ĠK siang
ĠK YR
ĠK ordit
ie ut
Ġn ir
Ġt id
Ġt el
Ġt wa
Ġha h
Ġha diih
ai s
Ġb j
Ġb k
Ġb ia
Ġb ol
Ġb us
Ġb ill
Ġb dd
Ġjing ot
Ġjing ap
Ġjing rit
hi w
hi ra
ta og
Ġr aw
Ġr ot
Ġr iaw
Ġr ymp
Ġm uin
Ġm aifi
Ġm dw
ĠU juh
ĠS iew
ĠS iem
ĠS yngk
ĠS ynn
ĠS una
ĠS alem
ĠS kit
ĠS umar
ĠS IEJ
Ġi hi
Ġi iang
Ġi ra
Ġi fa
Ġi jot
Ġi ssue
Ġng dt
Ġkh ri
Ġsh ia
Ġsh ew
Ġsh ep
Ġsh war
Ġsh nh
Ġsh hiuh
ĠKa sh
am it
ĠB u
Ġpyn bitar
ĠH op
ĠH oid
ĠH IM
ĠH ynnin
ĠN el
ĠN ich
ĠJ neng
ĠJ YND
th len
Ġkum nc
ĠM ie
ĠM ember
ĠL f
er tain
ĠT J
ĠT c
ĠT t
ĠT ri
ĠT ung
ĠT fi
ĠT re
ĠT ynrong
en s
ĠP U
ĠP ba
ĠP un
ĠP ra
ĠP hang
ĠP ri
ĠP lur
ym bai
Ġth wet
Ġth ree
Ġth ough
Ġw id
yl on
ĠI Q
ĠI sh
ĠI war
ĠI wait
ĠI Ca
Ġshi sh
ĠD is
ĠD ih
ĠD uk
ĠD et
ĠD ik
ĠD uma
ĠD OH
Ġh h
Ġh ew
ĠR ec
ĠR ngiew
ĠR IEW
ĠR ishot
Ġsng ou
al ong
Ġnga k
kh mut
kh lai
im ta
im at
Ġnong tei
Ġnong kyn
Ġnong ioh
ĠHa og
ep ngi
ap t
ap oh
id ia
ĠA has
kha in
Ġmyn sien
Ġmyn nyngkong
Ġbar hem
âĢĻ \
âĢĻ âĢĶ
âĢĻ âĢĻ,
âĢĻ *.
Ġai m
Ġai bam
ub en
Ġsngew skhem
ip aw
Ġph n
Ġph ng
Ġsa ja
ĠNong trei
ĠNong pule
ĠNong jri
ph ob
Ġ3 10
Ġjings mai
Ġjings him
Ġjings hisba
Ġpha b
Ġpha l
Ġri ih
Ġja um
Ġkhun bynriew
Ġjingk em
Ġjingk tah
Ġjingk let
ĠE se
Ġkan un
Ġ4 000
as y
Ġum shit
Ġdang rit
Ġdang step
ĠC Q
Ġjingp ynr
Ġjingp ynt
ynt ri
Ġo wn
Ġkot khubor
ĠG OS
ĠG andhi
Ġun i
ir e
il y
il iang
il ee
Ġbun jait
Ġkl iang
ĠSha bong
ĠSh ort
ĠTh um
Ġhang thie
Ġc l
Ġc ulture
ĠBa hadur
Ġsb na
Ġkhn ium
Ġpynk iang
Ġiing kur
Ġ18 29
ĠV m
Ġbat ch
ĠMa ne
ĠMa hat
Ġriew bha
Ġriew niam
ĠO ct
Ġkb y
Ġkb nang
Ġin i
Ġjingpyn ksan
Ġsam e
ĠMaw bah
ĠMaw rap
ĠMaw ryngk
st et
st ieh
br ia
ĠBar eb
Ġryngk uh
ĠLyng khom
ĠSoh phan
ymm an
tha in
Ġpynp roh
ĠKat ne
Ġsoh iong
Ġsoh niamtra
pyn i
ig ion
ĠSing ular
ĠF S
thi c
thi ih
Ġpy h
Ġpaw ang
Ġsba k
Ġsba bar
Ġwah bah
Ġap il
iw tar
Ġshynr eh
Ġtyng heng
tb oh
tb ob
Ġky U
Ġky ip
Ġtb ung
ĠShil ot
Ġpynkh lain
Ġkba ng
Ġjingb yr
Ġjingb ieit
Ġjin p
Ġsyr ngi
Ġjiog s
Ġjiog im
ce ed
Ġdu war
ĠKot bah
Ġkhat wai
Ġkynt ieo
Ġlyngk at
ĠRo om
ĠBA I
IE T
Ġpynj lih
lad c
kyn jah
Ġsynr eit
Ġjingl yng
Ġjingl oog
Ġsor dar
ĠSan skrit
kum no
Ġ184 3
Ġbyr then
Ġlaw san
rat is
Ġah u
Ġsp eak
Ġdien jat
ĠAb el
Ġithuh paw
kb mat
Ġ197 0
ran t
Ġjingph oh
Ġpynh ei
Ġbab u
Ġbab ieit
suk i
Ġpynt ud
ĠAd jective
Ġx x
iti ve
Ġkaj ait
sing h
196 0
pe ct
Ġpynsh oh
ĠMih snge
Ġkynd iah
ĠKhar ngap
Ġnot is
Ġkhad wei
Ġbaj ngai
kyr teng
Ġram ia
Ġ196 1
thub paw
Ġkhyn soit
ĠPan sngiat
io xide
AR Y
ĠPo li
ĠSar ah
Ġiad ih
Ġjingias aid
RA W
Ġlo ag
end ent
ĠJingia seng
Ġ195 8
Ġhynr d
Ġhynr el
ĠPur iskam
UN K
Ġiakh leh
Ġiakh ublei
ĠMyr iaw
Ġ187 1
Ġ187 6
ĠJingk ylli
Ġpli c
lut ion
Ġsngcw bha
ĠDav ies
ĠTir ol
ĠJap ang
ae us
Ġag ain
Ġel ect
ĠTr al
Ġmuk tiar
Ġ188 9
Ġkyrt oh
Ġup on
Ġbyll ien
ĠKhi istan
Ġdik sb
ĠJINGK DEW
Ġkop i
Ek ie
Ġjal t
ĠBuh sing
ĠLeb it
Ġmus la
ĠSuba sing
ida y
ĠKHR ISTAN
pyll eng
Ġshapha og
ĠTro as
Ġthie p
ĠIta ly
Ġyr a
Ġpynit ynnad
Ġpynit ynnat
Ġmark ylliang
ĠJA IT
Ġjf ng
Ġtuk lar
Ġshak iar
ĠCent ral
ĠMil ton
Ġge neral
ĠJub ilee
Ġfr ien
Kor inth
Feb ruary
PHA NG
bod ia
ĠPYR THEI
Ġpres ent
stru ction
ĠPala ung
ĠHen ry
Ġartic le
ĠSawang ka
shynr ut
Ġnongshoh noh
ĠEnt rance
Ġox ygen
ĠNongta lang
ĠBura khia
ĠNonglyngk ien
ĠJYND EM
ĠPlur al
! âĢĻ
* ;
* âĢĶ
, âĢĻâĢĻ
; ^
A le
A ni
A ss
A IAH
B ai
B alang
C om
G HA
H ad
I J
I srael
J ER
L YNG
M A
M ai
M ap
N iam
N AI
O D
O n
S e
S n
S o
S ba
S an
S cene
T R
T ip
U g
U ei
U ID
V i
V ol
Y n
^ )
^ âĢĻ
a ct
a use
b m
b im
c f
c al
c ul
d g
d l
f an
f ca
g ed
h h
h yn
h um
i or
i iem
i ung
i thuh
i us
j ei
j ipt
k w
k iang
k oit
l g
l iah
m in
n s
n aw
n im
n uid
o j
o oh
o da
p ba
p ynd
p ri
p har
p ro
r el
r yngkat
s ob
s lem
s niang
s elf
t ta
t th
t ait
u ai
u ah
u ir
v ine
w g
w or
Ġ ien
Ġk ri
Ġk cin
ng et
Ġka long
Ġka dei
ba li
Ġba u
Ġba shi
Ġba ji
Ġba hir
Ġba ieid
Ġl b
Ġl un
Ġl ied
Ġl iak
Ġki ang
Ġki in
Ġki lom
ia lam
Ġs ol
Ġs urom
Ġs ban
Ġs ion
Ġs daog
Ġj d
Ġj un
Ġj iang
Ġj cng
Ġj ipg
Ġp ii
Ġp le
Ġp ui
Ġp rep
Ġp deog
Ġla ba
Ġla kh
Ġla ip
Ġla long
Ġla og
Ġla war
Ġla thai
yn sur
ei l
Ġia juh
Ġia khana
Ġia thab
Ġd er
Ġd raw
Ġd ro
ĠK ang
ĠK eng
ĠK long
ĠK ain
ĠK saw
ĠK rishna
Ġn p
Ġn iah
Ġn iat
Ġt j
Ġt na
Ġt iaw
Ġt cng
Ġt oga
Ġha nd
Ġha te
Ġb oit
Ġb uin
Ġb uij
oh sngew
Ġjing ba
hi pa
ta ct
Ġr j
Ġr w
Ġr na
Ġr wieng
Ġm ur
Ġm id
Ġm ember
Ġm kom
Ġm isteri
Ġban ang
at ew
ĠU a
ĠS it
ĠS eb
ĠS EM
Ġi T
Ġi yn
Ġi im
Ġng aifi
Ġkh yl
Ġkh uin
Ġsh rip
ĠKa jang
am an
am ot
ĠB ong
ĠB es
ĠB esli
Ġpyn jakhlia
Ġda u
Ġda og
Ġsha kor
ĠH ip
yr long
Ġlong man
Ġlong syiem
ĠJ om
ĠJ iang
Ġna diih
th n
th ias
ĠM un
ĠM ain
ĠM ib
ĠL J
ĠL uk
ĠL UM
ĠL ower
ĠT E
ĠT on
ĠT ur
ĠT ep
ĠP eng
ĠP isa
ĠP HI
ĠP lat
Ġdon hok
Ġth ret
Ġth rough
Ġw here
is ba
ut ra
ĠI G
ĠI L
ĠI ai
ĠI da
ĠI ren
ĠI Ci
ynr an
ynr um
ĠD pei
Ġh on
ĠR an
ĠR em
ĠR ah
ĠR UK
Ġsng l
Ġsng em
al d
ih oh
kh ynnah
no s
yll uid
ĠHa khmih
si r
sha kri
sha lai
Ġkat nc
ap ur
Ġbr lew
et ch
ĠA U
Ġmyn shisngi
Ġbar o
Ġbar on
Ġbar ben
Ġai fl
sh en
sh lia
ub ei
Ġph ei
Ġph oh
Ġsa la
Ġju sti
ĠNg uh
ĠNong um
ĠNong khyr
ĠNong khrah
Ġkyr thep
Ġa ga
ph ratis
Ġnang san
Ġar spah
Ġar sngi
ĠW ol
Ġshu a
Ġpha idien
ĠLa khon
Ġja song
Ġtha id
Ġtha mula
Ġshong nia
Ġshong blei
Ġshong neh
Ġjingk ohnguh
ii b
ĠE sau
as hi
as uk
as kos
Ġjingia k
Ġjingia beh
ĠC ath
fi ei
fi ce
li g
li oh
Ġo oh
ĠG os
ĠJing thaw
ĠJing khei
Ġjait b
Ġjait uh
Ġf ind
Ġ5 000
ol k
Ġ' (
de b
ĠShi p
ĠShi phew
ĠShi por
Ġ19 14
Ġ19 21
Ġkl un
Ġkl ur
Ġpynd cp
ĠSha ba
ĠSha ei
ĠSha khoi
ĠSh ylla
ĠSh yntur
ĠSh ynrong
Ġmar pa
Ġmar ble
ĠTh ymmei
ĠTh rough
Ġhang amei
Ġsah uh
Ġlyng khuid
Ġlyng khuit
Ġbym dei
Ġc f
Ġc ent
Ġc ourse
Ġpyns ng
Ġpyns yr
ĠBa iap
Ġjingt yng
Ġjingt lot
ed i
ic l
Ġbam ar
19 28
19 30
19 31
19 36
Ġof fic
Ġshah e
Ġshah mudui
Ġ18 32
ĠO a
ĠO b
ĠO p
Ġlap e
Ġpeit kai
Ġkb ie
Ġjingpyn iap
Ġjingpyn wit
Ġjingpyn thymmai
Ġlai fi
ĠMaw iang
ĠMaw hat
and o
ni u
ĠNa ga
od i
ĠJong ksha
Ġpa kit
ĠBar shon
Ġ! âĢĻ
Ġdak aid
Ġkit khia
ĠSoh lang
ĠSoh seng
ian t
ly er
Ġst ai
Ġsoh kha
Ġsoh sat
Ġkur up
bab iang
ak ut
ĠMan as
ĠMan shuwa
Ġsuk a
Ġv ernacular
nia i
Ġkynr em
ĠHad icn
ord on
Ġ15 2
Ġ15 3
Ġ15 5
Ġ15 9
ĠPyr th
ĠPyr sa
ĠPyr dei
ĠPyr tuh
Ġky p
Ġtb iah
Ġ17 1
Ġkba d
Ġtrai shnong
Ġjin j
Ġ20 3
Ġ20 6
Ġtyr jup
ft t
Ġias ngap
Ġjingi ong
Ġmat iong
Ġjmg leh
Ġjop g
Ġjingkh lain
Ġship ruh
Ġjingpyr kbat
Ġtr oh
Ġtr oin
Ġpynr yngkang
jong u
Ġhiar pateng
bl oi
ĠBA LANG
pi ur
ĠRev ised
Ġhyn iei
Ġhyn fliew
Ġsynr ap
ĠPh one
ĠPh ry
ĠPh oin
ĠAr men
Ġad kar
Ġ25 0
ĠLait flang
ĠNalor kata
Ġpynl iem
Ġpynl ip
tion s
ĠJa c
Ġnongk fiia
Ġan i
ĠSan hed
Ġsym g
Ġjingiap an
Ġni un
Ġni ynta
Ġra ieh
lan ot
ĠLap atew
Ġiam ynjur
Ġbyr a
Ġbyr tong
Ġduk hi
ĠEngl and
Ġpynm lien
Ġbs iat
Ġah uh
Ġjingkyn ud
Dg ew
Ġbyn new
LA YA
tic s
Ġfor m
kb u
kb em
Ġkm ei
ĠKl ew
Ġ< *
ĠNongs am
ĠKyr khu
Ġpynt yr
pyr shah
Ġjingr yntih
Ġjh ieh
Ġkhyr dong
ĠKhar kongor
Ġsal onsar
tr hem
ĠBor abor
Ġcon sonant
ee ee
Ġlu phratis
Ġ196 7
ĠJeho iak
shem phang
Ġ189 5
ĠMor de
Nam jer
ĠGo vt
Ġpd ung
lo od
Ġiad at
pr ession
ĠMai li
Ġkei ii
Ġid t
Ġjingias yriem
Ġlo amis
Ġ195 5
Ġ195 9
ĠSur geon
ĠPur iang
Ġiakh mih
198 3
Sha no
ĠMin ister
ĠMal ngiang
Ġed ucation
ĠTha rai
ĠKn m
ĠTab erna
Ġkyl ia
Ġrat bah
Ġkhor sha
sn ieu
Ġmyns iera
stit ute
Ġrn kom
Ġpol lution
ĠHamar babiang
ĠFir mly
ĠStat es
ĠMari fi
ĠPub lish
Ġsyngk ieng
Ġtyngk rein
Ġev en
Ġdik sh
Ġwrit ten
khyr wang
Ġhor dang
ĠOr gan
Pa iem
Ġmal u
Ġpre k
ĠSun day
ĠJal y
ĠjingY ap
ĠNongkha ii
Ġjoh g
sei soh
Ġnom una
ĠProf essor
Ġes tab
Ġjaitby oriew
ĠAleks ander
Ġnyngk oog
Ġinter est
ĠBap t
No vel
Ġbec ause
otes tant
Ġâĺ ħ
Hang ne
ĠNow gong
ĠKhyll ew
ĠOffic er
ĠPoit tri
ĠAram aik
Ġstat e
Ġkhynn iuh
ĠCas sia
ĠJingkyr men
ĠMethod ist
Ġmaj ikor
Ġjym phong
ĠKun ok
Ġpynsy aid
Ġiakha lai
asur er
ĠCalvin istic
ĠDari os
imel ek
Ġbakyr pang
ĠMelkhi sedek
Ġrip hin
ĠJuli us
Ġcall ed
ĠMaur ice
Ġnain ar
Ġbvn ta
Ġbakong san
Ġperi od
ĠHongma khroh
ĠHIM A
ĠNich ols
ĠGOS PEL
ĠMahat ma
ĠIren aeus
ĠRUK OM
ĠNongkhyr lem
ĠSanhed rin
! "
" *
' (
' ll
, )
, **
/ .
8 4
8 5
9 3
; .
A ct
B am
D o
F M
H um
I K
I ndia
K ai
K ut
K har
N eh
N ailar
N ENG
P ud
S y
S ing
S am
S uk
U L
\ ^
^ >
a ia
a ag
b id
b ung
c um
c ih
c ii
c ed
d ii
f h
f w
f em
f ord
f ea
f ipen
g ro
h n
k f
k ali
l b
l up
l ci
l oog
l oin
m ung
m usa
n on
n ub
n aduh
o ad
p p
p ep
p oitri
p nat
q i
r og
r thei
s ol
s gr
t J
t p
t ie
t ne
t ied
u f
z n
Ġ ynnai
Ġ oiig
Ġk et
Ġk fi
Ġk ma
Ġk rei
Ġk ro
ng im
Ġka pten
ba je
Ġba ia
Ġba wai
Ġba shai
Ġba ngeit
Ġba iapher
ha duh
ha ri
ha nia
Ġki a
Ġki j
Ġki el
Ġki au
Ġki jaka
ia g
ia u
ia no
ia soh
Ġs j
Ġs r
Ġs en
Ġs bah
Ġs ymp
Ġs nob
Ġs ieij
Ġu l
Ġj c
Ġj rem
Ġp ber
Ġp jm
Ġp ilgrim
Ġla ha
Ġla leit
ei ft
Ġia bha
Ġia mareh
Ġd iap
Ġd ui
Ġd ib
Ġd ymmiew
Ġd ookam
Ġd ioxide
ĠK oi
ĠK ein
ĠK ular
ĠK pong
ĠK lass
Ġn f
Ġn s
Ġn v
Ġt eit
Ġt ynd
Ġt ieh
Ġt ukom
Ġt raw
Ġt ymm
Ġt lur
Ġt est
Ġt ylh
ai ig
Ġb ob
Ġb inong
Ġjing V
Ġjing deng
Ġjing ogeit
hi um
hi in
hi kna
Ġr t
Ġr ait
Ġr ule
Ġr ukor
ar ing
Ġm iar
Ġm ir
Ġm ya
Ġm ga
Ġban eng
ĠU t
ĠU Th
ĠS M
ĠS T
ĠS f
ĠS yng
ĠS ok
ĠS iar
ĠS ylli
ĠS tan
ĠS wet
ĠS buh
ĠS pe
ĠS IM
Ġi p
Ġi ha
Ġi ma
an ji
Ġng un
Ġkh v
Ġkh en
Ġkh iat
Ġkh ieu
Ġkh rik
Ġkh ura
or i
or s
Ġsh ort
Ġsh rut
ĠKa juh
ĠKa mar
Ġda ei
Ġsha ph
Ġsha thic
ĠH ew
ĠH ym
ĠH es
ĠH vn
yr ta
ĠN iwtar
ĠJ C
ĠJ ul
ĠJ as
th iew
ĠM ur
ĠM olar
ew ell
ĠL ba
ĠL em
ah em
un ar
ĠT at
ĠT ym
ĠT yngk
ĠT ada
ĠT ara
ĠT aleh
ĠP on
ĠP ris
ĠP de
ĠP ein
ĠP ope
Ġdon kani
Ġth iem
Ġth iat
Ġth ning
Ġw iaw
ĠI so
ien tific
Ġshi kh
ĠD um
ĠD as
ĠD ated
Ġh j
Ġh n
Ġh ng
Ġh yr
Ġh ur
Ġh ud
ĠR ain
al t
Ġpat or
Ġpat eog
kh lam
Ġnong th
Ġnong iat
Ġnong batai
Ġnong shad
ĠHa ka
si i
sha phat
ti ei
Ġbr up
Ġbr iaw
et t
ĠA oh
ĠA ug
ĠA hab
Ġ: âĢĶ
Ġmyn dai
Ġbar a
Ġpyr thuh
Ġpyr wa
ĠKha ii
Ġlah duh
Ġai wai
el n
el la
Ġ- ),
Ġsngew b
Ġsngew sh
Ġsngew lyngngoh
ĠKh ot
ĠKh ub
ĠKh ro
ĠKh yndew
Ġph y
Ġph yl
Ġph lan
Ġsa ham
ĠNong rwai
Ġkyr san
ri ong
Ġa T
Ġa ong
Ġa oh
na s
Ġ3 14
Ġar bynta
Ġar por
Ġkhl ieb
ĠW ai
ĠW hat
ĠY ad
ĠY alam
Ġshong sah
Ġjingk yl
Ġjingk ynrei
ii o
ĠE basi
as aid
Ġjingia l
Ġjingia kut
Ġjingia tain
ĠC at
ĠC ir
fi l
fi iar
Ġjingp ait
li ch
Ġma ka
Ġma unds
Ġo amar
Ġo ag
ĠG om
ĠG od
ĠG rad
ĠJing sh
ĠJing iarap
ĠJing bishar
ĠJing kmen
Ġf am
il em
ĠShi spah
Ġ19 50
Ġ19 49
Ġkl um
Ġpynd ik
ĠSh iah
ĠTh es
Ġks aifi
Ġthe u
Ġ7 21
Ġlyng hoh
Ġbym lah
Ġc ur
Ġc le
Ġc re
Ġc rit
Ġc hap
Ġlang hat
Ġte b
ik at
Ġpyns ep
Ġman a
Ġbor row
Ġsn ad
ĠBa taw
Ġbam yn
Ġsb uti
Ġpynk br
Ġiap ler
Ġ18 13
Ġ18 24
Ġ18 34
Ġ18 39
ch nology
ĠV oh
Ġbn rom
ĠMa gazine
Ġriew shai
Ġlap miet
Ġkb iem
Ġkb lieh
Ġjingpyn khih
ĠMaw jam
ĠMaw sawa
Ġshis ong
Ġshit ylli
kor om
iap duh
od om
od es
od imos
Ġryngk hi
Ġkd at
Ġkit ai
ui fl
ĠSoh pieng
tha la
Ġjingj ai
Ġjingj aw
Ġjingj ngai
Ġtrei kam
re ktor
ĠKat b
Ġst ong
Ġst ed
Ġst udy
ĠBan m
Ġsoh kh
Ġji w
Ġji rig
ĠUm sh
ĠUm tlang
ĠBah rit
ram ew
ib ng
ib or
ĠPr os
Ġjingd iah
ĠF und
ĠMan ager
Ġkt l
Ġkt ei
Ġsba p
Ġshynr ai
ĠâĢ¢ âĢĺ
Ġtyng khuh
Ġii wei
Ġlam bic
ngai fi
Ġiak men
lai h
Ġ15 4
Ġ15 7
ĠPyr tbei
Ġky t
Ġky iteng
Ġ17 2
Ġ17 6
Ġjingb ba
ĠMyn step
Ġiai ong
Ġiai oh
Ġnam e
Ġsy ar
Ġg reen
Ġtyr nem
Ġpl ain
Ġias ei
ĠPha wer
ĠKba s
Ġjingth rang
Ġjmg shisha
HA I
HA R
Ġ23 0
Ġjingkh ei
ĠTe ach
ll l
11 1
Ġpynr oh
ĠNo vel
Ġlyngk niap
di uh
bl ci
ĠBai b
Ġjingsh un
Ġsynr um
Ġsynr iah
ĠAr phew
ĠAr ts
ĠAr yan
Ġkynth ci
Ġjingkyr shan
ĠBab ha
ĠRam dat
ĠKyn mau
oo f
Ġfa a
Ha khmih
Ġan a
ĠIn jury
ĠIn troduction
Ġni ynsiem
ĠAn t
Ġmei san
lyng ka
ĠKH ONG
Ġbyr sieh
ĠAm ir
Ġwei briew
Ġjingkyn jah
Ġjain sem
IA W
Ġkato e
ner s
Ġ197 2
.âĢĻ ^
Ġâ ĸ
ĠKyr dem
Ġkhyll ip
Ġpynt yllun
Ġku ne
Ġku ah
ĠKhong phai
Ġjl ew
iak ynduh
196 1
196 4
Ġpoh rati
ĠHA DUH
ĠTim oth
Ġput hi
Ġpynsh et
Ġkynd ub
Ġkynd ung
Ġor ang
Ġor ig
ĠKhar l
Ġnot e
sia stis
Ġmy osiem
Ġdob kba
kyr men
Ġdo D
Ġdo ub
Ġsai ft
Ġ196 5
Ġ198 9
OR S
Ġsait lah
Ġmai jan
ĠLi brary
Ġbt iar
Ġkbam tam
ĠKol ej
Ġpd ok
Ġsu cc
Ġlathuh khana
ĠSar ma
Ġiad d
ĠNONG IA
Ġphyr ngab
ĠIj ip
Ġjingbym ngeit
ĠJin i
ĠJon athan
Ġjingias yr
Ġpb et
Ġjyn sur
ĠAl phabet
Ġsi oner
ĠTar iang
Ġsd ieh
wi la
ĠDam askos
Ġkyrk ait
ĠPol yc
jai h
ĠSng e
tra ctor
Ġsynt uid
Ġsm eh
ĠLu shai
km cn
ĠDu imon
tem pt
Ġsoi l
istan ce
ĠGre g
Ġkiim ba
Ġpub lic
Ġlais hah
Ġhai or
ĠUni on
Th ei
bynr icw
Ġpyrd ung
ĠThei sotti
ĠFran ce
Ġkyrt iang
ĠHin rei
Ġkhai la
ĠKYN TIEN
ĠJINGS HI
ĠBos an
Ġnongiathuh lpa
tri b
ĠBis korom
ĠJia g
byr siew
Ġphrang sngi
bis ba
Ġtyl H
Ġtyl U
Ġhynt ei
ĠNad ub
Ġthere fore
yli ung
Ġpre fix
ĠAll en
ĠMed ical
Ġknow n
ĠMarwei n
Jingkh eifi
ĠMid ian
Ġacc ount
Ġsynn iang
Mr s
Ġthn om
ĠUN K
Ġiasyr iim
Ġrym phum
Ġkhus nam
ĠThied dieng
fid ur
ĠNik odimos
Ġpyom ih
Ġhaog ne
ĠAf rica
Ġtli w
Ġtrad ition
Ġlongp iah
Ġsymph iah
ĠNongb ylla
ĠCam bodia
SL C
ĠLiter ary
ĠGer man
crip ts
ĠJingpyr shang
ĠLing uistics
Ġmynsb wa
Ġmorph eme
Ġtbai fi
Ġtis ta
ĠEksod os
Ġabo ve
CM FM
Ġbistor i
sham ok
ĠEvang elist
ĠGur don
ĠReg ister
ĠHop ewell
ĠTri bal
Ġdiksb neri
ĠLebit ik
Ġhon our
ĠArmen ia
ĠJac ob
ĠOrgan isation
ĠBapt ist
ĠPolyc arp
' "
' >
* âĢĻ,
, âĢĶ
, *âĢĻ
- âĢĶ
/ ^
B J
C f
D ecember
H ig
J m
J ar
J ud
K ur
K basi
L ai
M at
M aga
N aituh
O g
O r
P ers
S m
T ien
T IA
T uta
U A
U D
U e
W ow
a ong
b p
b la
b ul
b eih
c ri
c us
d is
d al
d uit
d oog
d una
e x
f b
f oh
f la
f en
h iaw
i A
j ra
j ii
k ng
k et
l S
l ym
l ud
l iam
m or
m oit
n um
n ien
o L
o bah
p ol
p haios
r ok
r khat
s w
s um
s et
s uit
s ary
s aifi
t un
u ii
u ence
v h
v ar
w iat
y iat
| >
â Ļ¦
Ġk lei
Ġk udi
Ġka u
Ġba ha
Ġba im
Ġba to
Ġba il
Ġba ck
Ġba lyngkot
Ġba irn
ha k
Ġl ie
Ġl iat
Ġl ymm
Ġl ian
Ġl uin
Ġl ieb
Ġki l
Ġki oi
ia f
ia ag
ia khi
ia thuhlypa
Ġs kh
Ġs ynrei
Ġs uwa
Ġs cng
Ġs ieb
Ġs wait
Ġu gi
Ġj O
Ġj e
Ġj eng
Ġj ynt
Ġj lam
Ġj ian
Ġj rut
Ġp ob
Ġp iah
Ġp iat
Ġp bab
Ġla ta
Ġla st
yn thing
Ġia ieng
Ġia thiih
Ġd ba
Ġd ti
Ġd ir
Ġd cm
Ġd iv
Ġd icn
ĠK yl
ĠK jat
ĠK ya
ĠK OR
ĠK ura
ie rn
Ġn ta
Ġn ano
Ġt ynriew
Ġt ian
Ġt mar
Ġt ure
Ġha di
Ġha sem
Ġha khmih
ai ei
Ġb ng
Ġb ukum
Ġb ua
Ġb lood
Ġjing U
Ġjing mat
Ġjing ib
Ġjing pher
Ġjing ujor
Ġjing shad
hi le
ta bat
Ġr al
Ġr ynn
Ġr nga
uh or
ar ei
ar am
Ġm ynr
Ġm ieng
Ġm ein
Ġban eh
at ba
at ha
ĠU Blei
ĠS P
ĠS S
ĠS iang
ĠS iat
ĠS ik
ĠS dang
ĠS bi
ĠS nai
Ġi C
Ġi ut
Ġi ok
Ġi to
Ġi ynti
Ġi shyrkhei
an s
Ġng u
Ġng ub
Ġkh oi
Ġkh ris
Ġkh ua
Ġkh fii
Ġkh utia
Ġkh yllad
Ġkh omlong
or ian
Ġsh tah
Ġsh era
Ġsh rup
am ai
ĠB OR
ĠB thong
Ġpyn man
Ġpyn shait
Ġsha la
Ġsha ih
ĠH ynriew
yr thei
Ġlong jot
Ġlong kynthei
ĠN ei
ĠN OH
ĠJ b
ĠJ n
ĠJ yll
ĠJ ii
ĠJ tng
Ġna ug
th l
th ynriew
em am
ĠM yl
ĠM ynr
ĠM ok
ĠM AT
eh g
ĠL n
ĠL it
ĠL ub
ĠL AI
ĠL vng
er end
er ator
un ction
ĠT ieng
ĠT AR
it g
it w
it ies
ur ther
ĠP is
ĠP to
ĠP ynt
ĠP and
ĠP dit
Ġth ing
Ġth ose
Ġw iar
is ynei
yl e
ĠI on
ĠI ra
ĠI ts
ĠI vng
Ġngi o
ad em
ad bah
Ġshi ih
Ġshi da
Ġshi pa
Ġshi wa
Ġshi ni
Ġshi ban
Ġshi rynieng
Ġshi biin
ĠD em
ĠD es
ĠD iam
ĠD ga
ĠD ymmiew
Ġh d
Ġh ynd
Ġh riew
Ġh ost
Ġh ome
ĠR eng
ĠR up
ĠKi nc
ĠKi imta
yng od
Ġsng t
Ġsng ow
Ġpat hi
kh n
kh r
kh la
Ġkyn i
Ġkyn ph
Ġkyn ian
Ġkyn pha
in am
in ik
Ġnong rit
Ġnong lut
Ġnong nm
yll ut
si ve
si cw
si der
oi y
sha sar
Ġkat juh
ti cw
ka jia
Ġphi l
id oh
Ġbr ia
ul u
ul ia
ul os
ul ler
ĠA I
ĠA T
ĠA ph
ĠA sap
Ġioh sngcw
Ġmyn wei
Ġmyn shi
Ġbar oli
Ġbar anda
Ġpyr ton
ynd ur
ud e
el vine
Ġwan lam
Ġsngew lah
Ġsngew thiang
Ġsngew thait
ip i
ĠKh u
ĠKh yn
ĠKh or
ĠKh er
Ġph e
Ġph t
Ġph ngit
ra s
Ġsa em
ĠNong wei
ĠNong deng
ĠNong rep
ĠNong sharai
ĠNong piur
ri cw
Ġa e
Ġa o
Ġa ge
Ġa hap
Ġa uxiliary
Ġ3 000
Ġnang p
Ġnang to
Ġar met
mat iong
Ġsne tn
ĠW ith
Ġjings bun
Ġjings bai
Ġjings bisha
Ġpha dar
Ġleh kmen
Ġleh rukom
Ġri baibal
ĠLa s
ĠLa shai
ĠY ear
Ġshong dor
Ġjingk ynt
ĠE nd
ĠE hasi
ĠE pap
ĠE GG
Ġhap hang
wa s
Ġum bar
Ġdang sah
Ġjingia leb
ĠC f
ĠC ap
ĠC bar
Ġjingp ynduh
li o
li ei
li uh
Ġma ia
Ġo o
Ġo ad
ĠG ad
ĠG ordon
ĠJing ma
ĠJing leh
ĠJing wan
ĠJing iaid
Ġtip kha
ir ei
ir am
ir it
il d
il ai
de sh
de ag
ĠShi sh
Ġ19 1
Ġ19 00
Ġ19 12
Ġ19 27
Ġkl ep
Ġkl ct
ĠSha r
ĠSha t
ĠSha duh
ĠSh yieng
Ġmar khmat
Ġmar amot
ĠTh iah
ĠTh up
ĠRi char
ngi it
ngew thuh
Ġim p
Ġ7 00
Ġbym gem
Ġc hi
Ġc at
Ġc hang
Ġc lass
Ġto day
Ġte og
Ġpyns tad
Ġpyns neng
Ġpyns awa
Ġbor ti
Ġsn ieb
ĠBa a
Ġdieng ph
Ġdieng pai
Ġdieng khun
Ġdieng shat
ic j
ic raft
Ġ8 43
Ġpynk ren
Ġpynk let
Ġiap ah
Ġiap ule
Ġshem pap
Ġ18 31
ĠV al
Ġbn cng
ĠMa k
ĠO Q
ĠO o
ĠO phi
ĠO ld
ĠO aro
ĠO bed
Ġsk uin
ĠTrai ning
Ġkb iew
Ġkb wai
Ġkb yndai
Ġkb law
Ġjingpyn s
Ġjingpyn shai
Ġjingpyn shoi
ĠMaw rong
ĠMaw lieh
ath oh
kor dit
Ġmaw lyngkniap
Ġmaw byrsiew
ĠNa jir
od g
Ġpa ta
Ġpa tar
ĠBar m
ĠSoh m
ymm al
tha ri
Ġde ath
ian s
re c
re y
Ġpynp ur
Ġpynp eit
Ġst e
Ġsoh riew
Ġji ne
Ġji bg
jing pyn
ĠUm eit
ĠUm ling
ct s
ram ent
ig ew
ag ing
ĠPr in
ĠPr inted
ĠPr edicate
ĠF rom
ĠF uller
ĠMe kedonia
Ġiar ung
Ġpyrsha b
Ġ14 00
Ġly oti
Ġpy il
Ġkt iar
Ġsba w
Ġsba duh
Ġsba kri
Ġlei i
Ġpynb ieit
Ġv n
Ġv ar
ngai h
Ġpal wan
Ġiak iew
Ġiak said
Ġta la
Ġta kor
ord er
Ġ15 00
Ġky h
Ġit yn
Ġtb ymmei
Ġ17 5
Ġ17 7
Ġ17 9
Ġrai fi
Ġsyr ngu
Ġjiog ia
Ġjiog rwai
ĠTang hat
Ġnam pliang
Ġg i
Ġ, .
Ġ20 7
Ġ20 10
lap alang
Ġtyr pad
Ġnob le
Ġias noh
Ġjmg hikai
Ġjmg sngew
Ki ba
ĠKam rup
kar o
Ġpr ov
Ġpr inted
Ġkhat dub
Ġjingkh mih
Ġship lin
Ġjingpyr sad
ks ai
Ġtr eng
Ġkynt ur
Ġjai S
Ġjai f
ust om
ĠAss oc
ĠNo ag
jong ka
Ġher e
ĠBA R
Ġbeh mrad
Ġre f
Ġy i
Ġjah burom
Ġlym ph
ĠRev erend
Ġpait puraw
Ġhyn hiew
Ġhad icn
ĠAr ja
Ġkajing iadei
Ġkynth ong
Ġli nen
Ġdum an
Ġdum buit
Ġmo ina
Ġryn sieh
kt ieh
ĠLait lyngkot
Ġjingl eb
ĠRam dait
Ġpynl eng
ĠKyn tien
ĠRoy al
Ġtap moh
ĠJud a
Ġnongk ylla
ĠTiew kulab
Ġiew bih
ĠRober ta
Ġra yn
ĠAn y
lan o
Ġbe gin
Ġbe sili
ell ow
ĠJING J
est ry
** ,
ĠMat hi
Ġthan da
lyng sk
ĠDieng dob
Ġbyr saw
Ġbyr sit
Ġbyr ngia
ĠAm jad
ĠAm alek
tt t
Ġnongsh et
rat e
ek shon
Ġsap ra
Ġjain spong
Ġart y
Ġpap a
Ġpap er
kb ie
ĠShain a
ĠMynt eng
Ġkj or
Ġraid am
ĠDab or
Ġbab ud
Ġsuh thied
Ġshang khawiah
ĠSyn juk
ĠNongs pung
Ġsl ip
Ġkhyll iap
AI D
Ġ/ .
ff er
Ġle ar
Ġle an
pe j
ron t
usi ness
Ġkhyr met
Ġkynd iap
Ġsuit wai
ĠHeb ron
BA D
Ġjyr sieh
ĠBat ai
ĠSyr tap
ĠBor jod
Ġpynshai ong
Ġ60 8
Ġcon tact
Ġaha phang
Ġsai S
Ġsad hai
Ġ196 2
ĠJeho iakhi
Ġkhap ngiah
ĠRa j
ĠComm is
Nam pliang
ĠSer vice
ĠGo shen
ĠNam sarang
Ġiat ylli
ĠHom e
ĠHom i
ĠPo et
aa a
Ġsu ih
ĠCon stan
ĠCon ference
ĠNONG P
int ing
Ġ44 4
Ġjingbym kohnguh
ĠNongt em
Ġmyr lem
Ġmyr lah
Ġmyr jah
me o
Ġkiw oi
ĠJingpyn bynta
Ġ45 7
oli c
ĠRym nong
ĠAl pha
ĠAl phaios
ĠSi ta
Ġso da
Ġryng wiang
end ro
Ġbei ng
Ġbei fl
ĠKham bun
Ġlit tle
ring ton
khai os
Ġnongap langbrot
Ġpyrth d
ĠMyr lem
Ġ187 0
myn saw
sam thiah
ĠRiew stad
ĠSang ka
ĠSngew synei
pl ied
ĠBir bah
ĠRe uben
pu jari
Ġsngcw thuh
Ġry og
tieh jer
ĠMal ai
ymg ah
Ġkhei fl
Ġkhei ft
nl ow
ĠMas ulman
ĠRyngk oh
ĠJam es
ĠKyll um
ĠHe alth
Ġbadon burom
ĠMem orial
Ġpul pit
ĠKynd eh
ĠAnd rew
Ġ188 7
ĠOf fice
Ġkura ta
ĠZ e
Ġmang i
ĠPam lat
ĠKur im
Ġkutn ne
Ġmg iew
Ġpyntha me
lh ei
we en
Ġ199 8
ĠBos s
Ġkuni no
ĠDA K
ĠDo or
Soh seng
ĠBis ei
uni or
ĠBala og
Ġsian ti
khyr dop
Eph esos
Ġjit tg
ĠKal eb
Ġsani um
ĠlU tab
old en
Ġshn iah
Nai wieng
ĠKap emam
Ġmus ul
Ġmynh ynnin
ĠCitizen s
ĠKhara kor
wal lam
ĠNad ien
Ġke ep
Ġfii uh
Ġiapyr shang
Ġnad nh
Ġlehrai fl
Ġbal ci
Ġjingsy ier
ĠScot land
Ġny og
ĠiQ m
pas iaw
YLL I
ymb uin
ĠNgap kynta
ĠDen z
Ġmau bah
Ġjaitby ariew
Ġrymm iang
ryng hep
ĠUs saiah
Ġshno og
Ġjaitbynr icw
Ġcol lege
Ġson net
Ġpyom ib
ĠSon net
ĠMn ken
Ġbapaw nam
Kan aan
ĠME GHA
ĠDel hi
ĠWor ld
ĠSna kon
ĠPuk ri
ĠAk wila
got ha
Ġpoit tri
Ġdkh ew
Ġfiiang thoh
ĠSA JER
ĠJum la
Ġcoun ter
Ġrak om
Ġkynk iak
raph ew
ĠSD B
ĠTieh pongdeng
Ġjingtr ci
ĠJINGR WAI
ĠHil kaiah
ĠNasar eth
ĠNongth yrlong
ĠChand ra
EK T
ĠSv iem
ĠBrow nlow
ĠThap bawa
Ġsngewleh rain
ĠAntio khos
Ġbapa ka
ĠJust man
Ġpynkhyll em
Ġrequ est
lymb oit
ĠTig ris
Ġriewdon burom
evel opment
ĠBudd ha
ĠDeuteron omi
Ġbus kit
Ġraw on
Ġphn ieng
ceed ing
ĠBAI BL
ĠKeng nap
Ġmember s
ĠPlat o
Ġoffic ial
ĠPhry gia
Ġsymg iew
ĠMorde kai
ĠJaly eit
Ġhost el
elvine ll
ĠEpap h
lyngsk aw
ĠBorjod hon
ĠMEGHA LAYA
! .
' âĢĻ.
) Â»
- ~
; ,
A w
A ng
B M
B g
B iew
D E
D i
D ent
D ON
E J
I C
I t
J t
J it
J in
K al
K ylla
K las
L um
L eit
L ait
L ber
L IA
M AW
N ang
N iang
P leng
P rob
R es
R IA
R EP
S ia
S ot
S huh
T am
U J
U h
U ai
U on
^ ;
a c
a ei
a ai
a la
a sh
a og
a cy
b w
b il
b teng
b our
c ong
c is
c om
e ag
g p
h V
h d
i x
i la
j y
j mg
j aifi
k ik
k yllon
m ing
m em
m ir
n om
n ieu
o D
o ang
o iew
o ih
p w
p uk
p ly
q h
q p
r d
r g
r l
r id
r op
r uid
r ied
r uit
r cn
r ymbai
s yntiew
s ngap
t la
u ei
u ing
u ar
v iii
v ement
w oi
y ing
y ang
y ii
| .
â Ĥ¬
Ġ #
Ġ os
Ġk la
Ġk oi
Ġk ra
Ġk dong
Ġk ylh
Ġk flia
Ġk ymgah
Ġka ai
Ġka rn
Ġka por
ba lei
ba sia
Ġba ti
Ġba sh
Ġba tal
Ġl ii
Ġl ev
Ġl ow
ia jer
ia iig
Ġs M
Ġs f
Ġs icn
Ġs uifi
Ġu ha
Ġj ic
Ġj awa
Ġj rain
Ġj png
Ġp m
Ġp t
Ġp ia
Ġp rai
Ġp ni
Ġp rem
Ġp nar
Ġp jah
Ġp ej
Ġla ia
Ġla nujor
yn sbar
Ġia tai
Ġd ut
Ġd in
Ġd kai
Ġd khi
Ġd iing
Ġd cp
Ġd pn
ĠK M
ĠK nia
ĠK fl
ĠK sih
ĠK UR
ĠK ulai
Ġn yr
Ġn ok
Ġn il
Ġn oiig
Ġt s
Ġt ri
Ġt as
Ġt il
Ġt ch
Ġt lem
Ġt ell
Ġt ynrong
ai u
ai ned
Ġbad onkam
Ġb ot
Ġb ip
Ġb ch
Ġb ft
Ġb ea
Ġb law
Ġb lab
Ġb ull
Ġjing ang
Ġjing ii
Ġjing lam
Ġjing rem
Ġjing wit
Ġjing risa
ta ck
Ġr ut
Ġr ynd
Ġr ein
Ġr ed
Ġr ui
Ġr ian
Ġr hai
Ġr ev
Ġr hah
Ġr ngat
Ġr ashi
ar ang
ar ding
Ġm od
Ġm ish
Ġm ig
Ġm ss
Ġm iw
Ġban i
at er
at ur
at ip
at ic
ĠU D
ĠU r
ĠS K
ĠS ien
ĠS kai
ĠS LA
ĠS ee
ĠS cript
ĠS odom
Ġi J
Ġi S
Ġi y
Ġi op
Ġi shong
an ah
Ġng ia
Ġng ar
Ġng uk
Ġkh e
Ġkh ul
Ġkh mi
or ts
or ies
ĠKa lat
Ġ( '
Ġ( .
ĠB rai
Ġpyn ni
Ġpyn jan
Ġpyn tb
Ġpyn pher
Ġpyn ngam
Ġpyn lamwir
Ġda ka
Ġda lade
Ġsha rat
ĠH un
ĠH ic
ĠH ill
yr shang
Ġlong ing
Ġlong ka
Ġlong san
Ġlong rangbah
Ġlong ryn
Ġlong rta
Ġlong bnew
ĠN eng
ĠN ations
ĠJ O
ĠJ S
ĠJ y
ĠJ un
Ġna b
Ġna kra
th or
th rang
em at
ĠM vn
ĠL im
ĠL amar
ĠL and
ĠL ine
ĠL EH
ĠL YNG
ĠL ieut
ĠL idia
er t
ĠT har
ĠT hai
it m
it ynnat
ur y
ĠP ei
ĠP yng
ĠP ab
ĠP eij
ĠP leng
aw bei
Ġth lia
Ġw aifi
ĠI i
ĠI ba
ĠI am
ĠI la
ĠI mg
ĠI ss
ĠI cm
ĠI cng
ĠI hoh
ot t
ad i
ĠD im
ĠD khi
ĠD eterminer
ĠD haka
om en
Ġh ier
Ġh vn
ĠR ing
ĠR eh
ĠR eb
ĠR ngai
ĠR yndang
ĠR UH
al y
al ly
ih ia
ih un
Ġdei n
kh y
kh ien
kh ung
kh riat
no d
Ġnong hi
Ġnong ban
Ġnong thung
Ġnong dih
yll ie
yll en
Ġkane ka
si de
sha b
sha w
sha no
sha ra
Ġkat ha
ti ce
ka k
ka s
id on
id an
Ġbr ip
Ġbr ik
ul ong
ĠA de
ĠA son
ĠA cc
kha ia
Ġne ar
Ġmyn a
Ġmyn tor
Ġmyn shem
Ġbar um
Ġpyr a
ĠKha p
âĢĿ (
Ġhi st
ok i
Ġsngew l
Ġsngew khia
Ġsngew sib
ĠKh riang
Ġph um
Ġph ct
Ġph ngain
os ing
os ed
ĠNong ri
Ġkyr ieng
Ġkyr bai
Ġkyr shah
ri ch
Ġa ta
ph ie
ph iah
Ġ3 11
Ġ3 13
og h
og ta
iar g
Ġnang jur
Ġar ta
ĠW aw
ĠW et
ĠW AH
ĠW ords
op i
op o
Ġjings ong
Ġjings eng
ĠY M
ĠY ar
Ġtha ia
Ġshong hok
Ġshong sbai
Ġjingk am
Ġjingk yndit
ĠE nok
wa y
as an
Ġjingia d
Ġjingia t
Ġjingia tbuh
Ġjingia khleh
Ġjingia kajia
ĠC opy
Ġjingp ynroi
Ġbha i
ynt iat
li l
li ght
Ġma ki
ĠG id
ĠG ide
ĠJing kyn
ĠJing khein
Ġf o
Ġf oh
Ġf oot
il ang
Ġkumba n
ol in
rei fi
Ġ' "
Ġ' âĢ¢
ĠShi bun
Ġ19 48
Ġkl iaw
ab s
ĠSha l
Ġmar syndah
ĠTh wei
ĠTh ung
Ġks baid
Ġbuh nud
Ġthe ology
Ġhang tei
Ġim por
Ġ7 48
Ġdoh oud
ĠâĢĻ *
Ġlyng ngeit
Ġbym ngeit
Ġc op
ik ar
Ġpyns oh
Ġpyns uh
Ġpyns yriem
Ġpyns ting
Ġman ia
Ġbor obor
ĠBa ba
Ġdieng san
Ġjingt tei
lor e
ic k
sa iab
eb ion
Ġpynk ohnguh
Ġpynk hib
19 10
19 41
19 38
Ġof f
Ġsaw ar
NG I
Ġjingmut dur
Ġiap hai
Ġ18 30
Ġ18 54
ch em
ch ee
ĠV L
ĠV illages
Ġbn oh
ĠMar ang
ĠMar tin
one d
ĠMa ba
Ġriew thma
Ġriew said
ĠO m
ĠO me
ĠO wen
Ġsk er
Ġlap yn
Ġlap bah
Ġbah er
ki la
Ġkb l
Ġkb on
Ġkb ein
Ġin t
Ġin ynsiem
Ġin fin
Ġsam r
Ġsam ia
Ġsam hoi
ĠMaw mih
st ew
Ġshis ur
ni g
ni um
Ġshit bi
iap om
ĠId on
Ġpa kha
Ġlait lan
ĠSoh kh
iet nam
Ġjingj ur
ish ed
Â« .
Â« ^
Ġpynp ule
Ġthaw lang
Ġst ein
Ġst rong
Ġsoh m
ent ly
ĠUm ph
ĠUm bloi
ĠYa lap
Ġmet er
ĠBah ok
Ġkur ano
ag ement
ĠPr ep
ĠPr ov
ĠPr otestant
mg doh
ĠF OR
ion s
ĠMan ai
ĠMan ang
Ġly o
Ġpy ap
nd ep
Ġkt n
Ġsba ba
Ġwah diang
Ġwah rit
bi w
ĠDa cca
ĠâĢ¢ âĢ¢âĢ¢
Ġv is
Ġv vat
Ġtyng shaifi
Ġii iew
Ġiak ylli
Ġiak nieh
ord in
fl uence
Ġky at
Ġtb e
soh moh
Ġpynkh eih
Ġ17 3
Ġ17 4
Ġrai j
Ġrai l
Ġkhi nat
ĠMyn sngi
Ng im
Ġjiog sngew
Ġjiog pyr
Ġsy or
Ġdu basia
Ġtyr siang
ĠKba na
Ġkai ie
Ġjmg rwai
Ġnongp yntngen
Ki tab
Ġing khong
kar n
Ġ22 2
Ġpr ie
Ġ" '
Ġkhat saw
Ġno ug
Ġpynr an
Ġis ait
Ġlyngk ba
Ġbit or
ĠHat i
ĠHat es
ĠSt e
ĠSt ory
di ei
Ġjingtrei kam
ĠBA H
ĠSaw kur
IE U
Ġat tempt
Ġpynj ia
Ġpynj ur
Ġpait san
Ġhyn id
ĠAr ch
ĠAr una
Ġkynth et
ĠNongk yllep
Ġsyn fiia
Ġsyn fiiang
Ġmo o
Ġryn iot
kt hang
ĠLait soh
ĠLait ksan
ĠLait lyngka
Ġjingl ch
Ġby in
Ġby ata
Ġby terian
ĠRam ak
ĠJI NO
ĠKyn san
Ġrang samla
ĠHynniew trep
Ġnongk yr
ĠIn formation
ĠIn spector
pha og
Ġjingm ynjur
Ġni ih
Ġra ynta
Ġra ynsiem
Ġiam ai
ĠJING LA
ĠMat ta
ĠMat baios
kat no
Ġnongs aid
ĠKH L
ĠKH YNN
ĠKH MAT
Ġbyr ngut
Ġkhaw eit
tt r
ĠSah n
Ġal hia
Ġlaw daija
Ġjain kup
Ġkaw iat
ĠKan a
Ġnongb eh
Ġnongb ylla
Ġkhoh ram
Ġtam sneng
Ġtam asa
Ġbyn men
Ġbyn shet
kb iew
Ġkm n
ĠMynt du
Ġsin ce
ĠKl iar
.âĢĻ âĢĻ
ĠSait soh
Ġlew rynghep
Ġphew se
ead er
Ġlyngkha i
Ġshet ja
ĠTaw ang
ial ok
ĠSy ic
ĠKit e
Ġkhyll em
Ġpynt ngit
EI N
Ġx ii
ĠKhong pong
ĠAssam ia
Ġpud ka
Ġniew tang
Ġhe art
Ġsar o
ff at
Ġog in
La shai
phi ra
siew spah
Ġpas iang
ĠKhar mih
erb ih
Ġkun ai
Ġkhad san
Ġbaj wat
Ġmin d
Ġmin ing
Ġmin ister
ĠHyn hiew
ĠWan phet
ĠWan khmah
ĠBor manik
Ġcon tin
Ġcon sider
ria ge
Ġ196 8
Ġ196 9
ĠJeho shaphat
Ġkhap nap
Ġ189 2
ĠRa sh
ĠPal at
ĠPal es
ĠComm ission
yngng or
Ġiat yngkhuh
Ġbt iew
lyngk not
ĠPo em
Ġsu war
ĠJos iah
Ġpei phang
Ġshyr a
isha n
Ġphyr ngap
ĠMai rom
Ġkei il
ĠMyll ep
Ġran ap
Ġjingias noh
ER N
Ġjaw dud
Ġab out
ĠBl oi
Ġlia ba
Ġbynr el
ĠTar ap
Ġkal ain
Ġsd er
ĠJingia thuhlypa
Ġ195 7
IS HAR
ĠLaw kyntang
ĠPur im
pb ra
pb ob
ĠMyr miet
ĠLat uba
ĠPas sah
ĠMo ffat
ĠRiew ngeit
198 7
ĠXX V
Sh eila
ĠJingk oit
ĠSngew sih
Ġen c
Ġbo th
Ġbo eng
ĠLu ther
ĠSHA PHANG
Ġry ot
ĠSad hu
ĠSim pyllieng
ĠKy oh
Ġjylli cw
ĠNor mal
Ġkiim ne
Ġkhei ii
Ġrud nong
ĠMas s
Ġwor ld
Ġbl ci
illa ge
ĠXI X
ĠRyn jah
ĠSynr iang
Ġmyns lem
Ġmu shlia
79 300
ĠNA M
ĠSba phang
Ġkhlai ii
Ġkhlai fl
Lyn nong
Ġkyrs ban
ĠZ ein
Ġlor ni
Ġtab la
ĠShyr tong
YM MEN
Ġkutn ba
ĠHin ts
ĠOnd erson
Ġbyll ud
ĠJINGS NENG
Ġkhy od
ĠMala cca
Ġtran sl
ES S
Ġev ery
Ġkol shor
ĠHor kit
ĠRyng ngi
,âĢĻ '
Ġbrie f
Ġbrie vv
Sait soh
Ġpym aid
hei m
sc ar
ĠJingp yndonkam
wn om
ĠKon rai
Ġten s
Ġshyng iar
Ġco om
Ġjingtb mu
ple x
tyng ang
ĠSO C
BR IEU
Ġnaog ta
ĠDai rektor
bed ded
ĠMYN TA
Ġlynt l
Ġnom bar
ĠMam a
ĠLyngk ien
ĠShiliang raid
ĠShynr it
ĠShynr ono
Ġcan not
Ġxv ii
Ġrus om
ĠShe ba
Ġtynr ah
Ġliter ary
iathuh khana
Ġtuk ra
Ġword s
Ġtung rymbai
ĠSak rament
Ġshngai fi
ĠMawp roh
Ġjingman bha
Ġmil lion
ele g
ĠJub ili
ĠTib et
ĠDul ong
Ġpynkyr pang
Noh wet
ĠJes eph
Ġpri ce
ĠSymp er
ĠMethod ists
Jan uary
med iate
ĠpynT ap
ĠRel igion
Ġhapd cng
ĠMod erator
Ġnongm una
ĠEk ie
ĠMahad ci
Ġlymb ub
ĠPhet mung
Ġbais ngi
ĠRil um
ĠShit bi
ĠMag og
Ġiash rut
ĠJot ham
RS HI
ĠBran ch
Ġjingsei soh
Ġpynbyr ngia
Ġbakyn ja
Ġcharact er
ĠRow land
Ġpaj wa
ULA R
ĠEar le
ĠJaih tia
Ġsoc iety
Ġmit hai
ĠSuid nia
ĠAB K
Ġkyot ien
Ġjid g
ĠKka si
ĠSynn ei
ĠTre asurer
ĠMib ngi
ĠCath olic
Ġjingiatain ia
ĠCir cle
ĠKatb olik
ĠLebitik os
Ġkynpha d
Ġnonglut e
ĠLas ubon
Ġnyog kong
ĠKalat ek
Ġbrik wai
ĠGide on
ĠOme ga
ĠPhetmung or
' :
* Â«
, !
- <
7 21
8 50
> ,
> -
? "
? ,
A g
A l
A IT
B ia
B un
B eth
D oh
D ONG
D rama
E s
E sra
E kl
H u
H er
I i
I mat
I ON
J e
K S
K AI
K OR
K OT
K UT
K mei
L U
L Y
L i
L am
L UM
L EH
M f
M IH
N ONG
P I
P ha
P at
P om
R ef
R oy
S A
S im
S ngi
S ynshar
S ynrai
S amaria
T rai
T lang
T hain
U ong
V l
W W
W ai
W ang
W ah
\ \
b s
b uk
b ub
b li
b iej
b oit
b lah
b uli
c ol
c ni
d ri
d iar
d es
d le
d awa
e shor
f ng
f iew
g m
g w
g ar
g ra
g re
h ew
h ti
i ie
i iang
j k
j p
j s
j oit
j oag
k ym
k si
k long
k iar
k ui
k ylliang
k udi
l Q
l w
l is
l ep
l long
l iar
l ian
m p
m am
m un
m cn
m uka
m ikar
o ong
o ar
p la
p bi
p ers
p isa
p ort
q ng
r m
r or
r ieu
r wiang
s L
s ta
s ian
s ug
s ima
s cm
s ner
s tal
s ogew
t k
t iang
t lem
t ngen
t ron
t yllaw
u ne
u er
u ist
v lla
w eh
w thuh
x v
x ic
y f
y h
Ġ ait
Ġk L
Ġk en
Ġk tab
Ġk uli
Ġk deu
ng cn
Ġka k
Ġka el
Ġka ja
Ġka hap
ba a
ba ni
ba ll
Ġba c
Ġba mih
Ġba shong
Ġba phylla
Ġba shlei
Ġba sting
ha no
Ġl d
Ġl uri
Ġl ura
Ġl era
Ġki h
Ġki k
Ġki ak
Ġki bi
Ġki bu
Ġki be
ia U
ia o
ia ii
Ġs ie
Ġs isa
Ġs uti
Ġs cene
Ġs ign
Ġu in
Ġu da
Ġu bi
ong nai
Ġj ynr
Ġj im
Ġj one
Ġj nang
Ġj ler
Ġj ngem
Ġj ogai
Ġp c
Ġp yl
Ġp ien
Ġp ab
Ġp br
Ġp ban
Ġp gi
ei r
ei ig
Ġia ngi
Ġia bun
Ġia nia
Ġia tb
Ġia thaw
Ġia biria
Ġia ladc
Ġd f
Ġd har
Ġd ist
Ġd nr
ĠK L
ĠK O
ĠK U
ĠK bar
ĠK oit
ĠK ara
ĠK mei
ĠK issor
ĠK lement
ĠK YLLA
Ġn r
Ġn ie
Ġn wei
Ġn oi
Ġn iaw
Ġn ion
Ġt ut
Ġt ob
Ġt ynda
Ġt bang
Ġt ohi
Ġt mai
Ġt Ca
Ġt old
Ġt reat
Ġt yllaw
Ġb v
Ġb ul
Ġb ynt
Ġb tai
Ġb est
Ġb usiness
oh g
Ġjing rai
Ġjing pa
Ġjing bieij
hi d
hi l
Ġr r
Ġr v
Ġr uti
Ġr lew
ar ia
ar ian
Ġm t
Ġm ed
Ġm ieij
ĠU h
ĠU fa
ĠS el
ĠS aid
ĠS fa
ĠS rom
ĠS ynrang
ĠS AW
ĠS YM
ĠS AH
ĠS ING
on om
Ġi x
Ġi um
Ġi la
Ġi il
Ġi kwah
Ġi Ca
an na
Ġng j
Ġng em
Ġng it
um ba
um mat
Ġkh U
Ġkh ien
Ġkh up
or n
Ġjong U
Ġsh c
Ġsh f
Ġsh ur
Ġsh ieh
Ġsh oo
Ġsh ruh
ĠKa li
am on
am en
ĠB t
ĠB y
ĠB la
ĠB it
ĠB in
ĠB ok
ĠB ynriew
ĠB lai
ĠB oun
Ġpyn a
Ġpyn ang
Ġpyn ih
Ġpyn in
Ġpyn pa
Ġpyn thoh
Ġpyn thih
Ġda dien
ĠH d
ĠH ah
ĠH ur
ĠH ung
ĠH ynt
ĠH ig
ĠH ow
ĠH YN
ĠH YNN
ĠH OK
ĠH IST
yr shah
Ġlong sb
Ġlong bru
Ġlong kni
ĠN c
ĠN ath
ĠJ V
ĠJ j
ĠJ oh
ĠJ yng
ĠJ ep
ĠJ eb
ĠJ yntang
ĠJ hep
ĠJ unior
Ġna l
Ġna neng
th ur
Ġkum ka
ĠM U
ĠM om
ĠM ud
ĠM uij
ĠM isteri
ew a
ĠL X
ĠL in
ĠL ung
ĠL YN
ĠL lan
er ial
un ai
ĠT K
ĠT amar
ĠT ymp
ĠT ikir
it is
it om
ur ei
ĠP l
ĠP eh
ĠP en
ĠP aw
ĠP diang
ĠP OR
ĠP AR
ĠP ekah
ym en
ym ih
Ġdon blei
Ġdon kara
Ġth ur
Ġth ou
Ġth yllah
Ġw o
Ġw ut
Ġw ap
Ġw ish
ut ure
ĠI dei
ĠI wet
ĠI kon
ot le
ynr ad
Ġshi j
Ġshi jot
Ġshi lak
ĠD h
ĠD iang
ĠD ud
ĠD ec
ĠD ept
ĠD iph
ĠD iv
ĠD isi
ĠD evelopment
Ġh g
Ġh ym
Ġh ot
Ġh op
Ġh ylla
ĠR ynta
ĠR ymp
ĠR them
ĠR ngin
ĠKi jing
Ġsng evv
kh ian
kh ublei
kh yndew
Ġkyn thi
Ġkyn deu
no i
no p
in ts
in bur
Ġnong kynti
yll iat
ĠHa jom
Ġkha rn
Ġkha ngai
Ġkat oo
ti o
ti ch
Ġ2 19
Ġphi los
lei j
ul c
Ġkam ar
Ġkam ut
et or
et re
ĠA w
ĠA ar
ĠA re
ĠA khan
ĠA khaia
Ġ: âĢ¢
kha h
Ġioh nong
Ġbar i
Ġbar n
Ġbar em
Ġbar adbah
Ġpyr tei
Ġpyr jong
ĠKha in
ĠKha st
ĠKha rum
Ġhi gh
Ġai buit
el ley
sh ot
sh iah
Ġsngew s
Ġsngew mat
Ġsngew donkam
ĠKh ri
Ġph na
Ġph raphew
ĠBlei n
ĠNong r
ĠNong dih
Ġkyr bei
Ġkyr that
ri i
ri ck
nong rim
Ġa ing
Ġa aw
na b
na si
na kl
ph rey
Ġnang mih
Ġnang leit
Ġnang thie
Ġnang kiew
mat lah
Ġkhl era
Ġkhl etn
ĠâĢĺ "
ĠW o
ĠW ell
ĠW AN
ĠW riah
ĠW CMFM
op a
Ġjings at
Ġjings op
Ġjings liang
Ġjings ogew
Ġpha li
Ġleh bei
rai fl
Ġ* .
Ġ* âĢ¢
es er
Ġri bais
ĠY am
ĠY ada
ĠY ND
pa ct
Ġshong shnong
Ġshong skul
Ġjingk ynr
Ġjingk up
Ġjingk thang
Ġjingk flia
ĠE le
wa o
as aiah
Ġum soh
Ġum thu
Ġjingia suk
Ġjingia dd
ĠC ot
ĠC hah
ĠC ultural
ĠC ourt
to o
Ġjingp isa
Ġjingp yi
Ġjingp hah
ynt em
Ġma ke
Ġo yngkong
ĠG r
ĠG ri
ĠG og
ĠG oog
ĠJing iat
ĠJing batai
ĠJing jia
ĠJing roi
ĠJing khang
ĠJing kynmaw
Ġtip kur
ris on
Ġf uh
Ġf in
Ġf urther
il s
il iew
il le
il and
ol ia
us tice
ĠShi kyntien
Ġ19 16
Ġ19 18
Ġ19 17
Ġ19 23
Ġ19 44
mih pat
ab on
ĠSha neng
Ġmar mlien
ĠTh on
ĠTh om
ĠRi war
Ġpar am
Ġlyn shop
doh kha
doh maw
Ġsah ti
Ġsah ngeh
Ġdoh tham
Ġbym juk
Ġto wards
Ġlang rai
ik al
Ġpyns yn
Ġpyns ak
Ġpyns yrwa
Ġpyns bong
Ġman bnew
Ġsn ing
Ġsn ai
Ġsn ah
Ġsn ein
Ġdieng ngai
Ka Pyrthei
Ġtar e
lor i
ed ar
sa o
Ġsb lei
Ġsb et
Ġkhn ap
Ġkhn iat
Ġpynk yn
Ġpynk ie
Ġshim por
tab le
NG A
Ġiing byndi
Ġ? "
Ġ? âĢĻ
Ġiap an
Ġ18 1
Ġ18 10
Ġ18 36
Ġ18 37
ĠV ing
ĠV ohi
ĠV aleh
ĠV nda
ĠV ernacular
ĠV ietnam
Ġbn n
Ġbat uid
ĠMar ia
ĠMa c
ĠMa u
ĠMa jar
ĠMa ya
ĠMa jor
Ġriew pyrkhat
Ġriew spab
ĠO ra
ĠO khar
ĠO scar
Ġme thod
Ġkb yr
Ġkb ep
Ġkb rei
Ġkb lad
Ġkb mib
Ġjingpyn k
Ġjingpyn kyntang
Ġjingpyn bna
Ġsam mut
ĠMaw don
ĠMaw shalai
ĠMaw tyngang
le j
Ġshis nieh
Ġshis ncm
iaw moit
kor bar
shi liang
Ġmaw ria
ĠNa aman
od u
br et
Ġpa u
Ġpa ia
Ġpa iat
Ġpa khuh
ĠBar a
ĠBar pujari
ban d
ĠPhi ll
Ġkd cw
Ġkit ram
ĠSoh phoh
Ġjingj ar
Ġde c
Ġde j
Ġde vel
re sh
re nel
Ġpynp halang
ist ry
Ġsoh fl
Ġji o
Ġji jig
jing im
jing rwai
Ġiaid kai
ĠUm saw
ĠUm jer
ĠUm pli
ĠUm khrah
ĠUm pohliew
ĠUm ngei
ram eter
ib on
ib nai
pyn long
pyn bynta
pyn kylla
ĠPr og
ĠPr ade
Ġjingd u
Ġjingd iang
ĠF u
ĠF rench
Ġiar ob
thi r
ĠMan a
ĠMan us
ĠMan ahem
Ġly huh
Ġpy f
Ġpy ot
Ġpy ob
Ġpy op
Ġpy ak
Ġkt en
Ġlei lei
Ġpynb ymg
Ġpynb uaid
Ġv m
nia b
Ġbak men
Ġsat or
Ġlam phang
Ġdep osit
Ġpal e
ĠJer u
ĠHad es
Ġshad kmen
Ġiak ynd
Ġiak op
Ġta khuh
Ġta xi
ĠPyr that
ĠPyr lun
Ġky a
Ġky ii
Ġit riem
Ġtb ei
Ġtb ik
Ġtb ylliej
ĠShil oh
Ġpynkh yn
Ġpynkh ie
Ġpynkh reb
Ġkp anah
Ġjan or
Ġrai h
Ġjin s
ĠMyn s
ĠMyn sicm
Ġkyrp on
Ġjiog thoh
Ġjiog leh
Ġjiog sb
Ġjiog iadei
ĠTang muri
Ġsy ang
Ġg hat
Ġ20 2
Ġtyr ha
Ġtyr sem
Ġtyr khang
Ġpl ii
Ġias ong
ĠPha dri
Ġjingi thubpaw
ĠKba ai
Ġmat ter
Ġjmg ngeit
Ġpr ess
Ġ" âĢĺ
Ġkhat e
nar a
Ġnongia siat
ks aid
Ġno on
Ġtr al
mu in
Ġpynr iew
Ġpynr iam
Ġjai ii
Ġrong phong
Ġlyngk dop
Ġlyngk not
ĠHat eng
Ġbas ah
Ġbas niu
oso pher
Ġpan kwah
Ġem bedded
fa uh
ĠLum kyr
18 41
Ġ24 7
ĠSaw kher
ĠPyn paw
ĠPyn sin
ĠDur wan
IE H
khi m
khi kos
ĠBai sk
ers is
ers ity
Ġlym ban
Ġpait dohnud
Ġjingsh lur
kyn ja
ĠKor ester
Ġsynr elt
ĠPh y
ĠPh on
ĠPh nin
Ġhad ten
ĠAr sut
ĠAr khel
ĠAr thur
Ġad e
Ġkajing mut
Ġjur ip
Ġloan is
Ġjingleh raih
Ġjingl en
Ġjingl ui
Ġby tn
Ġ) :
Ġpur amit
Ġfi le
ĠLong san
ĠLong kur
ĠKyn ti
ĠKyn shi
Ġbap ura
Ġbang no
hap s
te er
oc g
Ġan other
ĠIn struction
Ġjingm ad
Ġni yn
Ġra ar
ĠAn nam
ĠJING IM
ĠJING TIP
Ġmei kha
Ġpo or
Ġpo wa
kat n
kat ba
Ġnongs or
lyng khot
ĠKH RAW
ĠAm asaiah
TA NG
ugh ter
ĠWah iajer
Ġpynm i
ĠÂ ¥
Ġbs ei
Ġart nga
Ġmam e
Ġtam sa
Ġbyn na
Ġbyn hei
ĠKs eh
ĠAb ele
LA I
LA P
ail en
ĠCom plex
Ġ0 3
kb ei
ran o
ĠShain im
Ġot sher
Ġjingph iah
Ġkhang lad
Ġ193 9
Ġdong musa
ĠTa ka
ĠBi lei
ĠIm ba
ĠKl os
ember ton
Ġdew ksang
Ġâ Ĥ¬
pt ieng
ĠLam phrang
Ġsl u
Ġsenten ce
Ġpynt nih
ĠKb ong
Ġku iar
Ġtan i
ĠSk ain
ĠKhong jin
ĠJak rem
pyr ta
ĠJeh oa
ther n
Ġkynj ih
ĠHA BA
ĠMark et
usi c
athuh khana
ĠGe th
ĠSal omi
ĠBun yan
Ġjo Qg
phi lia
Ġpas tor
ĠHeb rew
ĠEd wards
ĠEd inbur
ĠEd renel
Ġjyr mi
Ġjyr thang
ĠBat ch
ĠSyr wet
ĠSyr ngu
ĠHyn mew
Ġmy p
ĠWan shong
cr nakl
Ġcon federacy
Ġcon cer
kyr pad
Ġsai khum
Ġsai fidur
Ġml on
Ġlen siar
Ġ189 0
ĠPan jab
ĠRa og
Ġ198 7
ĠPal ei
OR I
Ġjingiaid wir
Nam rong
Ġiaka jia
Ġbt iap
lyngk i
Ġdait thah
vel y
Ġ\ \
ĠWal ter
Ġshyr wat
ĠCon tractor
Ġiad ci
ĠLy ba
int endent
Ġklong snam
ĠNongt baw
ĠNongt luh
Ġkli un
Ġkli ot
Ġnat nar
ER S
Ġpb lang
Ġab ong
Ġab ol
ĠEl im
Ġjyn thoh
ĠTar ang
ĠSi tar
Ġryng kap
RA N
end ence
EN T
Ġ195 1
sy un
sy ch
Ġkyrk ieb
gh te
ĠSab ep
Ġnoog pule
Ġ187 4
Ġ187 8
Ġ187 9
yo ta
yo jar
Sh uwa
Ġsm er
195 4
ĠEs say
ond ro
ĠDew anji
Ġen jo
AN O
km eii
Ġib ein
Ġft iew
Ġ200 5
kon a
Ġsuin bneng
ĠKy pros
ĠJap ung
ĠMal ki
Ġed itor
ĠSai ong
Ġkiim ta
Ġlais pah
ĠIS O
Ġro ot
Ġpad un
ĠTab crnakl
Ġpyo long
ĠKsan bin
Namar kata
ĠTH E
ĠSynr em
Ġiuh kjat
ĠHo shia
ĠGat phob
Ġshap liang
Ġjak poh
jin oma
ĠKhn stan
Ġpe la
Ġkyi uh
Ġkyi li
ĠBon heim
Ġpol o
ĠAnd riw
Ġpass ed
ĠPad an
ĠXV II
Ġmang kariang
ĠPam phan
ĠPam philia
ĠShyr wat
ĠYap her
Ġsogew thuh
Ġsnge W
Ġbakh lain
Ġkhra u
ĠLym ne
Ġmynsi im
Ġkab d
Ġsyngk en
ĠPhan kon
Ġsli ong
Ġiath nh
Ġev er
ĠJINGK YN
Ġkuin ba
Ġwrit ings
fli uh
kr id
Ġhiew kor
Ġtal en
Ġiathub khana
ĠEh ud
Pa ham
Sait so
Ġjat hang
ĠEn vir
Ġpyrs bah
Ġparab new
ough t
Ġtyl ii
Ġklim at
Kol os
ĠTI ang
yli iew
run ar
Ġbait ynnat
Ġtak ing
ĠTro y
ĠKhas I
Ġphoi dari
ĠPyrt kei
Ġsaph riang
Ġpbar shi
ĠKolos sai
khl uit
ĠNongap langbrot
Nov ember
Ġjb ig
Ġtynr al
ĠBel shasar
Ġlyngng un
Ġsna iap
ĠPe ople
ĠCent re
Ġyo ung
Ġkhus iai
ĠMawp ri
Hang no
Ġkhongdong jat
ĠLyog doh
Ġsti ll
Ġpers on
Ġiig i
ophi los
Ġpyt khat
Noh prah
ĠMir iam
Ġpart ies
con om
ĠlO AN
ĠpynY eng
ĠHum phrey
Ġlongp iab
ĠPla sha
Ġtik et
ĠRum pei
map utra
ĠMot or
ĠTet rak
ĠTet rameter
ĠDom inik
Ġnongm ait
Rang biria
ĠNom ber
ĠTy khikos
Ġthyll eng
ĠRes to
khyll ipmat
cep tion
ĠBot sing
Ġshyngk ub
Ġshyngk up
ĠGol gotha
rod itos
ĠKUM NO
Ġhel p
Ġphyll iah
Ġbatb ikna
paid bah
tymp ew
Ġshalyng mat
ĠComp ound
ĠSuper intendent
Ġschool s
Ġkoid i
ĠTran slation
ĠMaj um
ĠOrig en
Ġgiv en
Ġled ger
ĠChap lain
ĠSav io
Ġrymp hai
ĠPba war
ĠPri vate
Ġkyip ang
Ġagain st
Ġfrien ds
wor th
ĠAU TH
ĠShakhoi kona
ĠOb ject
ĠManas eh
ĠTaberna kl
ĠPublish er
Ġdiksh neri
ĠKhyllew bah
kali kai
ĠGrad e
ĠKharl ukhi
Jud ah
Maga zine
Ġmein ah
ĠPto lem
ĠDiam ond
ĠKher ub
ĠCap tain
ĠCbar an
Ġdiengph yna
ĠAssoc iation
ĠJehoiakhi n
Ġfiiangthoh lieh
ĠLamar e
ĠPab lei
ĠReh oboam
ĠGid ion
Ġcop ies
Ġinfin itive
ĠMawmih thied
ĠUmph rup
ordin ator
ĠRamak rishna
ĠKHYNN AH
ERN MENT
Ġtransl ated
ĠEkie siastis
ĠBoun ty
Ġphilos ophi
ĠGoog le
ĠPhill ip
Ġsohfl iamtra
ĠPrade sh
ĠBaisk op
ĠArkhel os
ĠEdinbur gh
' )
( Â»
) âĢĻ
) Â«
* âĢĺ
, âĢĻ*
, -^
. (
. âĢľ
/ /
1 10
< .
? '
? ^
? âĢĿ.
A t
B I
B is
B ib
B OH
C C
C S
C on
C am
D or
D ur
D gi
G H
H o
H t
H am
H iew
I W
I l
I bid
J S
J ymmang
J ING
K oit
K pen
K IT
L C
L ar
M d
M w
M or
M other
N er
P L
P am
P bar
Q gew
R aid
S O
S r
S u
S on
S ngew
S epngi
T E
T U
T ha
T ap
U ng
U to
V ERNMENT
W an
W ad
a y
b M
b k
b ob
b ian
b ymmai
b di
b lad
c ll
c di
c ess
d ah
d ad
d cng
d pei
e y
e ug
f J
f L
f y
f ang
f im
f long
f fic
g s
g et
g ate
h ng
h ra
h nong
h oit
h cm
i S
i y
i iew
i un
i wei
i ip
j w
j ut
j ien
j oi
j ngi
j ed
k g
k id
k il
k ein
k uin
k yndong
k nt
k fiia
k wang
l ch
l ess
m ul
m ud
m od
m ict
n u
n ba
n uh
n la
n it
n ti
n ii
n ical
n icw
o B
o ia
o ai
o at
o ver
p in
p ub
p ob
p lo
p yngngad
p ose
p rab
p ailen
q o
r ch
r oit
s d
s q
s yr
s os
s og
s ed
s ada
s ki
s lia
t no
t uid
t har
t ro
u u
u es
u istic
v as
w id
w ise
x ig
y ut
y ed
y iap
| [
Ġ ep
Ġ ec
Ġ 000
Ġk uk
Ġk ud
Ġk vr
Ġk vm
ng op
ng iat
Ġka wai
Ġka ii
Ġka vvei
ba la
ba th
ba ii
ba pher
Ġba janai
ha e
ha ei
ha phang
ha poh
ha lia
Ġl om
Ġl one
Ġl ist
Ġl ent
Ġl oc
Ġl oa
Ġl AP
Ġl ost
Ġl opg
Ġl ight
Ġl ime
Ġki eh
Ġki ien
Ġki long
Ġki ii
Ġki ju
Ġki ae
ia a
ia seng
Ġs el
Ġs to
Ġs ir
Ġs bar
Ġs cp
Ġs yngkhong
Ġs ection
Ġs yllai
Ġu wel
ong pong
Ġj en
Ġj rai
Ġj ci
Ġj our
Ġj lak
Ġj raifi
Ġp iar
Ġp ylia
Ġla u
Ġla ag
Ġla shong
Ġla ju
Ġla khyrwang
Ġla rington
yn long
Ġia de
Ġia ik
Ġd h
Ġd ent
Ġd nat
Ġd istrict
Ġd hara
Ġd rin
Ġd eiti
ĠK W
ĠK r
ĠK er
ĠK ep
ĠK bun
ĠK ft
ĠK tah
ĠK rit
ĠK eih
ĠK rie
ĠK uni
ie W
Ġn ung
Ġn uit
Ġt S
Ġt g
Ġt long
Ġt og
Ġt es
Ġt iat
Ġt us
Ġt ib
Ġt ig
Ġha ram
Ġha ag
Ġha lf
ai S
Ġbad ka
Ġb b
Ġb c
Ġb ynd
Ġb os
Ġb thuh
Ġjing o
Ġjing iew
Ġjing aw
Ġjing in
Ġjing ti
Ġjing ieng
Ġjing da
Ġjing noh
Ġjing iw
Ġjing nguh
Ġjing pasiaw
hi p
hi ih
hi te
ta ment
ta phor
Ġr V
Ġr ok
Ġr wa
Ġr ngi
Ġr od
Ġr est
Ġr wat
Ġr umar
Ġr ound
Ġr ural
ar ies
Ġm ng
Ġm om
ne og
at ri
at es
ĠU S
ĠU d
ĠU l
ĠU ng
ĠU tei
ĠS ia
ĠS ri
ĠS ung
ĠS ii
ĠS lem
ĠS mg
ĠS noh
ĠS ow
ĠS lap
ĠS ek
ĠS oa
ĠS niang
ĠS ister
ĠS ogi
Ġi si
Ġi fi
Ġi rn
Ġi liew
Ġkh k
Ġkh ieh
Ġkh fi
Ġkh yi
Ġkh taw
Ġsh j
Ġsh ing
Ġsh dei
Ġsh oin
Ġsh roin
ĠKa ia
ĠKa la
Ġ( \
ĠB hi
ĠB im
ĠB re
ĠB ev
ĠB UR
Ġpyn ai
Ġpyn kam
Ġpyn rn
Ġpyn bao
Ġpyn wandur
Ġda d
Ġda h
Ġsha ka
ĠH n
ĠH aw
ĠH uk
ĠH ub
ĠH ui
ĠH ynda
ĠH ana
ĠH SLC
yr im
Ġlong k
Ġlong shynrang
ĠN er
ĠN un
ĠN ic
ĠN ational
ĠJ m
ĠJ yn
ĠJ ew
ĠJ ym
ĠJ iam
ĠJ up
ĠJ ynjar
ĠJ ER
ĠJ hum
la ag
th ot
th no
th ers
th ngan
ĠM M
ĠM oi
ĠM up
ĠM ore
ĠM sgr
ĠL ik
ĠL yer
ĠL ynrum
er al
er se
er iong
er ved
ĠT l
ĠT or
ĠT eh
ĠT ah
ĠT el
ĠT ren
ĠT ik
ĠT yngkong
ĠT ak
ĠT rap
ĠT ron
ĠT EM
ĠT be
ĠT ANG
ĠT rib
ĠT REP
ĠT YMMEN
it ynnad
it imai
en th
ĠP t
ĠP ynr
ĠP bi
ĠP yndem
ĠP EP
ĠP itt
ĠP lie
ĠP emberton
Ġth u
Ġth long
Ġth ymm
Ġth cw
Ġth ings
Ġw iang
Ġw el
Ġw rong
is on
ĠI x
ĠI eng
ĠI wa
ĠI ada
ĠI fa
ĠI png
Ġngi r
ot n
ot eng
ad y
ad on
Ġshi kham
Ġshi phut
ĠD I
ĠD ien
ĠD oi
ĠD ap
ĠD ob
ĠD ic
ĠD una
ĠD EI
ĠD OR
ĠD irang
ĠD ieog
om aw
Ġh r
Ġh ynta
ĠR ew
ĠR aw
ĠR ak
ĠR nai
ĠR ose
ĠKi r
Ġsng ei
al o
Ġpat hai
kh ew
kh us
kh rum
kh laifi
im i
Ġkyn ad
Ġkyn pham
Ġkyn hiin
in at
in ter
in imon
Ġnong n
si f
si g
si gn
si ble
sha k
sha p
sha ih
Ġkat lah
ka ha
ap deng
id ei
lei fi
ul oit
ĠA ih
ĠA ud
ĠA sa
ĠA don
ĠA tom
ĠA tt
ĠA ND
kha l
Ġne ss
Ġioh ei
Ġioh lad
Ġmyn b
Ġmyn sh
Ġmyn shu
Ġbar om
Ġpyr ihei
Ġpyr lhei
ĠKha li
ĠKha rn
ĠKha thynriew
ynd ap
âĢĿ ).
Ġhi p
Ġhi ina
Ġai ei
Ġai ii
Ġai rong
ok ram
Ġsngew ba
Ġsngew diaw
ip le
ĠKh o
ĠKh lor
ĠKh wan
Ġph ub
Ġph iaw
Ġph ymg
Ġsa g
Ġsa kh
Ġsa jah
Ġju ig
ĠNg l
ob g
da jied
ĠNong wah
ĠNong bat
ĠNong leit
ĠNong riat
ĠNong thymmai
ĠNong mudui
ĠNong thau
Ġkyr j
Ġkyr tan
Ġkyr beit
ri ka
Ġa yn
Ġa ie
Ġa ang
Ġa ur
Ġa ct
na ka
ph ia
ph oi
ph ohsniew
Ġ3 17
Ġ3 23
og an
og am
Ġnang ia
Ġnang duh
Ġnang iar
Ġnang thoh
Ġnang tei
Ġar taiew
Ġkhl ik
Ġym don
ĠW m
ĠW end
op er
Ġjings ain
Ġjings leh
Ġjings blei
Ġleh beifi
rai m
Ġri lum
ĠLa ingut
ĠY ew
ĠY eng
Ġjingk ba
Ġjingk bein
Ġjingk wab
Ġjingk ordit
Ġjingk yila
ĠE he
as es
Ġum bam
Ġum ksang
Ġdang le
Ġjingia jan
Ġjingia nujor
Ġjingia sngewthuh
ĠC J
ĠC ered
fi iamtra
Ġjingp hai
Ġjingp lie
Ġjingp alat
ynt eng
ynt ait
Ġthoh lieh
iat ing
iat duh
li cn
Ġma jor
Ġo ba
Ġkot sada
ĠG am
ĠG ir
ĠG ram
ĠG olden
ĠG ebion
ĠJing iar
ĠJing bha
ĠJing san
ĠJing buh
ĠJing pule
ĠJing thang
ĠJing phla
Ġun iv
Ġf eng
Ġf ea
Ġf ear
Ġf Ca
Ġ. ^
ol t
ol y
us hi
lang tylli
de a
Ġ19 2
Ġ19 4
Ġ19 13
Ġ19 22
Ġkl ien
Ġkl op
Ġpynd eng
Ġpynd ih
Ġpynd iaw
ĠSha m
ĠSha p
ĠSha ti
ĠSha rak
ĠSha tok
ĠSh yll
ĠSh ri
Ġmar kata
ĠTh ud
Ġks ar
Ġpar on
Ġlyn hiar
Ġ7 30
Ġ7 34
Ġ^ )
ĠâĢĻ âĢĺ
har khmah
Ġbym tip
Ġbym ju
Ġc b
Ġc al
Ġc ap
Ġc har
Ġc yndew
Ġc ertain
Ġto ok
Ġte aring
Ġte chnology
Ġsn om
ĠBa kai
Ġdieng p
Ġdieng rit
Ġdieng ngan
Ġdieng thang
Ġdieng kseh
Ġjingt mang
ed y
ed er
ic om
Ġsb yntur
Ġsb iliang
Ġsb ikat
Ġ8 00
Ġ8 16
Ġpynk wah
Ġpynk ynduh
Ġpynk yndeh
19 34
19 35
19 40
19 92
Ġsaw ang
Ġsaw tylli
NG EIT
Ġ? *
ĠBal d
Ġ18 5
Ġ18 6
Ġ18 12
Ġ18 33
Ġ18 60
Ġ18 64
ch iar
ch nical
Ġbn d
Ġkim ju
Ġbat e
ĠMar ah
ĠMar ak
ĠMar kumta
one ry
ĠMa har
Ġriew b
Ġriew k
Ġriew hok
Ġriew pule
ĠO t
ĠO x
Ġsk u
Ġsk or
Ġsk ain
Ġsk etch
Ġlap san
ci ous
Ġkb ei
Ġkb uid
Ġkb wan
Ġkb nam
Ġkb eifi
Ġin ih
Ġin ten
.âĢĿ ^
ĠMaw l
ĠMaw ka
ĠMaw ph
ĠMaw kordor
ĠMaw pun
st cp
and icraft
Ġshit da
Ġshit cng
Ġshit oni
shi pa
iap oh
ĠNa ka
od d
od ai
br um
br arian
Ġpa y
Ġpa la
ĠPa u
Ġlait im
ĠLyng wiar
ui ft
ĠSoh lap
ymm iang
Ġjingj em
Ġde k
maw siang
re a
Ġst ories
Ġsoh phlang
Ġsoh fiiamtra
jing s
ĠUm i
ĠUm dih
Ġmet bah
Ġpyni ong
ham s
pyn mih
Ġkur o
bab e
ag ew
ĠPr om
ĠPr inting
mg kong
ĠF a
ĠF ree
bat esi
Ġiar ah
noh ei
thi t
dar a
Ġpy as
Ġpy deng
nd on
Ġkt ieu
Ġsba id
Ġwah duit
bi ih
rad bah
ĠDa ei
Ġshynr ain
ĠBad on
Ġduh oi
Ġii ong
Ġjingsngew ieit
Ġjingsngew rem
Ġjingsngew tynnat
Ġlad ew
Ġpal ki
Ġkhr ud
Ġkhr eb
ĠJer ome
Ġmon ths
ow al
tb or
tb ma
tb iab
Ġiak it
Ġiak ob
Ġky il
shong nia
Ġtb uk
Ġtb iab
Ġpynkh rum
Ġpynkh rch
ĠKI WEI
Ġkba dar
Ġjingb sa
Ġjingb ymman
Ġkp ob
Ġrai kut
Ġjin c
Ġkhi cm
ĠTo ur
ĠMyn shuwa
Ġsyr tok
bor ough
Ġsy a
Ġsy stem
Ġg ra
Ġg ive
tam ia
Ġ20 1
Ġ20 4
lap bah
Ġtyr n
ft f
ĠSa bat
ĠSa khaios
Ġpl um
Ġias eng
Ġias dang
ĠPha lyngki
Ġjingi ra
Ġmat ia
Ġmat erial
Ġjmg k
Ġjmg iap
Ġjmg batai
Ġjmg kmen
Ġjmg iadei
Ġjmg kylli
ĠKam on
kar iot
man o
Ġpr ob
HA H
Ġ" "
Ġbi jar
Ġ23 5
Ġkhat wei
Ġkhat san
Ġkhat khyndai
Ġjingkh ie
Ġship oi
ks o
Ġtr cp
Ġjai g
ĠAp n
ec tive
ĠPat mos
ĠNo ug
ĠNo Dg
Ġlyngk ar
Ġlyngk dong
ĠRo ad
Ġpan map
Ġher b
Ġher o
di x
ier o
bl d
18 97
18 99
Ġ24 5
ĠPyn eh
IE L
Ġre new
Ġre fer
Ġre ference
Ġy a
Ġy et
Ġjingtip briew
Ġe ach
Ġjah thait
Ġhyn Biew
Ġjingsh on
Ġjingsh ngain
ĠKor an
ĠInd ep
ĠJo shwa
riew stad
Ġ26 6
Ġphet rieh
ĠPh yr
ĠPh lang
ĠPh uit
uin ta
ĠUn c
ĠAr ngut
ĠSor moh
Ġad verb
Ġkajing iap
Ġkajing shisha
ĠKong or
ĠKong thong
Ġli nes
Ġtn yn
Ġtn aw
Ġsyn i
kur i
Ġjingleh rain
Ġjingleh sbun
kt e
Ġkr on
ĠLait kor
ĠLait ryng
Ġby orei
ĠRai knt
ry stal
uj li
ĠRam jan
ĠRam khian
Ġpynl yng
Ġfi lei
ĠLong shwa
ĠKyn jai
by terian
ĠHynniew ta
ĠJa la
ĠJa Tong
te g
ĠTiew mationg
ĠTiew lyngskaw
ros s
ĠIn m
ĠIn ten
Ġon ce
Ġjingkha ii
Ġra j
Ġra o
lan i
ell o
ĠLap ongnai
ĠCh oud
ĠJING LONG
ji ih
ji og
Ġpo f
Ġpo ints
iph uh
Ġnongs yntiat
Ġbyr iong
Ġbyr siew
Ġbyr tem
Ġbyr sang
Ġbyr nget
ĠAm br
tt g
tt n
ĠWah ing
Ġal ong
Ġpynm adan
ĠApos to
ĠRang san
ĠRang bab
Ġsp irit
Ġnongb et
Ġnongb sa
bad ing
Ġbyn la
Ġbyn thiew
Ġnalor kata
Ġfor eign
kb ong
ran ath
Ġkj m
Ġkj n
Ġkj up
ĠTa la
ĠâĢĿ ,
Ġthei sotti
Ġpynsngew tynnad
Ġdew byr
Ġnongpyn mih
stor y
Ġsuh khun
iv es
khong pong
Ġnar phna
Ġjingwan phai
Ġsl iah
ĠSy km
ĠSy ieni
ĠSy itm
kl oi
kl iar
ĠKyr ngem
ĠKyr dan
Ġkhyll ew
Ġkhyll ait
Ġpynt uid
ĠKb ubor
Ġhistor ian
ON O
Ġ190 1
Kh mer
ĠTem ple
Ġkaj mg
Ġsop jat
Ġjingr khie
Ġjingr yngkang
Ġle u
Ġpoh jat
ĠHA TI
.' '
ĠGe om
Ġpynsh ngain
Ġwal iam
Ġkynd en
Ġkynd ok
Ġkynd up
Ġpas t
Ġkun ine
Ġkun mo
Ġnot es
ĠEd ward
Ġkhad saw
Ġshat ri
ĠLA H
ĠHyn iei
Ġcon stitute
.* ^
Ġlu shia
Ġpom blang
Ġdo Q
Ġsorkar i
Ġ36 5
ine n
Ġjingbam sap
Ġkhap iah
ĠKHA NA
ĠIng er
ĠRab oo
ĠCol le
ĠCol onel
thub khana
Ġkf iii
ĠMath emat
Ġkhyn win
Ġkhyn fiiuh
Ġ189 4
Ġ189 8
ĠPan at
ĠRa khel
ĠNG IN
Ġ33 3
Ġ198 4
ĠPar ish
so iew
ĠQ u
Ġiaka jing
Ġtymp em
ĠThoh dieng
sb nong
ĠLi brarian
ĠJi Dg
Ġwith out
Ġbt m
Ġop en
ĠSec on
ue en
Ġpd r
Ġpd t
ĠJan miet
Ġsu em
Ġshyr mit
Ġiad ep
Ġshen i
Ġthai ft
pr eter
Ġid h
ĠNongt uh
nat ius
Ġnat ives
Ġpb ylla
Ġab strak
Ġjyn thut
ĠRym bot
sk uin
Ġbet ween
pd iah
ĠMes saiab
Ġcom pany
Ġtoh jaw
ĠJingia leh
Ġ195 2
Ġ195 3
Ġ195 4
sy aid
Ġbei ii
Ġbei ft
gh ts
ĠSab iah
ĠSng eu
Ġiw tung
ĠLuh blai
ĠFor estry
pb lang
khai la
Ġnoog thoh
Ġnoog rim
Ġ187 2
ĠRiew khuid
ĠChar ter
Ġ79 3
Ġex c
Ġex tra
Ġex ceeding
Sh nong
ĠJingk y
195 2
ĠEs ck
Ġdam aging
Ġdul l
Ġlas yllok
Ġtm oh
ĠDu war
ĠDu ff
lew duh
ĠRon sing
ĠRe formation
Ġ200 1
kon j
ĠJar ain
Ġbur oni
Ġsak bi
ĠEx c
Ġjingbuh rieh
Ġkhynr a
ĠToh sngew
sew beh
Ġkom peni
Ġkiim no
Ġlais ngi
Ġshyll uit
gew thuh
tl ie
Ġro yn
ĠTha in
ĠMang kariang
ĠTr eb
ĠGi ft
ĠBer riew
ĠKyll iang
Ġtba it
Ġtba rai
Ġbl oit
ĠByr ni
ĠByr iieh
Ġjyll ud
ĠTH YMM
Ġpynbud nam
ĠHo use
Th ess
Ġkhu o
ĠUmsoh pieng
Ġiah iar
ĠShan bor
Ġmu ja
Ġpyrd et
ĠSHI KYN
Um blai
Ġ188 1
Ġkyrs um
ĠFran cis
tyr khong
Ġbh ut
Ġsogew bha
Ġ98 2
Ġknm ta
cti v
Ġres istance
Ġiapoi kha
Ġbala og
ĠKYN D
Ġkhy ad
Ġtyngk an
Ġtyngk rei
Ġkii ia
Ġdis cre
ĠChi ld
Ġtal es
kul ong
ĠEh ristan
Ġsbit eng
Ġpym eng
Ġbynn iaw
fr ed
sm ew
tba it
ĠKu hai
ĠSl EJ
ĠMus ulman
ĠDaw ai
ĠStep lait
Ġkre a
Ġslia phang
Ġiatbuh khana
Ġbuj ii
Ġsni u
Ġser ious
Ġshapha ag
ĠIg m
ĠIg natius
Ġfii uma
Ġco ver
Ġco ordinator
ĠSNG EW
ĠPHA I
ĠPHA RSHI
Ġther ein
Ġlehrai h
Ġkyo ja
SHA R
Ġjr oog
BR ARY
Ġpen cil
ĠjingY adei
ĠHynr el
ĠDong la
Sc ientific
ffi x
Ġrng ieu
190 2
190 3
ĠAdv P
los sary
Ġsho ong
ĠMid dle
khl ieb
ĠLI BRARY
ĠAt iar
ĠJinglait luid
Ġmark ing
jek shon
ĠCher rap
Ġxv iii
Ġthapba wa
Ġrus er
Ġphone tics
Ġrymm uifi
ĠTb omas
Ġlyngng eh
Ġus ed
ĠUT rai
ĠDirector ate
ĠMaka shang
Ġjob g
Ġbec ome
tation s
ĠMul ot
Ġkynh ui
Ġother wise
Ġread ing
Ġcomp lement
ĠMA SI
ĠOffic ers
dam ut
Ġpers yntiew
Ġshal yntem
ĠTHA M
Ġjingsah nud
Ġapp rec
Ġsun on
ĠJingkyr khu
ĠChed rak
ĠBet hania
ĠIing syiem
ĠRum nong
Ġret ur
Ġret ained
Ġstan d
ĠNom bar
ĠPai la
ĠIdi un
ĠNO AP
Ġwi fe
ĠYou th
Ġmvn siem
Ġiol ii
Ġwh ole
khad duh
Ġjingtha rai
Ġpynbyr sieh
ĠSaitso fipen
Sah ep
aka jia
ĠkS ia
ĠTk omas
Ġthl iem
Ġhel d
Ġhow ever
Ġfollow ing
Ġcharact ers
Ġga ve
Ġjingieh noh
Ġpyrdai h
ĠPhra se
Ġbne og
ĠBrah maputra
ĠAc adem
ĠNongkh rong
ĠMiz oram
ĠRobin son
Lym da
Ġbaph yrnai
Ġlil am
Ġsec ond
ĠSta ll
Ġkhna og
ĠBod o
ĠMAR IANG
Ġlyngd khur
Ġgro und
Ġslat yrpad
AIN TIA
Ġsiig ew
Ġtid uh
ĠKash mir
ĠRec apt
Ġmynsien i
Ġjingpynr em
ĠMawryngk neng
IET Y
ĠKharngap kynta
ĠPoli ce
Ass yria
Had ien
min ist
Ġkilom etre
Ġlaip bew
Ġlawar ding
Ġchap ter
Ġpynkbr eh
ĠJINGSHI SHA
Pers ia
ĠKura ta
ĠAph rika
ĠRichar d
ĠOld hams
Ġlear ned
ront ier
ĠConstan tine
Res to
Ġkra ie
Ġbip ot
ĠScript ure
Ġkhul pi
ĠIss ued
opo tamia
ĠIdon kha
ĠKbana tang
Ġisait met
ĠLaitsoh pdiah
ĠSOC IETY
ĠHIST ORI
ĠDiv ision
ĠAar on
ĠKharum nuid
ĠYND A
ĠGri ffi
ĠMawshalai bit
Ġpynbymg ia
ĠLumkyr wiang
ĠKorester well
ĠMajum dar
ĠAUTH ORS
Ġpylia it
ĠKep has
ĠKrie shon
ĠJup iter
ĠMup liang
ĠCered ig
Ġsbikat dei
Ġrenew ed
ĠLaitryng ew
ĠKHANA TANG
ĠSHIKYN TIEN
Ġdiscre tion
ĠRecapt ure
! ,
! *âĢĻ
! âĢĻâĢĻ
' ;
' \
) '
* (
* \
* '.
, ..
, '*
, *'
- !
- /
. Â®
/ âĢĶ
4 00
5 20
5 61
5 97
7 38
9 60
; *
? âĢĻ
? âĢĻâĢĻ
A S
A b
A ynta
A mon
A sia
B e
B at
B HA
B AI
B TAP
B OK
C H
D A
E C
E ngl
G ospel
G alilaia
H yn
H eh
H amar
H ab
H istor
H apoh
I oh
I am
J c
J ap
J ii
J li
J ca
K m
K it
K in
K amar
K pa
K mie
K ham
K HI
K AR
K hara
K awei
L aw
L yngk
L OO
M U
M h
M o
M id
M ynn
M iss
M ypa
M yntri
N eb
N ine
N IS
O W
O OK
P R
P i
P u
P ro
P art
Q Q
R am
R yng
R yngk
R ONG
R OS
R OM
S P
S t
S la
S ur
S ib
S hu
T S
T T
U I
U wei
V N
V a
V aid
V II
W i
W t
W aw
W AN
Y a
Y eng
Y iar
a iew
a en
a iang
a har
a jan
b b
b os
b iar
b ylla
b ni
b noh
b oo
b oa
b hur
b ishop
c v
c or
c ma
c ley
c ient
d la
d eh
d un
d oi
d duh
d ung
d ain
d iction
e kh
e es
e tic
f C
f U
f s
f aw
f ap
f aid
f ch
f ci
f are
g g
g t
g ing
g on
g ah
g kat
h ie
h os
h ob
h iah
h ui
i J
i hi
i iah
i bah
i ren
i wa
k ob
k rong
k rad
k rang
k ynnoh
k ynroi
l U
m ba
m as
m iaw
m und
n ur
n yng
n ip
n wa
n rei
n ian
n nd
o T
o Qg
p am
p ien
p eng
p al
p ih
p ic
p jah
p lan
q r
r ait
r ub
r ui
r ies
s ne
s ynn
s eb
s ch
s bl
s tap
s mai
s ning
s ynrop
t I
t ym
t na
t nga
t yrwa
u is
u iii
u ists
v ie
v is
v id
w r
w ieh
y ug
| Â»
Ġ yng
Ġ ),
Ġ alem
Ġk H
Ġk ta
Ġk na
Ġk bar
Ġk war
Ġk ord
Ġk ohn
Ġk ji
Ġk mi
Ġk ristan
Ġk uslai
Ġk cr
Ġk cifi
ng um
ng aid
Ġka T
Ġka ro
Ġka pe
Ġka ue
Ġka ao
ba y
ba tip
ba ji
Ġba ei
Ġba ai
Ġba long
ha ni
ha lo
ha nes
ha thias
Ġl c
Ġl h
Ġl ha
Ġl id
Ġl op
Ġl pa
Ġl li
Ġl ylli
Ġl uid
Ġl ol
Ġl ein
Ġl ch
Ġl ig
Ġl ion
Ġki c
Ġki v
Ġki ia
Ġki it
Ġki cw
ia it
ia ug
ia suk
ia phet
Ġs us
Ġs lai
Ġs cm
Ġs liew
Ġs ou
Ġs tir
Ġs cript
Ġu u
Ġu ia
Ġj g
Ġj k
Ġj yl
Ġj ti
Ġj ul
Ġj wai
Ġj iam
Ġj fa
Ġj ou
Ġj yi
Ġj ca
Ġj oni
Ġj bur
Ġj jc
Ġj ymbuin
Ġp M
Ġp it
Ġp os
Ġp il
Ġp ein
Ġp iaw
Ġp leit
Ġp ail
Ġp jn
Ġp eace
Ġla j
Ġla th
Ġla wai
Ġla mih
Ġla shi
Ġla tai
Ġla jied
Ġla sy
Ġla ubei
yn s
yn sh
ei ved
Ġia f
Ġia j
Ġia iang
Ġia tap
Ġia bit
Ġia shang
Ġia jngai
Ġd l
Ġd v
Ġd iar
Ġd kar
Ġd ust
Ġd hah
Ġd ated
Ġd irect
Ġd ipat
Ġd On
ĠK la
ĠK ylli
ĠK ris
ĠK una
ĠK ymp
ĠK bl
ĠK yllung
ĠK BA
ĠK per
ĠK ari
ĠK yo
ĠK UT
ĠK him
ĠK SHA
ĠK uinta
ie st
Ġn it
Ġn no
Ġn da
Ġn og
Ġn ian
Ġn yllong
Ġn opg
Ġt k
Ġt ew
Ġt ot
Ġt ti
Ġt ud
Ġt ol
Ġt ic
Ġt yi
Ġt yili
Ġha kh
Ġha khlieh
ing i
ai b
ai om
Ġbad ap
Ġb ong
Ġb um
Ġb ieng
Ġb ung
Ġb ian
Ġb oo
Ġb hoi
Ġb thong
Ġb hu
Ġb loi
Ġb uifi
Ġb iaog
Ġjing oh
Ġjing ta
Ġjing ar
Ġjing iah
Ġjing ir
Ġjing rn
Ġjing bi
Ġjing niew
Ġjing tah
Ġjing aiti
Ġjing ngat
hi g
hi ka
ta ks
Ġr f
Ġr on
Ġr ih
Ġr kh
Ġr nar
Ġr nem
Ġr gi
ar at
ar ly
Ġm oi
Ġm yi
Ġm ight
Ġm yliung
Ġm uhor
ang ew
Ġban ep
ne a
ne an
at ei
at om
at ylli
ĠU ia
ĠS r
ĠS em
ĠS yl
ĠS yll
ĠS ul
ĠS ud
ĠS us
ĠS and
ĠS yngkai
ĠS ind
ĠS AN
ĠS nap
ĠS tone
ĠS Dgew
on j
on ong
on ment
on ikl
Ġi ym
Ġi na
Ġi wai
Ġi rei
Ġi ft
Ġi haw
Ġi oli
Ġi tbuh
Ġi laka
an os
Ġng ong
Ġng ah
Ġng al
Ġng ait
Ġng iab
um g
Ġkh h
Ġkh t
Ġkh ob
Ġkh ct
or ad
or fa
Ġjong ogi
Ġsh v
Ġsh ynt
Ġsh ein
Ġsh one
Ġsh ept
Ġsh gi
Ġsh oDg
ĠKa h
ĠKa s
ĠKa w
ĠKa usi
ĠKa wel
ĠKa desh
Ġ( Â£
ĠB c
ĠB d
ĠB ia
ĠB yn
ĠB uk
ĠB ri
ĠB ein
ĠB oit
ĠB let
ĠB shad
ĠB lab
ĠB ISHAR
Ġpyn batai
Ġpyn icng
Ġpyn artatien
Ġda ki
Ġda ag
Ġsha re
Ġsha lynnai
ĠH h
ĠH ara
ĠH oll
yr wai
Ġlong d
Ġlong bynriew
Ġlong rem
Ġlong spah
Ġlong pap
Ġlong trai
ĠN yng
ĠN iar
ĠN ation
ĠN otes
ĠN isan
ĠJ eit
ĠJ ir
ĠJ ied
ĠJ ada
ĠJ oan
ĠJ cr
ĠJ hur
ĠJ AINTIA
la g
Ġkum ha
Ġkum ia
Ġkum oe
em iah
ĠM I
ĠM O
ĠM c
ĠM l
ĠM m
ĠM t
ĠM ieng
ĠM ci
ĠM EI
ĠM end
ĠM IAW
ĠL ath
ĠL uwai
ĠL iv
ĠL ura
ĠL ind
ĠL isb
er batemon
un ji
un teer
ĠT f
ĠT n
ĠT ti
ĠT ub
ĠT op
ĠT li
ĠT eb
ĠT ura
ĠT IEN
ĠT IM
ĠT leij
it ien
ĠP L
ĠP um
ĠP ii
ĠP ain
ĠP issi
ĠP vr
ĠP ynram
aw ai
ym e
ym y
Ġdon akor
Ġth ien
Ġth ynriew
Ġth cp
Ġth lim
Ġw r
Ġw ia
Ġw on
Ġw ci
Ġw aa
is c
is er
is aw
is im
ĠI B
ĠI W
ĠI ang
ĠI ah
ĠI rai
ĠI to
ĠI ohi
ĠI vn
ĠI ron
ĠI arap
ĠI cil
ot f
ot ion
ad er
ynr it
ynr oit
Ġshi u
Ġshi ta
Ġshi ra
Ġshi jait
Ġshi shnong
Ġshi ryn
Ġshi rukom
Ġshi kynhun
Ġshi khyllipmat
ĠD t
ĠD ia
ĠD ait
ĠD id
ĠD ip
ĠD og
ĠD ii
ĠD ir
ĠD ain
ĠD up
ĠD iei
ĠD EM
ĠD ising
om s
Ġh f
Ġh ynn
Ġh iat
Ġh mg
Ġh jm
Ġh iamra
ĠR J
ĠR j
ĠR os
ĠR ule
ĠR hai
ĠR ile
ĠR ani
ĠR basi
ĠR ymmiang
ĠKi la
ĠKi un
ĠKi tah
yng kh
Ġsng ev
al ia
al ch
al and
al ity
ih ci
Ġpat iew
Ġpat cng
kh ut
kh wai
kh yllong
kh tt
kh uslai
kh mer
Ġkyn ah
Ġkyn doh
Ġkyn sbi
Ġkyn mau
no th
no Dg
in ad
in ary
uk os
Ġnong T
Ġnong Y
Ġnong r
Ġnong ar
Ġnong khot
Ġnong thied
Ġnong phla
Ġnong korbar
yll eng
ĠHa juh
Ġkha il
Ġkha lah
si im
si eij
oi g
oi fl
sha phang
sha ndi
Ġkat iai
ap g
ap hang
ap ani
id ed
Ġbr e
Ġbr ic
ul f
ul an
ul gate
Ġkam o
Ġkam ba
ĠA M
ĠA ha
ĠA na
ĠA dar
ĠA sem
ĠA IR
ĠA then
ĠA jra
Ġ: (
kha rai
Ġne ver
Ġioh l
Ġioh sng
Ġioh pang
Ġmyn ia
Ġmyn thai
Ġbar c
Ġbar ang
Ġbar ih
Ġpyr ha
Ġpyr kh
Ġpyr man
Ġpyr jah
ĠKha h
ĠKha ti
ĠKha ss
âĢĿ !
Ġtang k
âĢĻ (
âĢĻ :
âĢĻ *,
Ġai S
Ġai jait
Ġai dih
el fi
ub him
Ġ- (
Ġsngew ieit
Ġsngew don
Ġsngew bang
ip ore
ip hanes
ĠKh y
ĠKh ei
ĠKh yllung
ĠKh eih
ĠKh loi
ĠKh osi
Ġph l
Ġph ui
Ġph ler
Ġph iak
ra o
ra nean
hang ne
Ġsa u
Ġsa v
Ġsa bit
yngk oog
ob ject
da b
da g
ĠNong h
ĠNong lyng
ĠNong jrong
Ġa ei
Ġa am
Ġa yiem
Ġa yrtap
na iah
ph o
ph ot
ph uit
Ġnang bun
Ġnang jam
Ġnang heh
Ġar ea
Ġkhl ing
Ġkhl ang
Ġkhl eng
Ġkhl iir
Ġsne ra
Ġsne ni
ĠâĢĺ âĢĻ
ĠW d
ĠW AR
ĠW AT
ĠW hen
op olis
Ġjings uba
Ġjings aifi
Ġjings bitom
Ġjings bisba
Ġpha t
Ġleh mon
Ġ* âĢĻ
Ġ* Â«
ĠLa kh
ĠLa tara
ĠLa sam
ĠY in
ĠY aid
ĠY oda
wai fi
Ġtha ria
Ġtha ulang
pa og
pa khiah
Ġshong kh
Ġshong ksuid
Ġshong knia
Ġshong tynrai
Ġjingk ien
Ġjingk ad
Ġjingk raw
Ġjingk ylh
Ġjingk yili
ii f
ii ta
ĠE L
ĠE ra
ĠE gy
Ġhap hi
Ġhap dong
as ia
as oh
as ure
Ġum dum
Ġjingia pyn
ĠC ong
ĠC aster
ĠC ENT
ĠC rystal
to w
Ġeh nong
Ġjingp yo
Ġjingp alei
Ġbha r
ynt ing
iat n
iat ed
li ne
li it
li cw
li ke
Ġma c
Ġma bam
Ġma kia
Ġkin i
Ġo at
Ġo ug
Ġo ld
Ġo thers
men ts
ĠG ib
ĠG our
ĠG ilg
ĠG ulf
ĠJing j
ĠJing jot
ĠJing phylla
ĠJing py
ĠJing tep
ĠJing thmu
ĠJing ainguh
ĠJing mihpat
ir at
ir ed
ir st
ir phor
ir cum
Ġf er
Ġf eit
Ġf is
Ġf Ci
Ġf unction
il c
il ng
il long
il ding
Ġ. (
Ġbun s
ol et
ol lo
Ġ' .
Ġ' âĢľ
de ep
de av
ĠShi ra
ĠShi teng
ĠShi sicn
Ġ6 26
Ġ6 39
Ġ19 24
Ġ19 42
ab i
ab oh
ab us
Ġpynd ong
ĠSha lam
ĠSha ll
ĠSha tai
ĠSha dem
ĠSha rati
ĠSha itimai
ĠSh ymp
ĠSh loi
Ġmar met
Ġmar wd
Ġmar ynthing
ĠTh wat
mut i
Ġbuh teng
Ġpar ai
Ġpar maw
Ġpar tic
ngi eit
Ġlyn li
Ġlyn san
Ġlyn fiiar
Ġhang a
bar ek
Ġim on
Ġdoh len
Ġbym bit
Ġbym seisoh
Ġc yr
Ġc ub
Ġc han
Ġc ivil
Ġc ourt
Ġto ne
Ġlang ning
Ġte ach
Ġte xt
bha briew
bha rata
ik i
ik om
Ġpyns ei
Ġpyns iew
Ġpyns bai
Ġman oh
Ġman vei
Ġman agement
Ġbor om
ĠJis a
ĠJis n
ĠJis ii
ĠBa c
ĠBa lak
ĠBa jub
Ġdur blei
Ġdieng pyn
Ġdieng bai
Ġdieng song
Ġdieng jri
Ġdieng kwai
Ġjingt ih
Ġjingt haba
Ka jing
Ġtar o
Ġngan i
ic r
ic vv
Ġbam ynta
Ġbam pong
Ġsb uk
Ġkhn n
Ġ8 17
Ġ8 86
Ġpynk ing
Ġpynk dang
Ġpynk braw
Ġpynk bib
19 14
19 13
19 20
19 29
19 25
19 95
NG UH
Ġiing mut
Ġiing sngew
Ġiing syiem
Ġ? '
Ġiap mat
Ġiap li
Ġ18 2
Ġ18 3
Ġ18 00
Ġ18 27
Ġ18 66
Ġ18 52
Ġ18 63
ĠV es
ĠV ulgate
Ġbn iap
Ġbat hikna
ĠMar ai
ĠMar ngar
ĠMa v
ĠMa hajon
Ġriew hyndai
Ġriew shemphang
ĠO g
ĠO l
ĠO ieng
ĠO thn
Ġsk ut
Ġsk ui
Ġsk nl
Ġpeit mat
ki ne
Ġkhynd eu
Ġme et
Ġkb la
Ġkb ih
Ġkb yll
Ġkb ublei
Ġkb niang
Ġkb yon
Ġin c
Ġin f
Ġin yn
Ġin aw
Ġin dep
Ġin jury
Ġjingpyn shi
Ġjingpyn wan
Ġling lieng
.âĢĿ *
ĠMaw k
ĠMaw ne
ĠMaw shai
ĠMaw shun
ĠMaw shynrut
ĠMaw shamok
le g
st ai
st on
ni w
ath ei
Ġshit im
Ġkhla u
Ġmaw jam
Ġmaw jem
Ġmaw teh
Ġmaw shynrut
ĠNa ei
ĠNa jrong
ĠNa gal
Ġ12 00
ja kor
ĠId m
od y
br iang
Ġpa jait
Ġpa shor
ĠPa a
ĠPa hari
ĠBar eli
ĠBar andi
ĠBar timai
ban j
ban ia
ĠPhi le
Ġpara jor
Ġ! "
Ġdak ait
Ġkd m
Ġkmie rad
ĠLyng kha
ĠLyng ngai
ĠLyng khoi
ĠSoh tyngk
rn m
se c
Ġde al
ish ri
ish nong
ish nor
uit e
ynsha d
Â» '
Â» ,
ist ers
Ġsoh ot
Ġsoh saw
Ġsoh phoh
Ġsoh jew
Ġsoh wain
Ġji Qg
Ġji fig
ĠYn nai
jing ngeit
jing shisha
ĠUm tyng
ĠUm dap
ĠYa kut
ct er
ct ed
Ġpynmih pat
Ġkyll aifi
Ġkyll cng
Ġpyni wet
ĠII NG
Ġkur at
ig i
Ġ16 00
Ġ16 62
ag ed
ĠPr at
Ġjingd iaw
ĠF C
ĠF t
ĠF ab
ĠF lor
ĠF lo
ĠF rontier
bat ei
ĠMe th
Ġbud lum
Ġlab eh
ĠMan na
Ġjia long
war t
dar d
dar y
Ġly ag
Ġly wait
Ġpy al
Ġpy ishah
Ġkt ie
Ġkt wei
Ġshai fi
Ġsba no
Ġsba dub
ĠDa ialok
sngew sih
Ġlei j
Ġap os
Ġpynb ba
ĠâĢ¢ '
ĠâĢ¢ -
Ġv v
Ġv an
Ġv illage
Ġii ing
Ġbak er
Ġlam tham
Ġjingsngew kmen
Ġjingsngew tynnad
Ġjingsngew skhem
Ġlad ai
Ġlad on
ngai fl
Ġkhr ia
Ġkhr ah
ĠHad ieo
tar ian
ow ed
tb iah
Ġta u
Ġta ag
ter n
ord ing
Ġky Ua
Ġky omaw
Ġit ieng
Ġtb ym
Ġtb ied
ĠKI NE
Ġkba p
nam shei
Ġkp arad
Ġjin i
Ġkhi b
Ġkhi ieh
Ġkhi lon
Ġkhi ln
Ġsyr wiang
rang ait
Ġkyrp ong
Ġjiog pule
ĠTang ei
Ġnam at
Ġnam blang
Ġnam bru
Ġsy i
Ġsy o
Ġsy oh
Ġg r
Ġg ram
Ġg rie
Ġ20 8
Ġ20 9
Ġspah snem
ĠShithi l
Ġtyr si
Ġtyr pud
mar i
ĠSa ia
ĠYm don
Ġpl ing
Ġpl ot
Ġjingi in
Ġjingi ob
Ġjingi eid
Ġmat tah
Ġmat suh
Ġjmg thaw
Ġnongp yllait
Ġnongp hawar
Ġnongp yrta
lia og
ĠKot kudi
ĠKam bah
ĠKam ram
Ġ22 1
Ġ22 9
Ġpr ing
Ġpr om
Ġpr ose
Ġpr edicate
Ġpr okram
Ġ23 8
Ġ23 9
Ġkhat n
Ġkhat lai
Ġnongia da
sien i
Ġjingpyr wa
Ġjingpyr sbang
ks ah
Ġtr y
Ġtr et
Ġtr el
Ġtr ue
ĠDr ys
ĠX A
ĠX J
Ġpynr ah
Ġpynr khie
Ġpynr khiang
ĠAp pen
Ġhar oh
Ġis bad
ec a
ec his
ĠPat haw
Ġlyngk ut
Ġlyngk siar
YN J
ĠRo ck
ve y
ve kan
Ġbas ang
Ġbas bun
Ġbas liang
ĠSt ein
ĠSt re
Ġ** **
ĠThe y
Ġpan khyllong
ier son
18 0
18 49
18 79
Ġ24 1
Ġ24 2
Ġ24 3
Ġ24 6
ĠBA KH
13 0
ĠSaw phew
ĠSaw brang
ĠSaw lyer
ĠPyn i
ĠPyn s
ĠPyn poi
khi cw
Ġre ason
ĠBai l
Ġat om
Ġat os
Ġpynj am
Ġpynj ngai
Ġpynj aboh
Ġy p
Ġe o
Ġring dur
Ġjingsh na
ĠKor ah
ĠKor step
Ġsynr on
Ġsynr ih
ĠJo shuwa
ĠJo ash
riew blei
Ġphet wir
Ġsang eb
Ġ] .
ĠPh uh
ĠPh er
ĠPh ur
ĠPh rang
Ġhad em
Ġhad ieo
Ġ28 5
ĠAr taks
Ġad op
Ġli ynrei
Ġli li
Ġli ve
Ġli brary
Ġjingkyr siew
Ġjingkyr kbu
ĠBab el
ĠNongk nia
Ġsyn hiang
Ġsyn hia
Ġsyn agog
Ġ25 1
Ġ25 2
Ġ25 5
Ġ25 7
Ġ25 8
Ġryn tib
ĠLait kseh
Ġ27 3
Ġjingl ar
Ġjingl um
Ġjingl hoh
ĠJu hai
uj ai
uj on
ĠJI N
ĠJI ng
Ġialeh thma
ĠDor mi
iei i
Ġpur pose
Ġfi iar
Ġfi ve
Ġfi iamra
ĠKyn sh
Ġ29 1
ĠWar bah
17 00
Ġnongk ylliang
ĠTiew soh
ĠTiew bon
Ġthang iong
ĠIn f
ĠSan he
ĠSan cley
Ġshan c
Ġshoh noh
Ġjingiap ait
Ġjingm nt
Ġni ur
Ġra ut
Ġra og
Ġpyniap om
ĠAn nas
lan k
Ġsynd ong
ĠPres bit
Ġiam ad
enten s
ĠJING TR
Ġmei ramew
est ed
ĠMat lah
ĠMat thew
ĠMat hathias
iph ew
ĠKynr ik
ĠDieng soh
ĠAm on
yi u
ĠWah long
ĠWah bah
ĠWah diang
Ġpynm yllen
Ġah ub
Ġah ynrang
Ġjingkyn oi
Ġlynd an
Ġart dong
ler a
Ġkaw e
Ġkaw oi
Ġsp ec
Ġsp all
Ġsp ecial
Ġteh song
Ġtam ent
ĠAb imelek
LA R
Ġpap ers
tic ng
Ġ0 4
ĠMynt hi
dor a
ĠKl im
bei ii
Ġpynsngew bba
ĠBam ea
Ġsuh jer
iv al
Ġshon dur
Ġnar nar
ĠTaw iar
ĠLam ia
ĠLam brang
ĠNongs iewspah
Ġsl oit
sai pud
sai siej
kl et
ĠKyr hai
rap hy
ĠAd verb
ĠAd minist
ĠKb ris
ĠKb lem
ON S
Ġx vi
Ġku iai
Ġku hiw
Ġtan t
ĠSk out
Ġkaj ib
Ġ> >
pyr da
Ġ/ ,
Ġ/ /
ĠJeh u
ĠJeh oram
Ġmap ha
Nong sawlia
Nong pynim
ff e
Ġle fa
pe y
Ġog an
Ġam bit
Ġsob jek
ĠSym gi
Ġkhyr wang
Ġho uses
Ġpynsh di
Ġpynsh eptieng
nt ur
Ġkun me
Ġti or
Ġti ve
ĠSalm on
Ġbu neng
ĠBat i
ĠBat sha
ĠLA M
ĠLA LOO
Ġbaj am
Ġbaj op
Ġkhong toi
ĠHer bak
Ġdob kha
ĠNang to
Ġcon dit
ee e
oe og
ĠRal kut
bu o
bu aid
Ġdo es
Ġram pakhiah
let n
Ġsai pan
ĠKHA D
ĠIng mane
ĠRab it
ĠRab iren
ĠRa jinoma
Ġ33 1
Ġ198 5
ĠMor aiah
ĠPal ki
Ġpynph ylla
ĠPar om
ĠPar alok
ĠPar thia
TH ER
ĠQ Q
Ġ34 0
Ġâĸł âĢĶ
Ġâĸł âĢľ
Ġper haps
ĠJi NG
ĠAg ric
ĠAg abus
Ġiat ynjuh
Ġbt iah
Ġop hi
ĠSec tion
ĠHom iw
aa aa
por ary
Ġpd am
AT ION
Ġsong s
ĠSar ong
ĠSar ot
ĠJai r
ĠJai ros
Ġpei ba
ĠMeg hala
Ġiad ait
Ġdi ffer
pr uh
ĠNONG LYNG
ĠKom mon
ĠKom ishnor
ĠKai da
ĠKai pros
vv a
vv ai
Ġmyr iem
Ġkli cn
Ġjingshah jop
ĠJingpyn kut
Ġty or
Ġty og
Ġpb im
Ġpb yrnai
ĠSob jek
Ġab le
pan ai
ĠBl ock
ĠEl kan
ĠEl imelek
ear ing
Ġlia og
ĠAl fred
Ġsi ia
Ġpla k
ĠTar o
ĠAng long
Ġryng khiang
Kum ne
Ġkal ba
Ġsd ot
Ġhynriew phew
Ġlo Dg
end er
end ra
ĠJingia ishah
Ġkhiew ja
ĠSur ma
Mar in
ĠSab u
ĠSab uit
Ġsaid thma
ĠSng aid
60 8
tng it
Ġnoog hikai
ĠSb is
Ġpyrth el
ĠSot timai
ĠBang ar
Ġ187 3
Ġ187 5
myn ne
myn jur
sam rkhie
sam ane
ĠHam saia
ĠMo barek
ĠXX L
Ġex ist
Ġex pect
Sh ong
Sh elia
ioh thiah
Ġlar ge
ĠHar um
ĠHar rison
ĠJingk ular
195 3
195 9
OT HI
ĠTyng shain
ĠTyng hor
Ġwar is
ĠKar mel
ĠSang ma
ĠPom pey
pl in
pl iah
pl ier
Ġlas noh
ĠNai rang
Ġhy arei
use lah
Ġjingsha lan
ĠSHA D
Ġ200 7
ĠNongko um
gai on
ĠDON BOK
Ġtl ip
ĠWei king
dr in
ov o
Ġdan a
Ġry tung
ĠSad ok
rati ve
Shi m
Shi sh
ĠNor man
ĠGre at
ĠSai rupa
sew shang
Ġkom iti
ĠBo y
ĠNoh kalikai
tl p
Ġhai fi
ĠTha iland
Ġel ement
Ġel ection
Ġel ekshon
ĠBer ia
ĠBer nis
Ġhan im
Ġpyniar yngkat
ĠNeh ru
ĠRyn fiiaw
ĠSynr op
ĠMad ras
ĠGat pbob
Ġbadon bor
Ġshap baog
Ġniang mat
Ġmyns ietn
stit u
Ġsuid hiew
ĠKhyr dop
79 0
Ġkieng wait
Ġkieng stieh
Ġmul tip
Ġpol e
Ġpol itical
Ġiasngew tbub
ĠIc ha
Ġ188 4
Ġ188 5
ĠMi li
ĠPer ga
ĠPad u
Ġkyrs ei
ĠXV III
ĠZ ovo
Ġtor ti
Ġbh ur
Ġjingshong kurim
Ġjingshong thait
Ġkutn no
Ġkhm ot
Ġsnge us
ĠNongsh luit
Ġknm no
Ġres earch
Ġshl bun
ĠRep r
ĠBak ing
Ġkhiin lung
Jo wai
cha l
ĠJinglong mraw
Ġ199 0
Ġ199 5
IN TH
ĠMer ibah
Ġkuni ta
Ġtyngk oh
Ġham saia
Ġkynsha it
Ġsli is
ĠKhi si
ĠBis bar
ĠBala am
ES TA
Ġev id
Ġev il
Ġsul phur
ĠRyng kap
ĠJINGK YR
Ġkuin no
ĠRia ta
Ġksang ti
Ġksang kti
fli um
Ġjal ieh
Ġpj rn
Ġdis c
Ġhiew tang
Am os
ĠJit rai
)- (
AL M
Ġhor mot
ĠOr der
Nai rang
gan j
Ġruk oni
ĠNeb o
ĠPYN MIH
Ap nl
KH LAW
tba w
Ġlur n
Ġmynh or
Ġpyrs bab
Ġshyn i
kher ib
pyll un
ĠTer t
ĠJingp ynshai
Ġjyng thung
ĠNad ab
Ġord ers
Ġord inary
Ġser vice
Ġshyng yiar
ĠAuthor ised
Ġfii ut
Ġiakyn ud
ĠBasa iawmoit
jab ieng
Ġtak en
ĠSun der
ĠSNG l
eni or
ls u
Ġsyng it
Ġsyng khlieh
Ġsyng khien
Ġjr iaw
ĠSO BJ
ĠTro chee
ĠKhas f
ĠPyrt Kei
ĠMed i
ĠPah ep
Ġfe el
Ġsaph rong
ĠHynfiiew trep
SS LC
Ġpong shai
Ġpbar eng
ĠKli rist
ĠBh owal
190 6
Ġbod y
thu hipa
isoh pen
Ġjang ew
ĠKJ WA
Ġnur ok
ĠPap hos
ĠJings pel
KHA NA
Ġlynt cr
Ġrec ord
ĠSp on
ĠSp iton
ĠLymp ied
Ġes say
Ġtok en
ĠHap neh
Jones Ba
Ning thoh
Ning tlem
Ġtynr uh
Ġrymm uin
eri os
ĠShis ba
ryng kham
Ġsii gi
Ġpyng ad
ĠBom bay
ĠBap h
Ġshak ii
ĠTai ros
ĠRap thap
Ġyo da
ĠKR EN
ĠKR BR
Ġtung tap
Ġjingra ut
ĠKhlaw ait
Ġkurn juh
Ġnongialeh kai
Ġjingriew spah
ĠNik opolis
ĠLyog dob
ĠOffic iating
Ġiaph cr
Ġiei l
Ġshal ymmen
ĠTib erios
ĠTHA NG
ĠPoit ti
ĠDul an
ĠDul ir
Ġsaian s
Ġapp ro
Ġ79300 2
Ġdia lect
Ġkynsh eu
Ġkynsh rot
ĠGa ul
Ġij li
ĠWad bor
ĠCi tab
ĠCan tlie
ĠCas si
ĠSj dem
ĠSil char
ĠPuk ni
ĠDar ang
ĠRel ation
ĠParad ais
ĠPublic ation
cb eth
Ġpvr khat
Ġjingng cit
Ġjingng dt
ĠPong rup
ĠWang nub
Ġjingky ang
Ġfli ut
Ġsbip or
ĠPro phet
Ġlymb oit
mot imai
sep ngi
Ġluk ai
Ġdes crip
ĠKS EW
ĠKS IAR
ĠHall iday
ĠDer bi
ĠEllen borough
Ġent ertain
Ġpih uin
Ġkynk ik
ĠEp iphanes
lek shon
Ġgrow th
Ġpynias noh
Ġpynias yriem
Sept ember
Ġieb noh
ĠBle f
ĠAust ro
asur es
Ġparad oh
Ġparad ais
ĠTk omasjones
ĠIong sem
ĠRiat samthiah
apa est
Ġmynsb uwa
Ġliap deng
ĠKbr o
aph riang
Ġpyod onkam
ĠStud ent
ĠStud ents
Ġeff ect
Ġeff orts
ĠAntio khus
YNGK OT
Er batemon
Ġiyng ba
ĠHel p
ĠHel en
ĠIca ba
yllang mat
Ġcor re
ĠOrig in
ĠSohkha son
Ġjingring mraw
ĠMiz o
Ġappear s
jyr ngam
Ġsik ei
Ġsein iong
Ġkhub lci
ĠHynn icw
ĠDut ta
ĠRE AD
ĠArist otle
ĠGO VERNMENT
ĠJingkh eifi
Ġstud ent
KAM R
Jeh obah
Ġnir ad
ĠNel son
ĠTfi omas
ĠDuk an
ĠHaog ne
ĠAhas uer
ĠMawryngk ang
ĠkyU eng
Ġjingbyr ngem
Ġelect ric
Ġprep ar
Ġdraw er
Ġboit ha
Ġrw ing
ĠSeb edi
Ġjusti ce
olk lore
ĠPhoin isha
ĠJehoiak im
Ġestab lished
Sing por
ĠJas ow
ĠMur ot
ĠPris kila
Ġcrit ical
Ġborrow ing
Ġbamyn shwa
ĠBaib I
ĠArphew lai
Ġâĸ º
Ġorang e
Ġsucc ess
ĠNONGIA THUH
ĠGreg orian
Ġhonour able
Lai phew
Ġrynn ieng
Ġkhfii ot
ĠPis gah
Ġmynshi wa
ĠOphi s
Ġjingpyns noh
ĠPrin ters
ĠBAR IM
Ġbegin ning
ĠJINGJ OP
ĠDenz ille
ĠEpaph roditos
UJ IS
Ġprai s
Ġsharat l
ĠLieut en
ĠWords worth
ĠShal lam
ĠOm ri
ĠArch bishop
ĠAruna chal
ĠJINGLA MPHRANG
ĠMatta thias
Ġenc our
ĠJeseph os
ĠHYNN IEW
Ġthur mur
ĠIkon nium
ĠDept t
ĠGr ierson
ĠPhy sical
ĠJehoa has
ĠGeth samane
ĠTarang blang
Ġenjo y
Paham bir
Kolos ai
ĠlOAN NIS
ĠPtolem y
cess ary
Ġtes tament
Ġbynd op
Ġrok om
ĠBUR OM
ĠTEM PL
ĠAud itor
ĠWend li
Ġmajor ity
ĠGir ls
ĠThud kynroi
ĠMawph rew
ĠSabat ton
ĠWahing doh
ĠSecon dary
Thess aloni
Ryng hep
cma iah
ĠKari wan
ĠKSHA ID
Ġron sing
ĠSand y
ĠKausi k
ĠMend ih
ĠLind say
ĠTIM OTHI
ĠPissi dia
ĠRile tib
ĠEgy pt
ĠGour ipore
ĠGilg al
ĠShall um
ĠBajub on
ĠNagal and
ĠBartimai os
ĠFlo or
ĠDrys orfa
echis m
ĠNONGLYNG DOH
ĠElkan ah
KHLAW KI
ĠAhasuer os
! *
) âĢĿ
, (
, >
- (
- ;
. <
. Â«
1 00
5 00
: .
; -
; ;
; âĢĿ
< -
< Â«
> '
> ^
? )
? :
A A
A f
A n
A oh
A re
A ug
B W
B ha
B or
B urom
B YN
B UK
B IH
B asa
C hi
D t
D IEN
F e
F irst
F olklore
H y
H ong
H ew
H ON
H andicraft
I m
I v
I ia
I ong
I ing
I ang
I ieh
I awbei
J I
J b
J d
J ai
J oh
J la
J ait
J unom
K O
K l
K t
K tien
K had
K ano
K UR
K has
K elvinell
K ynrad
L u
L ing
L IEW
M I
M l
M on
M ih
M es
M ii
M ak
M tt
M ano
M ikir
N I
N P
N t
N ujor
N aitung
N UD
O U
O a
O l
O t
O ne
P U
P r
P re
P ugh
P han
P AW
P res
Q h
Q gi
R h
R ai
R hi
R ym
R EI
R abon
R isaw
S C
S f
S p
S s
S ei
S at
S iang
S id
S ir
S hai
S OH
S EW
S IAT
T c
T aid
T ymmen
T his
T hoh
T EM
U d
U f
U p
U s
U en
U ni
W f
W iang
W el
W AT
Y ong
\ '
] )
^ Â»
a ar
a ce
b f
b v
b ia
b el
b us
b lia
b iab
b ura
b ilat
c T
c ing
c oh
c ta
c ent
c hai
d ok
d iat
d ir
d ik
d ui
e on
e an
e us
e ch
e ned
f j
f k
f u
f ie
f is
f om
f ip
g u
g ne
g am
g en
g ree
g apur
h W
h ha
h et
h ieh
h ynriew
h uwa
i U
i ut
i khie
j D
j ym
j eng
j ud
j una
j uli
j hur
j iiig
j ustice
k I
k eh
k yl
k ynd
k wa
k raw
k iaw
k br
k oog
k ow
k per
k shaid
k yndit
k put
k ynrih
k ihia
l iem
l ub
l wai
l st
l ath
l ara
l oc
l elt
m th
m eh
m thei
m ii
m uid
m nt
n w
n ut
n ung
n ir
n iaw
n ban
n iet
n riew
o x
o la
o oi
o ub
o ung
o wa
o as
o bar
p om
p iah
p il
p ed
p dang
p boh
p ula
p ute
q a
q j
q w
r c
r w
r ol
r mg
r lat
s ul
s el
s ub
s iaw
s bak
s yngkai
s umar
t op
t dong
t gi
t ran
u im
u thuh
u ney
u shar
v g
v l
v et
v ent
v ell
w h
w ong
w em
w ow
w rit
w bih
y ot
y thei
y od
{ ^
| )
Â ¥
â Ħ
Ġ ada
Ġ erbih
Ġk q
Ġk ja
Ġk mg
Ġk oog
Ġk lah
Ġk Ji
Ġk vi
Ġk rau
Ġk Bia
ng t
ng er
ng kat
Ġka v
Ġka ka
Ġka sngi
Ġka oa
Ġka dur
Ġka he
Ġka vv
ba na
Ġba un
Ġba kor
Ġba se
Ġba shah
Ġba bit
Ġba bok
Ġba lung
Ġba ias
Ġba shit
Ġba phuh
Ġba kham
ha og
ha lor
ha dong
ha nd
Ġl ukom
Ġl ymmen
Ġl ber
Ġl cit
Ġl iad
Ġl ess
Ġl oni
Ġl icng
Ġl AID
Ġki at
Ġki ah
Ġki ti
Ġki da
Ġki bn
ia ti
ia lang
Ġs q
Ġs is
Ġs no
Ġs yll
Ġs ok
Ġs pa
Ġs ylla
Ġs fi
Ġs kam
Ġs eb
Ġs tab
Ġs icw
Ġs qu
Ġs ide
Ġs khor
Ġs cripts
Ġs icj
Ġu e
Ġu ang
Ġu id
Ġu oo
Ġu wet
Ġu tn
Ġu vvei
Ġj v
Ġj ba
Ġj li
Ġj il
Ġj ro
Ġj cm
Ġj oin
Ġj endar
Ġj dng
Ġj nig
Ġj yliiew
Ġp k
Ġp w
Ġp ie
Ġp is
Ġp bah
Ġp ir
Ġp by
Ġp bad
Ġp buh
Ġp pr
Ġp ower
Ġp brang
Ġla ai
Ġla im
Ġla ni
Ġla trei
Ġla thub
Ġla ck
Ġla jia
Ġla tbuh
Ġla lt
yn mih
yn jah
yn paw
yn siang
yn beit
yn oad
ei g
ei w
ei y
Ġia a
Ġia rai
Ġia wai
Ġia il
Ġia shai
Ġia noh
Ġia tei
Ġia thiah
Ġd y
Ġd im
Ġd ol
Ġd ic
Ġd od
Ġd oc
Ġd ial
Ġd iction
Ġd ictionary
Ġd bn
Ġd iir
Ġd heng
Ġd ream
ĠK N
ĠK iew
ĠK ew
ĠK ra
ĠK eb
ĠK uj
ĠK yntur
ĠK OH
ĠK hin
ĠK vm
ĠK YLL
ĠK pep
ĠK elvinell
ie k
ie ve
ie ved
Ġn uh
Ġn un
Ġn ut
Ġn ti
Ġn ch
Ġn ib
Ġn oan
Ġn niang
Ġn icw
Ġn ational
Ġt C
Ġt x
Ġt ta
Ġt iem
Ġt et
Ġt ynt
Ġt aid
Ġt ada
Ġt ni
Ġt nar
Ġt fa
Ġt ail
Ġt aleh
Ġt ory
Ġt oll
Ġha j
Ġha u
Ġha th
Ġha iig
ing ap
ai y
ai or
ai re
Ġbad e
Ġbad u
Ġb p
Ġb ing
Ġb hi
Ġb ti
Ġb ish
Ġb tang
Ġb thi
Ġb lap
Ġb oa
Ġb lait
Ġb dt
Ġb dm
Ġb cin
Ġb kd
Ġjing em
Ġjing al
Ġjing rong
Ġjing baptis
Ġjing ini
Ġjing ich
Ġjing icit
Ġjing arsap
Ġjing ihoh
hi c
hi ll
hi ro
ta ta
ta ge
Ġr c
Ġr og
Ġr oog
Ġr oa
Ġr ose
Ġr tih
uh mat
ar h
ar aw
ar pa
ar ter
ar yngkat
Ġm n
Ġm th
Ġm ew
Ġm un
Ġm ok
Ġm ath
Ġm uli
Ġm uifi
Ġm isb
Ġban m
Ġban at
Ġban yng
ne e
ne er
at s
at t
at y
at rei
ĠU ter
ĠU rim
ĠU wci
ĠU riah
ĠS m
ĠS uh
ĠS og
ĠS to
ĠS ein
ĠS neng
ĠS ima
ĠS yndai
ĠS khem
ĠS nar
ĠS ngl
ĠS bang
ĠS bit
ĠS lew
ĠS EP
ĠS oskular
ĠS osa
ĠS enior
on um
Ġi A
Ġi M
Ġi N
Ġi ie
Ġi th
Ġi ti
Ġi ka
Ġi id
Ġi ung
Ġi dei
Ġi pb
Ġi Mi
Ġi ypa
Ġng eh
Ġng et
um e
Ġkh p
Ġkh uh
Ġkh uk
Ġkh ti
Ġkh ylli
Ġkh ft
Ġkh usi
Ġkh rist
Ġkh tem
Ġkh tin
Ġkh heh
Ġkh oang
or kha
or pi
Ġsh eng
Ġsh oi
Ġsh ob
Ġsh ynshar
Ġsh ow
Ġsh uli
Ġsh nat
Ġsh ynnai
ĠKa j
ĠKa si
ĠKa dei
ĠKa Jing
ĠKa wci
ĠKa Pyrthei
am a
Ġ( (
Ġ( Â«
Ġ( âĢľ
ĠB J
ĠB b
ĠB n
ĠB ait
ĠB ph
ĠB HA
ĠB ishni
ĠB YM
ĠB OOK
Ġpyn ur
Ġpyn bah
Ġpyn iat
Ġpyn ma
Ġpyn de
Ġpyn lap
Ġpyn shang
Ġpyn nep
Ġpyn ngad
Ġpyn baji
Ġda shi
Ġsha kup
Ġsha jngai
Ġsha niab
ĠH E
ĠH U
ĠH g
ĠH ng
ĠH og
ĠH ib
ĠH ug
ĠH ook
ĠH ano
yr n
yr khong
yr lim
Ġlong ur
Ġlong brieu
Ġlong bricw
ĠN Q
ĠN y
ĠN ing
ĠN em
ĠN as
ĠN ol
ĠN EI
ĠN ature
iew kor
ĠJ f
ĠJ ut
ĠJ ad
ĠJ et
ĠJ il
ĠJ ch
ĠJ wat
ĠJ AN
ĠJ dr
ĠJ OS
ĠJ adu
Ġna ag
la f
la ba
la use
th m
th eh
th iab
Ġkum t
Ġkum tai
Ġkum ao
em a
em phang
ĠM b
ĠM d
ĠM eh
ĠM eit
ĠM ut
ĠM ien
ĠM ylli
ĠM ish
ĠM ON
ĠM ast
ĠM luh
ew bha
ew se
ĠL T
ĠL V
ĠL ha
ĠL yr
ĠL iar
ĠL ynn
ĠL ain
ĠL ib
ĠL uri
ĠL nm
ĠT A
ĠT ei
ĠT it
ĠT al
ĠT as
ĠT dong
ĠT iai
ĠT dem
ĠT ula
ĠT ihon
ĠT nad
ĠT rench
it ha
it ei
ur ity
en da
en ith
en ces
ĠP A
ĠP ep
ĠP na
ĠP ug
ĠP lan
ĠP uri
ĠP yt
ĠP bin
ĠP ock
aw ar
ym es
Ġdon jing
Ġdon sot
Ġth ub
Ġth us
Ġth ch
Ġth wat
Ġth ieb
Ġth rew
Ġth ynram
Ġw hile
is bar
is diction
ut t
ĠI ia
ĠI ti
ĠI ma
ĠI cn
ĠI ano
ĠI van
ĠI tir
ĠI hen
ĠI phur
Ġngi u
ien ah
ot o
ot ed
ad o
ad ie
ad onkam
ynr u
ynr eit
Ġshi ing
Ġshi mat
Ġshi kit
Ġshi bon
ĠD l
ĠD n
ĠD ie
ĠD ad
ĠD op
ĠD us
ĠD ano
ĠD IST
ĠD ienshonhi
om ai
om ent
Ġh p
Ġh ul
Ġh ob
Ġh ynrai
Ġh ead
Ġh oin
Ġh ope
ĠR O
ĠR t
ĠR yr
ĠR et
ĠR ok
ĠR ONG
ĠR YMP
ĠKi i
ĠKi ri
ĠKi na
ĠKi juh
ĠKi oe
yng ba
al eit
al ow
Ġnga a
Ġnga la
Ġpat ong
kh m
kh t
kh ra
kh iar
kh ci
kh eifi
kh nai
kh ria
kh lein
Ġkyn ia
no un
in ia
in ai
in an
in men
Ġnong w
Ġnong ra
Ġnong lang
Ġnong bam
Ġnong phet
Ġnong wci
Ġnong dup
ĠHa pd
ĠHa flong
Ġkha l
oi c
oi k
oi r
sha l
sha la
Ġkat u
Ġkat ia
Ġkat tne
ti ff
ti kmie
ka juh
ap ha
id ai
id uh
id ew
Ġbr a
Ġbr ing
Ġbr ok
Ġbr ought
ul am
ul it
ul lai
ul ation
Ġkam e
Ġkam ta
ĠA it
ĠA sh
ĠA ma
ĠA dong
ĠA ber
ĠA rim
ĠA kad
ĠA va
Ġ: -
Ġong i
kha la
kha lai
Ġne g
Ġne eds
Ġne cessary
Ġioh ipaw
Ġmyn dar
Ġmyn kren
Ġbar m
Ġbar iew
Ġpyr ihci
ĠKha ei
ĠKha rai
ĠKha wa
âĢĿ *
âĢĿ ?
Ġkata ka
Ġhi ran
âĢĻ %
âĢĻ -
âĢĻ '.
Ġai ft
el ess
sh rieh
sh uri
Ġwan t
Ġpor ba
Ġsngew n
Ġsngew suk
Ġsngew phuh
Ġsngew miat
Ġsngew thnh
Ġsngew kynjah
ip hang
ip thong
ĠKh ia
ĠKh wai
ĠKh leh
ĠKh usi
ĠKh riat
Ġph yng
Ġph lei
Ġph yllung
Ġph eu
ra j
ra en
ra cy
Ġsa ta
Ġsa kai
Ġsa gi
Ġsa jia
ĠNg ai
os g
os s
ĠNong i
ĠNong bab
ĠNong soh
ĠNong ks
ĠNong seng
ĠNong bet
Ġkyr i
Ġkyr th
Ġkyr ni
Ġkyr wat
Ġkyr leng
Ġkyr thai
ri o
ri ne
ri ot
ri lung
nong trei
Ġa ia
Ġa ai
Ġa an
Ġa uk
Ġa ap
Ġa amar
Ġa ob
Ġa har
Ġa hisha
Ġa his
Ġa uki
Ġa ffix
na k
ph r
ph ling
thuh paw
Ġ3 30
Ġ3 34
Ġnang ang
Ġnang bha
Ġnang wan
Ġnang iai
Ġnang hiar
Ġar l
Ġar ng
Ġar am
Ġar kti
Ġar phong
Ġkhl eni
ĠW is
ĠW ieng
ĠW es
ĠW ea
Ġjings ait
Ġjings iat
Ġjings iaw
Ġjings his
Ġpha la
Ġpha ri
Ġpha og
Ġpha rep
Ġpha tok
Ġpha loh
Ġleh bein
Ġleh meng
Ġ* "
es c
es es
Ġri i
Ġri jied
ĠLa kad
ĠLa khyrwang
ĠY ang
ĠY arap
ĠY ateh
Ġja o
Ġkhun langbrot
Ġkhun jien
Ġtha dai
Ġshong shang
Ġjingk m
Ġjingk ym
Ġjingk bang
Ġjingk iiia
ii u
ii on
ii it
ĠE A
ĠE no
ĠE ngi
ĠE ver
ĠE be
ĠE manuel
ĠE conom
Ġhap o
wa a
wa k
Ġ4 30
as iem
as in
as nam
as ons
as ngewthuh
Ġum bah
Ġum syep
Ġdang im
Ġjingia thong
Ġjingia phet
Ġhaba n
ĠC B
ĠC H
ĠC S
ĠC HA
ĠC ec
ĠC ard
to a
fi f
fi j
fi r
ĠSyiem i
ynn iar
Ġjingp roh
Ġjingp jm
Ġjingp uson
Ġjingp hawar
Ġjingp ruid
Ġthoh dieng
li b
li nes
Ġma un
Ġo l
Ġo cc
Ġo ught
men tari
ma f
ma la
ma ham
ĠG u
ĠG ra
ĠG ab
ĠG lossary
ĠJing i
ĠJing r
ĠJing leit
ĠJing shah
ĠJing iad
ĠJing kylla
ĠJing dum
ĠJing sawa
ĠJing khiah
ĠJing tim
ĠJing iakren
ĠJing myntoi
Ġun d
Ġun k
Ġtip thuh
ir g
Ġmih khmat
Ġf u
Ġf ta
Ġf at
Ġf eh
Ġf ap
Ġf lia
Ġf ool
Ġf ull
Ġf olk
Ġf uture
Ġ5 16
il u
il ung
il iej
il ian
il bert
Ġ. '
Ġ. *
Ġbun jaid
ol ution
us cript
us cripts
lang mat
lang thari
de v
ĠShi bit
Ġ19 43
Ġkl an
Ġkl wei
Ġkl to
ab ib
ĠSha wei
ĠSha id
ĠSha nd
ĠSha jan
ĠSha pbang
ĠSha ndi
ĠSh r
ĠSh er
ĠSh kor
ĠSh loin
ĠSh elley
Ġmar ia
Ġmar biang
Ġmar wci
Ġmar khap
Ġmar pyrshah
Ġmar yngod
Ġmar riage
ĠTh eh
ĠTh iaw
ĠTh ombor
up let
Ġks em
Ġks uit
mie l
Ġpar at
Ġpar iah
ngi ih
Ġhang la
bar son
Ġim sngi
Ġ7 36
khat duh
Ġ^ -
Ġsah nar
Ġdoh iap
Ġdoh jem
Ġdoh sniang
ĠâĢĻ .
Ġkhlem rain
Ġlyng ai
Ġlyng ka
Ġlyng shop
Ġbym khuid
Ġbym nang
Ġc e
Ġc um
Ġc am
Ġc lai
Ġc ultural
Ġc ustom
Ġlang lait
Ġpyns kh
Ġpyns dien
Ġpyns hisba
Ġpyns kbem
Ġman bha
Ġman shwa
Ġwat er
ĠBa ka
ĠBa shan
ĠBa chiar
Ġdur a
Ġdur ing
Ġdieng rai
Ġdieng khong
Ġjingt baw
Ġjingt hikna
Ka T
Ġtar g
ed ule
ic ipal
sa v
sa ja
sa khi
eb i
eb ok
Ġsb kor
Ġsb oog
Ġsb iak
Ġsb eptieng
Ġkhn stan
Ġ8 10
Ġ8 80
Ġ8 50
Ġ9 33
19 12
19 26
19 50
19 32
19 46
19 39
19 47
19 48
19 43
19 96
19 94
Ġsaw doog
NG EW
Ġiing im
Ġiing ka
Ġiing sad
Ġiing khun
Ġiap ngiah
ĠBal at
ĠBal ci
ĠBal lad
Ġ18 28
Ġ18 26
Ġ18 86
Ġ18 62
ch y
ch er
ch es
ĠV en
ĠV angbah
ĠV ll
ĠV owel
ĠV oL
Ġbat t
Ġbat lem
ĠMar s
ĠMar ne
ĠMar tha
ĠMar dor
ĠMa jai
ĠMa cbeth
Ġriew nang
Ġriew khlaw
Ġriew rangbah
Ġriew arsap
Ġriew runar
Ġriew phoi
ĠO ur
Ġlum bah
Ġpeit thuh
Ġpeit ngor
ki ta
tan ia
tan ce
Ġme an
Ġme taphor
ĠKA T
Ġkb i
Ġkb et
Ġkb leh
Ġkb ristan
Ġkb uslai
Ġkb lieb
Ġin n
Ġin on
Ġin ut
Ġin fix
Ġin fluence
Ġjingpyn l
Ġjingpyn ieng
Ġjingpyn khuid
Ġjingpyn ias
Ġjingpyn hiar
Ġjingpyn khiah
Ġling kur
Ġsam ikhie
Ġlai S
Ġlai fl
ĠMaw ber
ĠMaw pat
ĠMaw dem
ĠMaw khan
ĠMaw jem
ĠMaw lynnai
ĠMaw lyngknot
ĠDon bos
le a
st in
Ġshis la
Ġshis yrtap
and id
ni ut
ni id
Ġshit ynrai
kor a
shi l
iap deng
iap saw
Ġmaw k
Ġmaw san
Ġmaw dur
ĠNa zar
ĠNa kra
ja a
od uma
br l
br am
ĠJong no
Ġpa kai
Ġpa kora
ĠPa ki
ĠBar e
ĠBar i
ĠBar it
ĠBar abor
ban se
Ġkit ci
ĠSoh um
ĠSoh mad
ĠSoh ryngkham
lam phang
iet t
tha d
Ġde ar
ian ujor
ish ong
Â« >
re o
re al
re og
re ed
re ation
Ġpynp ei
Ġpynp ang
Ġpynp iar
Ġpynp yut
Ġthaw dur
Â» Â»
Ġst ub
Ġst op
ĠBan yngkong
Ġsoh lang
Ġsoh khlaw
Ġsoh tyngk
Ġji it
Ġji qg
âĢĺ *
jing ai
jing ialeh
ĠUm l
ĠUm ta
ĠUm iew
ĠUm ni
ĠUm ran
ĠUm sang
ĠUm khen
ĠUm panai
ĠYa kren
Ġkyll ang
Ġkyll ep
ram me
Ġpyni ut
pyn iap
pyn paw
ig ta
ig hikai
Ġlut n
ak s
ak hi
ag on
ag eit
ug i
ĠPr iest
Ġjingd ait
Ġjingd ub
mg ba
ĠF er
ĠF arad
ĠF eder
bat e
Ġkut lad
Ġkut shari
Ġkut jingmut
Ġbud on
Ġpyrsha og
Ġlab uh
ĠMan ners
Ġjia gi
Ġly p
Ġly eit
Ġly ati
Ġpy U
Ġpy p
Ġpy s
Ġpy u
Ġpy tt
nd ai
nd onkam
Ġkt un
Ġkt ian
Ġkhraw tam
Ġpaw a
Ġpaw dar
Ġsba ng
Ġsba ta
Ġsba poh
Ġsba phaog
rep osition
jan miet
sngew nguh
ĠâĢ¢ *
ĠâĢ¢ âĢĶ
Ġv r
Ġv el
Ġv ol
Ġv ote
Ġii o
Ġii ta
Ġii la
Ġbak an
Ġbak ren
Ġbak uid
Ġbak thang
Ġkynr iab
Ġlam doh
Ġjingsngew khia
Ġjingsngew sarong
Ġjingsngew sib
Ġlad ep
Ġkhr ui
ĠJer man
ĠHad ub
tar jekshon
Ġshad ub
Ġshad iih
Ġmon o
ow s
tb ie
Ġiak b
Ġiak yang
Ġta x
Ġta bah
Ġta ught
ter y
ĠPaul us
lai ong
lai ig
Ġky or
Ġit n
shong thait
Ġtb uh
Ġtb wei
Ġloh g
Ġloh l
Ġloh thiah
ĠShil lon
Ġpynkh oh
Ġpynkh lai
ĠKI M
ĠKI T
ĠKI KOT
ĠKI KHLAWKI
Ġ17 24
Ġkba w
Ġnia in
Ġter y
Ġter rit
nam pliang
Ġkp ait
Ġthi ong
Ġthi ieh
Ġthi nk
Ġthi cd
Ġtrai ning
Ġjin f
Ġjin mut
Ġjin jar
Ġjin jg
Ġkhi roh
Ġsyr iiem
Ġkyrp at
Ġjiog n
Ġjiog t
Ġjiog iat
Ġjiog ieit
Ġjiog hikai
Ġjiog trei
Ġjiog sniew
Ġjiog iarap
Ġjiog shisha
Ġjiog pyrkhat
ĠTang rai
Ġnam af
Ġsy ik
Ġsy od
Ġg en
Ġg ospel
Ġg ather
Ġdu e
Ġ20 5
Ġ20 11
lap san
ber a
ber for
Ġtyr amen
Ġtyr kbong
mar wei
ĠSa ian
Ġias y
Ġias um
ĠPha h
Ġjingi jli
ĠKba d
ĠKba m
Ġmat lieh
Ġmat lab
Ġjmg tip
Ġjmg sniew
Ġjmg pule
Ġnongp ul
Ġnongp rat
Ġpynia thoh
Ġpynia kynduh
Ki ei
Ki ta
Ġnongthoh kot
lia b
ĠKot khubor
Ġing ong
Ġing syiem
Ġing mane
Ġing tyrkhong
ĠKam ai
ĠKam ju
Ġ22 3
Ġ22 4
Ġ22 5
Ġ22 6
Ġpr ut
Ġpr ot
Ġpr im
Ġpr inc
Ġpr oof
Ġpr odu
Ġbi rai
Ġbi jai
Ġ23 1
Ġ23 2
Ġ23 3
Ġ23 4
Ġ23 7
Ġkhat d
Ġkhat phra
Ġjingkh ub
Ġjingkh lem
ĠTe a
ĠTe xt
ĠTe chnical
Ġship awa
Ġnongia id
Ġsim pyllieng
Ġsim ply
ĠIa lap
ks ew
ks amin
Ġtr op
Ġtr eb
ĠDr in
Ġkynt iap
Ġkynt len
ĠX i
ĠRom e
ĠRom iiia
ĠRom eo
Ġjai i
ĠAp ollo
16 7
ĠPat er
ĠPat rick
ve olar
ĠHat e
Ġbas mat
Ġbas ian
Ġbas noh
ĠSt ieng
ĠSt ieh
ĠSt eifi
ĠSt ream
ĠHang nc
14 6
tei s
jong no
jong ki
Ġpan tabat
di oh
bl ur
Ġ24 4
Ġ24 8
haw er
ĠBA S
Ġphuh samrkhie
ĠSaw seng
ĠPyn long
ĠPyn iaid
ĠDur gapur
IE R
khi c
Ġre al
Ġre asons
Ġjar jar
Ġat nud
Ġat tack
Ġy ada
Ġjingtip blei
Ġe k
Ġe ba
Ġlym bit
ĠRev iew
Ġpait bab
Ġjingsh ep
Ġjingsh yrkhei
Ġsynr am
ĠJo in
Ġ26 1
Ġ26 8
Ġ] )
Ġ] Â»
ĠPh r
ĠPh om
ĠPh ud
ĠPh reis
ĠPh yllaw
ĠPh ewse
lur a
Ġhad uli
Ġhad iea
Ġ28 3
Ġ28 4
Ġ28 9
ĠAr tic
ĠAr tylli
ĠAr tet
ĠAr juna
ĠSor phin
Ġad nud
Ġkajing ai
Ġkajing pyn
Ġkajing kren
Ġkynth oi
Ġkynth ung
Ġkynth uit
Ġkynth rung
Ġli it
Ġli ima
Ġjingkyr huh
Ġkn tik
Ġtn ut
Ġtn al
Ġtn ynta
Ġjur isdiction
ĠBab ylon
Ġsyn len
Ġsyn jap
Ġ25 4
Ġ25 6
kur iaw
Ġmo ther
ĠLait iam
ĠLait thma
ĠLait met
ĠLait phlang
ĠLait tyr
ĠLait dom
Ġ27 2
Ġ27 6
Ġjingl yn
Ġjingl ute
Ġjingl ynniar
Ġby uta
ĠJu ban
Ġsniew bok
iel t
ĠRam jit
ĠKhun lung
Ġfi re
Ġfi iad
ĠLong dien
ĠLong sem
Ġrep res
tia k
tia l
ĠKyn kh
ĠKyn hun
Ġ29 2
Ġ29 4
Ġbap ar
Ġbap ang
Ġbap er
Ġbap tis
Ġbang to
Ġbang tai
Ġfa ct
Ġsor ki
ĠTiew iwbih
tai ned
ĠIn t
pha h
ĠSan phew
Ġjingiap oikha
Ġni uma
Ġjingkha d
Ġra a
Ġra iet
Ġra ce
Ġra shing
ĠAn na
ĠAn cient
ĠAn apaest
lan tic
Ġ21 5
Ġbe g
ĠLap lat
Ġiam rem
ĠJING THOH
ĠJING IEIT
ĠJING WAN
Ġmei duh
ĠMat han
ji oh
ji ra
ji fi
Ġnongs yn
Ġnongs ei
lyng ngi
ĠDieng duh
ĠDieng rai
ĠDieng phna
ĠKH YND
ĠKH EIN
Ġkhaw iang
Ġkhaw oit
ĠAi B
ĠAi jal
ĠAm phi
Ġ& .
ĠWah um
ĠWah duid
Ġnongsh na
reh en
had oi
ĠMei san
ĠMei rilung
Ġjingshai ong
Ġbs ap
Ġbs iap
oun ds
Ġsap oh
Ġsap ied
Ġshy or
Ġah ym
ĠApos toi
ĠRang blang
ĠRang damut
iii uh
IA N
Ġart ylU
ler n
ĠKan t
ĠMynta ng
ĠTes let
Ġkup ar
Ġtam a
Ġjingiathuh kbana
ĠKs ai
ĠKs iew
ĠKs ain
ĠAb sol
LA M
ail ed
Ġ0 6
kb ia
kb lieh
Ġkm c
Ġkm ienah
ĠMynt oi
dor sha
Ġker kut
Ġsab ep
Ġ193 5
Ġdong la
ĠTa iew
our s
ĠIm m
ĠIm n
ĠKl oi
Ġthei rit
las sical
cit y
Ġbab eh
Ġbab el
Ġpynsngew tynnat
ĠBam ew
ĠBam brai
Ġdew thala
Ġdew bilat
Ġnongpyn khuid
Ġnongpyn her
Ġnongpyn shitom
Ġnongpyn jynjar
Ġlaiph cw
Ġ< âĢĺ
ial eb
ĠLam b
ĠLam ph
Ġsl m
ĠSy ih
ĠSy oteng
ĠKyr klia
Ġkhyll ieng
Ġkhyll ud
ĠPresby te
ĠKb ynnah
ĠKb yrim
ON I
ON Q
ĠKhong tir
Kh ong
Kh lem
Kh ristan
Kh law
Kh rist
oin ted
ĠSch olar
Ġpynshong dor
Ġkaj u
Ġhe cter
Ġjl ing
Ġjl og
Ġjl ngl
Ġjingr wal
Nong bah
Nong thoh
ff ered
Ġle hi
Ġle og
Ġkynj ik
pe lah
Ġog l
Ġog eit
Ġkul di
Ġphan karo
Ġjab oh
ĠSym bol
ĠJait bynnew
ĠJait bynricw
.' .
ĠSal oog
phi m
Ġkor bari
Ġsal an
ĠEd mund
Ġkhad wai
Ġkhad phra
Ġbu o
Ġshat ci
ĠLA P
ĠLA NG
tr ol
tr ci
tr ophi
tr ymen
Ġbaj ngum
Ġpynth ep
ĠHyn men
Ġmy o
Ġmy os
Ġmy us
Ġkhong oid
ĠHer e
ĠWan phai
ĠBor than
kyr doh
ĠRal te
bu ih
Ġlu bab
len i
ias yllok
Ġsai siej
Ġkhap rip
ĠKHA Sl
ĠIng khong
ĠRab bi
Ġca use
Ġml h
ju tang
ju bab
Ġkhyn iiiuh
ĠNongia shim
Ġ189 3
Ġ189 9
ĠPan tabat
Ġtim es
Ġ38 8
Ġpynph yrnai
ĠPar ry
TH YMM
lar ap
ĠQ aro
Ġtyll up
Ġtymp eu
Ġnongt eh
bri b
io li
ĠSer ies
sb ong
sb op
Ġper soh
lyngk siar
Ġop g
Ġop ened
Ġbai bam
ĠKol phling
ĠSec re
ĠPo ar
por ts
Ġpd iaog
eu thuh
Ġ\ ^
ĠJan ailar
ĠPait puraw
ĠSar on
ĠJai ong
ĠJai pdeh
lo es
Ġdi oh
ĠLy ag
ĠLy tig
ĠLy ons
pr ew
ĠNONG S
ĠNONG BAH
ĠVI L
ĠKom mentari
Ġkei d
ĠKai ro
... ^
ĠJon h
Ġwa o
Ġkli w
Ġkhyndai phew
Ġtt g
Ġtt ba
oni um
Ġiab ujli
Ġnat ural
ĠKim ju
ĠJingpyn im
Ġty ip
ĠSc orpi
ĠSob pet
Ġab ynrong
pan i
ĠSH NONG
ĠTyr os
ĠDoh ory
ĠAl bera
Ġjiag im
Ġpla y
ĠTar ik
ĠTar sos
Ġnew s
ĠSi og
ĠMes opotamia
Ġ47 0
ĠBath ym
dieng ngai
Ġlo ve
ĠWel fare
Ġ70 1
Ġcom m
Ġcom pet
Ġcom par
ĠJingia pher
ĠPers yntiew
Ġhynr oi
Ġkyrk oh
Ġtaw ah
KA S
Ġiw ci
pb na
Ġarphew san
Ġiashong kai
ĠPhilip pi
Ġnoog wei
ĠSb nong
ĠSb uwa
ĠSb ynrang
ĠSb illong
Ġpyrth oi
Ġsynt it
Ġkhlei fi
Ġse en
Ġse ag
Ġial ch
Ġial ympat
ĠMo vement
ĠRiew lum
198 8
ĠXX IV
Ġex pen
Ġex pl
Ġex pression
Ġkheifi jait
ĠJingk nia
ĠJingk fiia
195 8
ĠEs pi
Ġpli in
ĠSngew batip
ĠPom sh
Ġlas ier
Ġlas ubon
Ġtm aifi
ĠNai or
Ġmem ory
ĠRe f
ĠRe for
Ġ200 2
ĠShong kha
ĠShong wan
Ġjinglait im
Ġru icom
ĠJar vie
lin well
ĠKy ieng
Ġbur ora
ĠJap lem
Shi llong
Ji uh
ĠKajing long
Ġhim self
Ġbid t
Ġag ent
Ġag ree
gew bha
Ġro ut
Ġro ynsiem
Ġrud wah
ĠHy orei
ĠNep ali
lak ud
ĠPre k
Ġdar k
ĠKn mta
ĠMang ka
ĠMang kara
ĠTr ip
ĠTr op
ĠGi ta
Ġpyo ban
ĠEli ja
Ġjaifi kup
ĠRyn sut
ĠMad ina
Th omas
Ġjon p
Ġbadon nam
Ġkhu ii
Ġshap brang
ĠJe an
ĠUmsoh lang
Maw mluh
Ġer op
ĠCha tan
bynr ap
Ġsuid iap
Ġsuid lum
Ġpvn long
Ġmuk oduma
Ġpyrd aifi
Ġfl ed
Ġrn b
Ġrn ynsiem
for m
Ġiasngew tbuh
ĠSba la
ĠSba ni
ĠSba pbang
ĠSba inimon
Ġkhlai S
Ġ188 8
Ġkura ba
Ġkura ne
YR WA
Ġnongai buit
Ġnongai ksuid
PH EW
ĠZ enith
Ġlor n
ĠNat han
ĠShyr mit
Ġjtng im
Ġiaieh kai
Ġkhm al
thing saw
thing iong
ĠNongsh ken
Ġbakh lai
Ġtym em
Ġtym buit
ĠBym jukut
Ġpyntha ba
ĠMu iar
Jo el
ĠKYN J
ĠKYN T
ĠPub on
ĠPub lished
Ġ199 1
Ġ199 2
stan ce
Ai u
Ġwit hin
ĠIs kariot
ĠDA B
ĠDA NG
Ġphad ri
Ġsbis ngi
Ġjn bab
Ġiath ied
Ġdai fl
Ġmas orkha
ĠMala y
Ġtran s
Ġtran sla
Ġkub i
Ġmi it
ĠHor eb
ĠRyng ud
Ġiapyn i
Ġiapyn iap
Ġkuin juh
ĠVol unteer
hur y
kr cn
Ġjit ig
ĠMy il
Am irphor
Ġpu ie
Ġpu ja
Ġtal ain
Kat no
Kat to
Ġkym bat
Ġmishon ari
inc ial
Ġbrie v
ĠLur miet
ĠPYN DON
sm eh
ĠKu hiw
Ġmus li
ĠNar tia
ĠNar puh
Ġpyrs ut
ĠKhad sawphra
ke y
Ġie og
Ġjingla dei
ĠMus apha
ĠDaw ki
Ġkynih ei
Ġout side
Ġsta ll
Ġsta tion
ĠHind us
ĠDi long
ĠDi br
ĠJingp yllait
ĠKHU W
Ġnor g
Ġbuj ai
Ġmyll iem
Ġsbim ti
Ġvi ol
kal iang
Ġq uite
Ġord ain
Ġtf ie
Ġshapha ug
Ġthir d
ĠOndrom uney
ING AP
Ġmoh or
ĠBe de
tyng shain
Ġbal it
ĠNongl ba
ĠPyrt fiei
NA D
Ġny ag
Ġbii cw
Ġbii rom
Ġbir iew
ĠjingY akajia
ĠSup plier
ĠMed ia
ĠLe gal
ĠRop eca
Ġjingsng ur
Ġsaph up
ĠWahadadar s
Lyng dob
Ġbaiong khlieh
Ġkib k
Ġrng op
Ġkhrai h
ĠNiang kwang
Ġjingiam rem
rr thei
Ġjap ha
Ġjap ieh
Ġiatip lem
ĠSu ch
ĠJor manik
ĠPH EW
ĠGil ead
ĠEurope an
Ġyr o
ĠKJ P
Ġnongi ohi
Ġacc ording
Ġjb ng
Ġpet iti
Ġrec om
ĠSp ecial
ĠMam la
ĠMam re
ĠMet or
ĠAt lantic
Ġmark et
Ġboh khaila
ĠSpar bah
Ġsham oit
ĠIw bih
Ġfliew kor
VI l
ĠTb ymmei
ĠPAT ENG
Ġlyngng ob
Ġinter biw
Po em
mad an
Ġliter a
Ġsii k
Ġjyngk nia
ĠSd ad
Ġjaitbynr iaw
Ġcol lect
ĠMaka sin
Ġiasyr lem
ral ia
Ġshngai h
ĠMul ieh
Ġkynh ied
ĠThied ding
Ġread er
Ġread ers
Ġcomp ound
ĠDeut ero
Lang brot
Tang ba
Ġkv lla
Ġkon j
Ġjt og
ĠMil ken
ĠTew diar
Ġricw spah
Ġge ner
ĠXXX V
Phar sbi
Ġbm p
ĠLukhi mai
Ġfr uit
ĠVi vekan
Ġpyt thei
Ġ79300 5
POH LIEW
yon ad
Ġkw ali
Ġsew beh
Ġkynsh reng
ĠWeb star
haract er
Ġkbat n
Ġkbat dub
Ġbasngew tynnat
Ġtli oh
ĠHum an
ĠDel phi
rib ute
ĠWor k
ĠCan vas
Ġoong thoh
ĠGar field
ĠGar linwell
ĠVictor ia
tit ude
ĠpynT eng
ĠLo is
ĠPuk ir
ĠParad ise
Sad ew
ĠkU em
Ġskai fi
Ġpoit n
ĠSYN SHAR
ĠKhraw lang
ĠCam illa
Ġsbip ai
Ġsbib nai
Ġsbib uo
Ġtrait ors
kynr oh
Ġsit u
Ġstan dard
ĠPoh shna
Ġthy iliej
Ġjingiai neh
ĠShy iap
cep halo
Ġent ered
ĠBot kha
ĠBot rai
Ġass ist
Ġjingshi trhem
ĠCar bon
led ge
ĠUM POHLIEW
ĠAust ralia
Ġauthor s
Ġartic les
Ġjingiathub lypa
Ġjingiathub khana
Ġcar bon
Ġjingtha u
Ġpyok ylla
ĠJINGR OI
toh rih
Ġiaim inot
Ġagi o
Ġjingpynia suk
Ġsaih dur
ĠXXI X
ĠChand ranath
tymp em
ĠJt NG
ĠRow ie
Ġpaj ut
ĠKyrshan lang
Ġkari wan
Ġkiun ba
Ġtre es
ĠSN EM
ĠSTA LL
ĠSTA TE
ĠNongkh lieng
Ġpynkhyll ew
Ġrequ ired
Ġamong st
Dieng doh
Ġsoc ial
anc ial
Ġ(/ )
ĠMynd er
Ġpyrtb el
Ġfai th
Ġstud ents
ĠSav it
Ġprop er
ĠNongiathuh lpa
Ġshia ha
Ġthough t
Ġphng ian
Ġumshit ja
Ġcl ose
Ġkyip ad
act ing
ithuh paw
Ġkilom eter
Ġple ase
ĠMun icipal
ĠTon ic
ĠPeng wem
ĠIda s
ĠNongum long
Ġpynsng cw
Ġjingtyng shain
Ġbamar wei
Ġsohkha u
ĠPyrth el
Ġpyntyr khong
Ġestab lish
Pud Sepngi
Ġtynd ung
Ġrait ong
Ġrukor n
Ġmya ta
ĠUTh omasJones
Ġkhv nd
ĠHes ina
ĠJul iet
Ġsngewsh eptieng
ĠCat echism
Ġfam ily
Ġborrow er
Ġsohkh liang
Ġsbap baog
ĠTeach ing
ĠTeach er
ĠAmir kha
Ġorang es
Ġorig in
Ġdoub t
Ġjingiasyr iim
cri bed
Ġskh ep
ĠjO Dg
Ġje kt
ĠSnai tang
ĠMyl si
ĠIra ba
Ġhynd at
ĠRup atylli
Ġphil osopher
Ġphe ti
Ġchang e
Ġvar ious
Ġgi ft
ĠjaiS kup
Ġlymph uin
Ġryog kat
Ġfiiuh khlieh
Kylla lyngkot
Ġlev y
Ġprem miet
Ġrynd ia
Ġpynni ih
ĠHic ai
Ġmyna iem
Ġimpor tance
Ġoff ence
Ġsamr kbie
ĠPrep osition
ĠProv incial
Ġktn ie
Ġvis it
ĠSawkur o
Ġcontin ued
ĠNAM AR
Saitsoh pm
ĠTibet o
ĠRowland s
Beth el
kym ma
xic ography
Ġtreat ment
ĠSYM BOH
ĠSING H
ĠHig her
Ġlongsb wa
ĠLYN TI
ĠDiph ong
ĠCot ton
Ġpynsak ma
Ġdevel opment
Ġpyak ylla
Ġconcer ned
ĠEnvir oment
ĠDominik us
Cam illa
Dor bar
IW BIH
Pam tiah
Son idan
Sngew bha
pub lished
Ġec onom
Ġdnat ur
Ġjingiew bih
atri ce
Ġsakh rai
Ġuniv ersity
ĠApn I
ĠIndep endence
ĠChoud hury
ĠAmbr ose
Ġdewbyr tha
ĠChild ren
ĠAcadem y
Engl ish
Ġlasy it
Ġjingrn ut
ĠSind bad
ĠHoll ando
ĠNyng cong
ĠTli omas
Ġhjm rei
Ġbre ath
Ġtangk ro
ĠCong ress
deav our
Ġcub it
ĠUmtyng ur
Ġapos trophi
ĠAppen dix
ĠAgric ulture
Ġophi sar
Ġdiffer ent
ĠIcha muti
Ġsngeus ih
ĠRepr int
Ġevid ence
Ġcorre ct
KAMR INGAP
Ġprepar ed
Ling dieng
Rym phang
Wel sh
âĦ ¢
Ġsqu are
Ġpis kot
Ġdiction aries
ĠKeb ir
ĠPug b
ĠPock et
ĠDIST RI
Ġbrok en
ĠEngi neer
ĠCec il
ĠDonbos co
ĠNazar eth
ĠUmsang let
berfor ce
ĠLaplat i
ĠAbsol om
ĠScorpi o
! )
! ;
! ?
! ^
' âĢĿ
' âĢĻ,
' ^.
' -'
' Â§
( '
* "
, ).
- "
- :
. ]
. );
. ^^
0 3
2 000
5 16
5 34
5 38
6 00
6 30
7 26
7 36
7 40
7 49
8 00
8 43
8 54
9 00
: !
; >
> âĢĶ
? *
A K
A nd
A has
B O
B o
B yr
B ur
B iaw
B ui
B IT
B oa
B aro
B IR
C O
C l
C t
D I
D khar
D OR
D AR
D IENG
E D
E Y
E dom
E GG
E kso
F a
F i
F or
H l
H ar
H en
H ynr
H ep
H ok
H os
H ir
H ist
H ak
H angta
H ynniew
H UA
I B
I U
I j
I s
I oan
I nt
I jipt
J h
J or
J ah
J IA
J ABA
J isu
K U
K n
K r
K yr
K aw
K hang
K ein
K hat
K siar
L y
L at
L on
L ur
L ih
L in
L ap
L ak
L ook
L OR
L iterature
L UR
L OM
L IANG
M W
M b
M s
M y
M ia
M ang
M yr
M al
M as
M ik
M ek
M aa
M UT
N ar
N ew
N ote
N asar
N issor
O IT
P ut
P hang
P ri
P dit
P HI
P rose
Q t
R O
R V
R ep
S N
S d
S j
S ng
S yn
S ar
S ang
S uid
S up
S ein
S ec
S YN
S IT
S he
S AW
S NGI
T J
T r
T ei
T ai
T yr
T em
T eng
T oi
T ry
T UH
T ENG
U r
U y
U ar
U ti
U EL
V an
V ersion
W m
W eng
W Bi
X X
Y i
Y ap
\ .
^ /
^ âĢĶ
^ Â«
a ing
a aw
a ut
a hai
a shong
a hap
a shem
a khun
b um
b yll
b ip
b wa
b eb
b ui
b ly
b ynda
b ft
b hoi
b vn
b dn
b uifi
b idi
b ondro
c to
c li
c tic
c ial
c haracter
d S
d et
d iah
d us
d ci
d oii
e L
e M
e U
e la
e ti
e ka
f p
f ta
f th
f ur
f ad
f et
f ri
f liang
f ft
f cm
f unction
f ellow
g b
g im
g ka
g bha
g don
g kong
g ement
g ery
g vat
g rant
h j
h k
h ing
h ut
h ynr
h si
h ieng
h ynt
h lang
h ni
h tin
i B
i H
i z
i ka
i ri
i tat
i uli
j b
j z
j eit
j iap
j ro
j cm
j ou
j dt
j ulor
k U
k la
k uk
k ma
k bun
k bai
k tah
k rat
k fii
k pu
k yntu
l A
l H
l J
l T
l el
l ohi
l pl
l ANG
m ng
m ien
m iang
m id
m da
m us
m ian
m iei
m iss
m ktien
m astieh
m orah
n f
n ne
n na
n ylla
n ain
n ik
n angta
n ff
n nat
n jang
n ational
o Q
o on
o im
o ph
o Ji
o dak
o babel
p c
p f
p k
p eh
p is
p yl
p ynt
p uid
p ru
p yllon
p yndep
p lement
p ynshai
p alat
p yndonkam
q mta
r j
r v
r ne
r la
r ynn
r us
r ian
r lem
r ug
r iel
r ff
r yntih
r wal
s M
s si
s ynd
s iah
s wai
s pa
s li
s up
s ni
s iap
s oog
s uin
s alm
t A
t U
t j
t ot
t ob
t ly
t ua
t rist
u M
u hi
u fa
u nen
v U
v ol
v ll
v ation
v ious
w p
w s
w u
w ut
w ej
w ords
x ih
x ed
x nar
y as
y ag
y pt
y ff
y ond
z z
| ,
| ;
} .
Â °
Ġ ynt
Ġ ese
Ġk eit
Ġk ka
Ġk ung
Ġk wa
Ġk rn
Ġk shong
Ġk cm
Ġk kt
Ġk uba
Ġk rak
Ġk wit
Ġk rib
Ġk edar
ng eng
ng bah
ng ian
ng ieu
Ġka M
Ġka iang
Ġka oi
Ġka il
Ġka lai
Ġka don
Ġka bynta
Ġka thie
Ġka kot
Ġka Shi
Ġka snem
Ġka ngar
Ġka hait
Ġka Kitab
ba lang
ba khraw
ba nos
Ġba U
Ġba eh
Ġba id
Ġba og
Ġba ic
Ġba ag
Ġba lap
Ġba iai
Ġba shad
Ġba shlur
Ġba iadei
Ġba lm
Ġba zar
Ġba biin
Ġba ibng
ha a
ha ai
ha dien
ha bi
ha jan
ha nai
ha jir
ha hiro
Ġl ynr
Ġl im
Ġl el
Ġl ub
Ġl ylla
Ġl ek
Ġl uba
Ġl oiig
Ġl ower
Ġl ocal
Ġki o
Ġki ai
Ġki ir
Ġki ev
Ġki ll
Ġki oa
Ġki pe
Ġki ria
Ġki jait
Ġki ue
Ġki bd
Ġki seh
ia ba
ia ai
ia th
ia in
Ġs A
Ġs J
Ġs s
Ġs v
Ġs ip
Ġs iah
Ġs il
Ġs de
Ġs lam
Ġs ib
Ġs iw
Ġs alem
Ġs di
Ġs vn
Ġs our
Ġs iak
Ġs icm
Ġs we
Ġs tone
Ġs Jia
Ġs earch
Ġs yllang
Ġs idoh
Ġs lej
Ġs Qgew
Ġu M
Ġu f
Ġu j
Ġu oh
Ġu ri
Ġu nong
Ġu wai
Ġu ii
Ġu ga
Ġu oe
Ġu wd
ong uh
Ġj A
Ġj U
Ġj s
Ġj ei
Ġj um
Ġj et
Ġj ud
Ġj og
Ġj nem
Ġj kat
Ġj tt
Ġj ron
Ġj mt
Ġj isu
Ġj odg
Ġj yojar
Ġj olt
Ġj hig
Ġp H
Ġp W
Ġp g
Ġp q
Ġp ing
Ġp yngk
Ġp raw
Ġp dong
Ġp ig
Ġp ion
Ġp di
Ġp fa
Ġp bl
Ġp ek
Ġp iii
Ġp ith
Ġp ga
Ġp ula
Ġp iir
Ġp osition
Ġp mh
Ġla M
Ġla g
Ġla la
Ġla un
Ġla ih
Ġla ic
Ġla tang
Ġla kit
Ġla kyr
Ġla lum
Ġla shoh
Ġla ae
yn ne
yn ban
yn fiiuh
ei f
ei ha
ei fl
Ġia ai
Ġia mut
Ġia iw
Ġia nang
Ġia ngam
Ġia tn
Ġia dem
Ġia mane
Ġia jem
Ġia phor
Ġia ihuh
Ġia ubei
Ġia diuh
Ġia wao
Ġd b
Ġd j
Ġd q
Ġd ym
Ġd iam
Ġd ram
Ġd mg
Ġd iong
Ġd mi
Ġd uli
Ġd istri
Ġd oii
Ġd edic
Ġd ipthong
ĠK Y
ĠK si
ĠK sha
ĠK os
ĠK ob
ĠK wai
ĠK men
ĠK ma
ĠK lor
ĠK re
ĠK ram
ĠK tang
ĠK bat
ĠK liang
ĠK oog
ĠK by
ĠK lan
ĠK aifi
ĠK fii
ĠK hir
ĠK ynnoh
ĠK rot
ĠK rih
ĠK ritik
ĠK nasi
ĠK edar
ie li
ie Dg
Ġn l
Ġn w
Ġn er
Ġn uk
Ġn ii
Ġn aid
Ġn one
Ġn od
Ġn mg
Ġn noh
Ġn di
Ġn cng
Ġn uti
Ġn dh
Ġn donkam
Ġn bng
Ġn ishan
Ġt U
Ġt p
Ġt w
Ġt ng
Ġt iah
Ġt fi
Ġt bar
Ġt ag
Ġt bi
Ġt iw
Ġt lai
Ġt lia
Ġt ier
Ġt nem
Ġt liew
Ġt bak
Ġt yndang
Ġt ikna
Ġha wei
Ġha ri
Ġha ngi
Ġha ler
Ġha loi
ing h
ing long
ing seng
ing son
ing mraw
ing byndi
Ġbad ki
Ġb w
Ġb yl
Ġb ly
Ġb fl
Ġb lai
Ġb lia
Ġb tei
Ġb pi
Ġb gi
Ġb cit
Ġb iad
Ġb oin
Ġb eij
Ġb ishon
Ġb gn
Ġb ound
Ġb vm
Ġb icit
oh im
oh ra
oh lait
Ġjing ing
Ġjing un
Ġjing eit
Ġjing bah
Ġjing ic
Ġjing dei
Ġjing ch
Ġjing le
Ġjing her
Ġjing ina
Ġjing fiiew
Ġjing woh
Ġjing nep
Ġjing idt
Ġjing sicw
Ġjing wallam
Ġjing iphuh
hi M
hi ket
ta f
ta ne
ta la
ta iar
ta rik
Ġr x
Ġr yr
Ġr ol
Ġr kai
Ġr ci
Ġr neng
Ġr vn
Ġr niang
Ġr tg
Ġr them
Ġr vng
Ġr din
Ġr ole
Ġr iev
Ġr osit
Ġr niai
uh on
uh kjat
ar g
ar k
ar eh
ar phew
ar ded
Ġm j
Ġm ia
Ġm ym
Ġm ada
Ġm ui
Ġm shong
Ġm ali
Ġm io
Ġm itt
Ġm Aw
Ġm yngngor
Ġm usic
Ġban o
Ġban da
Ġban bein
ne b
ne ag
ne ction
ne lla
at ai
at iar
ĠU K
ĠU f
ĠU j
ĠU eng
ĠU long
ĠU ss
ĠU ioh
ĠS E
ĠS J
ĠS ie
ĠS amar
ĠS mat
ĠS ci
ĠS ban
ĠS uit
ĠS oit
ĠS liang
ĠS aifi
ĠS mi
ĠS eth
ĠS lat
ĠS UH
ĠS UM
ĠS ome
ĠS ENG
ĠS AM
ĠS tation
ĠS ele
ĠS yngka
ĠS lori
ĠS ersis
ĠS ALM
on c
on ist
on ymy
on bura
Ġi X
Ġi q
Ġi sh
Ġi ph
Ġi tha
Ġi re
Ġi pher
Ġi jong
Ġi yer
Ġi bang
Ġi hih
Ġi phylla
Ġi Mt
an f
an im
an ias
Ġng r
Ġng ot
Ġng tn
Ġng itn
Ġng ett
um bad
Ġkh j
Ġkh ta
Ġkh wa
Ġkh cit
Ġkh uti
Ġkh hium
Ġkh ewa
Ġkh ymih
Ġkh Heh
Ġkh flium
or g
or m
or o
or th
or om
or al
Ġjong n
Ġjong pbi
Ġsh ud
Ġsh ea
Ġsh eila
Ġsh rak
Ġsh tih
ĠKa k
ĠKa long
ĠKa iap
ĠKa len
ĠKa por
ĠKa jin
ĠKa wd
ĠKa des
am ah
am ih
am bar
Ġ( *
ĠB g
ĠB v
ĠB w
ĠB aw
ĠB ub
ĠB eb
ĠB bab
ĠB ru
ĠB bu
ĠB ngem
ĠB ho
ĠB hur
ĠB run
ĠB fei
ĠB rata
ĠB niat
ĠB NAI
ĠB order
Ġpyn n
Ġpyn ong
Ġpyn id
Ġpyn ja
Ġpyn ram
Ġpyn rang
Ġpyn lieh
Ġpyn shaid
Ġpyn shat
Ġpyn jari
Ġpyn raih
Ġda bi
Ġda khol
Ġkaba mut
Ġkaba jur
Ġsha nd
Ġsha lai
Ġsha pe
Ġsha pb
Ġsha phra
Ġsha ku
ĠH t
ĠH ie
ĠH yr
ĠH ot
ĠH ih
ĠH im
ĠH ul
ĠH ud
ĠH iar
ĠH iam
ĠH ain
ĠH and
ĠH eth
ĠH ER
ĠH ear
ĠH yo
ĠH ope
ĠH obi
yr men
yr ngam
yr sad
yr iim
Ġlong ki
Ġlong pei
Ġlong heh
Ġlong kf
Ġlong scm
ĠN n
ĠN um
ĠN ii
ĠN aid
ĠN ain
ĠN iaw
ĠN ea
ĠN est
ĠN AT
ĠN ile
ĠN ons
ĠN araar
ĠJ v
ĠJ ng
ĠJ yl
ĠJ oi
ĠJ ri
ĠJ ung
ĠJ ki
ĠJ iaw
ĠJ ath
ĠJ una
ĠJ ymp
ĠJ rem
ĠJ ngoh
ĠJ ali
ĠJ awa
ĠJ AI
ĠJ ura
ĠJ rain
ĠJ amin
ĠJ uki
ĠJ asong
ĠJ UK
ĠJ OB
ĠJ jipt
ĠJ ynsur
ĠJ WAT
Ġna a
Ġna pd
Ġna jngai
la ki
la khar
la ya
th j
th t
th un
th ym
th el
th iar
th es
th iaw
th ylliej
Ġkum la
Ġkum ju
Ġkum tu
Ġkum pri
em i
ĠM ait
ĠM ob
ĠM oit
ĠM ow
ĠM ill
ĠM EN
ĠM ile
ĠM astieh
ĠM IH
ĠM usic
eh en
ĠL E
ĠL v
ĠL ie
ĠL ynd
ĠL ip
ĠL aid
ĠL us
ĠL ara
ĠL ook
ĠL oa
ĠL ynter
ĠL ead
ĠL OR
ĠL ate
ĠL ynnai
ĠL OK
ĠL isan
ĠL yntait
ĠL YNGKOT
er ah
er ngit
ĠT j
ĠT ie
ĠT yl
ĠT ynr
ĠT ynd
ĠT ynn
ĠT il
ĠT ied
ĠT bang
ĠT rat
ĠT hin
ĠT YNG
ĠT wo
ĠT orah
ĠT urn
ĠT YLLI
ĠT ishri
ĠT ESTA
ĠT NAD
it j
it ic
it tra
ur t
ur iew
en a
en ue
ĠP M
ĠP Q
ĠP S
ĠP ym
ĠP ot
ĠP id
ĠP el
ĠP ob
ĠP op
ĠP li
ĠP ath
ĠP ui
ĠP ram
ĠP alm
ĠP yi
ĠP eih
ĠP ith
ĠP alok
ĠP ast
ĠP AN
ĠP lain
ĠP lom
ĠP ET
ĠP eleg
ĠP sych
aw an
aw eh
ym wei
ym niai
Ġdon ka
Ġdon dor
Ġdon karn
Ġth on
Ġth un
Ġth yl
Ġth om
Ġth oi
Ġth ynrei
Ġth iab
Ġth yli
Ġw m
Ġw aw
Ġw ien
Ġw ot
Ġw oit
Ġw est
is or
yl M
ĠI H
ĠI N
ĠI ne
ĠI wei
ĠI no
ĠI ph
ĠI fi
ĠI mie
ĠI ft
ĠI tt
ĠI bak
ĠI athuh
ĠI synei
ĠI ynti
ĠI ona
ĠI lekshon
Ġngi rn
ien a
ien d
ot er
ot ig
ot ient
ad oh
ad ew
ynr em
ynr iab
Ġshi kha
Ġshi rong
Ġshi lum
Ġshi bn
Ġshi kad
Ġshi kynta
Ġshi hali
ĠD E
ĠD U
ĠD w
ĠD at
ĠD rai
ĠD ymm
ĠD ev
ĠD haw
ĠD oc
ĠD uba
ĠD uli
ĠD RA
ĠD IEN
ĠD UM
ĠD AW
ĠD los
ĠD KHA
ĠD athan
ĠD agon
om on
om iet
Ġh oh
Ġh ut
Ġh ung
Ġh iah
Ġh ol
Ġh ui
Ġh oid
Ġh oo
Ġh gi
Ġh yi
Ġh ya
Ġh uku
Ġh gl
ĠR u
ĠR at
ĠR oi
ĠR ul
ĠR ymmai
ĠR IT
ĠR AI
ĠR hasi
ĠR eid
ĠR ustom
ĠR AIT
ĠR ujon
ĠKi kai
ĠKi Kam
yng iar
yng khan
yng shain
Ġsng aw
al an
al iel
al para
ih d
ih iang
Ġnga o
Ġpat h
Ġpat i
Ġpat ience
Ġpat lun
kh j
kh ub
kh uri
kh lait
im u
im ar
im ah
im ih
im no
Ġkyn s
Ġkyn hi
Ġkyn si
Ġkyn ib
Ġkyn suk
Ġkyn iad
Ġkyn sl
Ġkyn nah
Ġkyn sba
Ġkyn niaw
no K
no a
no bei
no ld
no ise
in m
in y
in da
in ce
in ation
in ner
uk ai
uk at
uk ut
Ġnong j
Ġnong ot
Ġnong ti
Ġnong da
Ġnong hai
Ġnong lieh
Ġnong hiar
Ġnong mah
yll l
yll iem
ĠHa j
ĠHa s
ĠHa ha
ĠHa bd
ĠHa sor
Ġkha aa
Ġkha ski
si l
si ik
si igew
oi f
oi da
oi ii
oi ik
oi dari
sha dong
Ġkat sha
Ġkat el
Ġkat io
ti no
ti ii
ti le
ti iei
ti dew
ti oned
ep hat
ka a
ka f
ka o
ka son
ap ah
ap him
ap ateng
id h
id loes
lei l
Ġbr d
Ġbr ew
Ġbr ot
Ġbr id
Ġbr ak
Ġbr jew
Ġbr few
Ġbr eak
ul ir
ul il
ul ary
Ġkam pher
et d
et ti
ĠA J
ĠA o
ĠA u
ĠA iew
ĠA ur
ĠA ut
ĠA id
ĠA long
ĠA tha
ĠA lad
ĠA kt
ĠA las
ĠA kaba
ĠA inguh
ĠA sam
ĠA irman
ĠA WAR
ĠA uxiliary
ĠA ibor
ĠA bram
ĠA cephalo
ĠâĢľ (
Ġong ba
kha f
kha k
kha it
kha ii
kha li
kha dar
kha ngai
kha oa
tien sot
tien sneng
Ġioh bor
Ġmyn ah
Ġmyn dang
Ġmyn ja
Ġmyn san
Ġmyn shai
Ġbar ia
Ġbar di
Ġpyr tn
Ġpyr sew
Ġpyr thai
Ġpyr shing
ĠKha l
ĠKha iram
). .
). âĢĶ
âĢĿ âĢĶ
Ġhi uh
Ġhi cai
âĢĻ âĢĿ
âĢĻ );
ud ei
Ġlah o
Ġai uh
Ġai reng
Ġai ksuid
el d
el s
sh l
sh n
sh ym
sh ep
sh long
sh oit
sh mi
sh eth
sh eptieng
sh ee
sh ukor
ok ylla
ub ulos
Ġwan lap
Ġ- '
Ġsngew th
Ġsngew iem
Ġsngew ph
Ġsngew nud
Ġsngew pher
Ġsngew mon
Ġsngew ngiew
Ġsngew shyrkhei
Ġleit kai
ip l
ĠKh l
ĠKh em
ĠKh ung
ĠKh lam
ĠKh oit
ĠKh mi
ĠKh ynnab
ĠKh lieng
ĠKh lein
ĠKh omlong
Ġph or
Ġph uid
Ġph cr
Ġph lait
Ġph uta
Ġph ylia
Ġph rung
Ġph ulia
Ġph teis
ra y
ra ai
ra og
ra khy
Ġsa o
Ġsa ba
Ġsa ia
Ġsa ys
Ġju i
Ġju bat
Ġju taog
ĠNg en
ĠNg ad
ĠNg op
ĠNg ain
os l
os es
ob ulos
da ne
ĠNong mih
ĠNong kam
ĠNong st
ĠNong lam
ĠNong rit
ĠNong tei
ĠNong khi
ĠNong mane
ĠNong bud
ĠNong nim
ĠNong phira
ĠNong pyrta
Ġkyr bah
Ġkyr tt
Ġkyr ling
Ġkyr sah
Ġkyr ngem
Ġkyr jaw
Ġkyr kbu
long briew
ri in
ri ct
ri nel
nong iaid
nong jop
Ġa V
Ġa ab
Ġa sa
Ġa tad
Ġa ch
Ġa ynshar
Ġa bi
Ġa bu
Ġa kul
Ġa ogew
Ġa ctiv
ph ui
ph cw
Ġ3 26
Ġ3 50
og l
og ue
iah g
thei sm
iar n
iar khad
Ġnang i
Ġnang ai
Ġnang mut
Ġnang jan
Ġnang khraw
Ġnang nc
Ġnang jop
Ġnang phuh
Ġnang slem
Ġar y
Ġar hang
Ġar jat
Ġar ound
Ġar hajar
Ġar iiang
Ġkhl om
Ġkhl ait
Ġkhl ip
Ġkhl uid
Ġkhl up
Ġkhl ek
Ġkhl iak
ĠW h
ĠW y
ĠW as
ĠW hich
ĠW hy
ĠW yc
ĠW ester
ĠW AD
ĠW hile
op at
Ġjings ba
Ġjings ang
Ġjings aw
Ġjings lem
Ġjings khem
Ġjings ngap
Ġjings tet
Ġjings oiew
Ġjings ynsh
Ġleh bor
Ġleh sc
Ġleh pop
Ġleh sbun
rai khoh
Ġ* -
Ġ* <
es a
es ian
es ts
es ies
Ġri ow
Ġri ver
Ġri gi
Ġri ghts
ĠLa tang
ĠLa jan
ĠY et
ĠY ni
ĠY tn
ĠY aroh
Ġja a
Ġja la
Ġja ji
Ġja khl
Ġja khlait
Ġkhun iung
wai A
Ġtha na
Ġtha ib
Ġtha uj
Ġtha iii
Ġtha iai
Ġtha boh
pa g
pa ki
Ġshong k
Ġshong sk
Ġshong prah
Ġshong sain
Ġjingk ot
Ġjingk him
Ġjingk beifi
Ġjingk ylU
Ġjingk meo
Ġjingk Sia
Ġjingk rcn
ii ot
ii iah
ii ii
ii rei
ĠE K
ĠE U
ĠE ber
ĠE lah
ĠE IT
ĠE nc
ĠE asy
Ġhap de
wa ys
ylla b
Ġkan d
Ġkan p
Ġ4 80
Ġ4 24
Ġ4 36
Ġ4 50
Ġ4 32
Ġ4 37
as ed
Ġum snam
Ġum siap
Ġdang lung
Ġjingia is
Ġjingia ieh
Ġjingia thi
Ġjingia nia
Ġjingia leit
Ġjingia kyn
Ġjingia bynta
Ġjingia shem
Ġjingia tyng
Ġjingia ieid
ĠC P
ĠC e
ĠC up
ĠC hai
ĠC had
ĠC las
ĠC ity
ĠC hara
ĠC ross
ĠC itien
to y
Ġkine ki
Ġkham jem
iam ar
iam on
fi ie
fi oh
ynn yngkong
Ġjingp hi
Ġjingp un
Ġjingp aw
Ġjingp ra
Ġjingp ynnoh
ynt oh
li k
li v
li ia
li ya
li ography
Ġma b
Ġma lade
Ġma jia
Ġma khon
Ġkin ie
Ġo B
Ġo ia
Ġo an
Ġo wei
Ġo iam
Ġo oog
Ġo dd
ĠKum fa
ma jia
Ġkot jong
ĠG or
ĠG ui
ĠG ro
ĠG lad
ĠG iik
ĠG rant
ĠJing h
ĠJing ong
ĠJing eh
ĠJing jop
ĠJing sam
ĠJing bitar
ĠJing phet
ĠJing pang
ĠJing pyrkhat
ĠJing hiar
ĠJing kaia
ĠJing maian
ĠJing thrang
ĠJing siewspah
Ġun ia
Ġjait dieng
Ġtip suk
ir y
ir ong
ir eh
ir ation
Ġmih paw
Ġf U
Ġf n
Ġf ng
Ġf yn
Ġf ei
Ġf al
Ġf ti
Ġf id
Ġf long
Ġf iar
Ġf fi
Ġf aid
Ġf ed
Ġf ct
Ġf liang
Ġf fl
Ġf tom
Ġf oun
Ġf elt
Ġf lo
Ġf ree
Ġf ather
Ġf ame
Ġf ever
Ġf resh
Ġei i
uid e
ain s
ain ia
ain for
il ton
il eser
Ġ. )
Ġ. -
Ġbun rong
ol ect
us ed
us nam
us tine
lang thang
de e
ĠShi khem
ĠShi miet
ĠShi tm
ĠShi snem
ĠShi hti
Ġ6 32
Ġ6 41
Ġ19 15
Ġ19 47
Ġkl ia
Ġkl ta
Ġkl ne
Ġkl ot
Ġkl in
Ġkl uk
Ġkl iat
Ġkl ui
Ġkl unat
Ġkl inam
ab eth
ab ulary
kam et
Ġpynd cm
ĠSha ia
ĠSha ibnai
ĠSh U
ĠSh l
ĠSh yl
ĠSh iang
ĠSh et
ĠSh lem
ĠSh war
ĠSh ynrai
ĠSh oih
ĠSh osing
Ġmar e
Ġmar wel
Ġmar joh
Ġmar kumta
ĠTh d
ĠTh yll
ĠTh ep
ĠTh op
ĠTh ule
ĠTh ymm
ĠTh liew
up i
Ġks ba
ĠRi tab
ĠRi bai
Ġbuh r
Ġbuh rich
Ġthe b
Ġpar i
Ġpar ing
Ġpar alo
Ġpar asnam
Ġlyn ii
Ġlyn noog
bar ot
Ġim o
Ġim suk
Ġim pression
Ġ7 29
Ġ7 26
Ġ7 49
Ġ7 45
Ġsah iang
Ġsah dien
Ġsah sot
Ġsah pud
Ġdoh kba
Ġdoh nad
Ġdoh pnat
Ġdoh nod
Ġdoh niid
Ġkhlem wai
Ġkhlem kut
Ġkhlem akor
har e
Ġlyng og
Ġlyng skor
Ġbym suid
Ġc r
Ġc ut
Ġc ep
Ġc ation
Ġc lan
Ġc tin
Ġc red
Ġc andid
ĠKhris to
ĠKhris hna
ĠKhris tao
ĠKhris taa
Ġto ba
Ġlang tylli
ĠHaba sing
Ġkiei fi
Ġte am
ik m
ik oh
ik tien
Ġpyns b
Ġpyns ang
Ġpyns ad
Ġpyns ait
Ġpyns mai
Ġpyns leb
Ġpyns bitom
Ġpyns nieu
Ġman dien
Ġman bynriew
Ġman tic
Ġman uscript
Ġbor ma
Ġsn j
Ġsn icw
Ġsn ich
ĠBa g
ĠBa kut
Ġdur ut
Ġdieng lieng
Ġdieng skum
Ġdieng phnow
Ġdieng tyllaw
Ġjingt m
Ġjingt ong
Ġjingt hi
Ġjingt yngkai
Ġjingt hait
Ka Pyr
lor g
ed uth
ed onia
ic ism
ic ked
ic ulture
leh thma
sa ge
eb t
Ġbam bok
Ġkatba n
Ġsb en
Ġsb yrkhei
Ġsb noog
Ġkhn ain
Ġ8 18
Ġ8 20
Ġ8 32
Ġ8 70
Ġ8 79
Ġ8 55
Ġpynk yl
Ġpynk ot
Ġpynk bih
Ġpynk thang
Ġ9 00
Ġ9 80
Ġ9 31
19 19
19 91
19 99
Ġof fer
bun sien
Ġsaw spah
Ġsaw kun
NG PYN
Ġiing thoh
Ġiing suk
Ġiing trep
Ġiing bishar
Ġ? ;
Ġ? âĢĿ.
Ġ? ...
Ġ? âĢĻâĢĻ
Ġiap y
Ġiap ar
ĠBal ai
ynriew spah
Ġshem mynsiem
Ġshem lanot
Ġ18 16
Ġ18 61
Ġ18 55
Ġ18 68
Ġ18 57
ch ed
ĠV U
ĠV n
ĠV iew
ĠV aid
ĠV oc
ĠV athuh
ĠV asuk
ĠV lll
ĠV atic
ĠV erse
Ġbn al
Ġbn cw
Ġbat lot
Ġbat biang
Ġbat esi
ĠMar an
ĠMar iii
ĠMar joh
ĠMar duk
ĠMar ynthing
ĠMar yngod
ĠMar skuin
one n
one er
ĠMa hara
ĠMa kroh
ĠMa kes
Ġriew kai
Ġriew khraw
Ġriew khmat
Ġriew thala
ĠO K
ĠO s
ĠO ak
ĠO ospel
ĠO ver
Ġsk i
Ġsk is
Ġsk olar
Ġlap hi
Ġlap an
Ġlap lah
Ġlap oikha
ĠTrai l
ki ri
ki jing
ci fl
ci fic
Ġkhynd ial
tan ts
Ġme a
ĠKA TA
ĠKA NO
ĠKA NE
), '
Ġ10 60
Ġ10 66
Ġ10 68
Ġkb r
Ġkb ynd
Ġkb mut
Ġkb reh
Ġkb uri
Ġkb riat
Ġin k
Ġin an
Ġin ynta
Ġin rad
Ġin tel
Ġin formation
Ġin cre
Ġin habi
Ġjingpyn kha
Ġjingpyn lut
Ġjingpyn jakhlia
Ġjingpyn khr
Ġjingpyn mynsaw
Ġjingpyn shongnia
Ġjingpyn saja
Ġmut lop
Ġling shong
Ġling niam
Ġkti r
Ġkti on
Ġkti eii
ĠMaw a
ĠMaw i
ĠMaw sh
ĠMaw ml
ĠMaw lynnong
ĠMaw lyngkniap
ĠMaw khyrdop
le ction
st t
st os
Ġshis pab
ni li
iaw bei
Ġiathuh kha
ath ong
ath iel
shi r
shi sba
Ġmaw sh
Ġmaw rong
Ġmaw niam
Ġmaw khang
Ġmaw knor
Ġmaw hira
Ġmaw khrum
ĠNa ag
ĠNa ason
ĠNa ogta
Ġ12 66
ja si
ja jew
ĠId l
ĠId iam
ĠId tab
od o
od ong
od borne
br ie
br ut
Ġpa khang
Ġpa lal
Ġpa hadoi
ĠBar th
ĠBar ob
ĠBar ato
ĠBar anda
ban on
ĠPhi star
Ġ! âĢ¢
Ġ! !!
Ġjinglong trai
Ġkd r
Ġkd ba
Ġkd et
Ġkd iap
Ġkit el
Ġkit rwiang
Ġkmie san
Ġlait kylla
ĠKhrist os
ui b
ui ia
ĠSoh la
ĠSoh lia
ĠSoh pdung
lam oth
Ġhok um
Ġsur e
iet v
tha l
tha rai
tha ni
tha ge
se ba
se qu
Ġjingj am
Ġjingj rem
Ġde f
ian p
ian ce
lem s
ynsha it
ly og
maw phlang
re ad
Ġpynp at
Ġpynp briang
Ġpynp balang
Ġthaw sha
Ġthaw lad
Ġthaw nang
Â» -
Â» >
Â» ^
Ġshym p
Ġst ory
Ġst yle
ĠBan iang
Ġsoh wai
Ġsoh mar
Ġsoh seng
Ġsoh tr
Ġsoh khia
Ġsoh dieng
Ġsoh khaw
Ġsoh lyngngem
Ġsoh kew
Ġsoh phie
Ġsoh pailen
Ġsoh jou
Ġsoh kason
Ġji D
âĢĺ (
jing i
jing long
jing ieit
jing shai
jing tip
jing stad
jing iarap
jing tep
ent ina
ĠUm j
ĠUm s
ĠUm poh
ĠUm jat
ĠUm wang
ĠUm niuh
ĠUm tron
ĠUm rangait
ĠYa kynduh
Ġmet re
ct n
ct rine
ram e
ham e
pyn beit
pyn kyntang
Ġlut ksan
Ġsan spah
ak er
Ġ16 61
Ġ16 68
ag am
ag os
ag ue
ug bah
ug arh
ĠPr ose
mg kat
ĠF W
ĠF i
ĠF ai
ĠF in
ĠF hali
ĠF ilbert
ĠMe kaiah
ĠMe ked
ĠMe shak
Ġiar iew
Ġiar oi
Ġiar ep
Ġbud d
ima x
ĠMan y
ĠMan ar
Ġ14 51
war i
Ġly i
Ġly ter
Ġly hong
Ġpy oh
Ġpy it
Ġpy ul
Ġpy ab
Ġpy ian
Ġpy adonkam
Ġkt et
Ġkt aid
Ġkt ieb
jat hang
Ġ13 00
Ġsba it
Ġsba wei
Ġsba dong
liang ki
bi f
bi li
ĠDa khor
Ġap lai
Ġduh nong
ĠâĢ¢ ^
Ġv ers
Ġv nda
Ġtyng shai
Ġtyng khein
nia s
Ġbak b
Ġbak bat
Ġkynr ud
Ġkynr ik
Ġsat ep
Ġlam l
Ġlam an
Ġjingsngew sh
Ġjingsngew burom
Ġjingsngew synei
Ġjingsngew bba
Ġkhr u
Ġkhr ch
ĠJer en
ĠJer emiah
tar ip
Ġshad kmcn
ow ell
Ġiak sam
Ġiak dew
Ġiak lim
fl h
fl t
ĠPyr thuh
ĠPyr thoh
ĠPyr shah
ĠPyr kbat
ĠPyr thci
Ġky f
Ġky ut
Ġky athei
Ġit ai
Ġit yonad
ĠLyn ne
Ġtb ong
Ġtb ub
Ġtb ylli
Ġtb liew
soh pet
Ġloh sngcw
ĠShil l
Ġpynkh yllong
Ġpynkh eiii
ĠKI EI
Ġ17 31
pher e
Ġkba wai
Ġkba ii
Ġnia ra
Ġnia ni
Ġter ranean
Ġjingb eit
Ġjingb iang
Ġjingb iej
Ġjingb tin
Ġjingb uaid
nam spah
Ġjan mict
Ġthi n
Ġthi p
Ġthi oloji
ill iam
ill oth
Ġkhi c
Ġkhi ur
Ġkhi li
Ġkhi ibor
ĠTo la
ymp ep
Ġiai um
Ġsyr i
Ġsyr ag
Ġsyr nai
dit or
rang li
rang phawar
Ġjiog i
Ġjiog ngeit
Ġjiog kylla
Ġjiog py
Ġjiog sngewbha
Ġjiog thmu
Ġjiog tbob
Ġjiog loog
Ġjiog soiew
ĠTang mang
Ġnam a
Ġnam ai
Ġnam phuh
Ġnam ely
bai ong
Ġsy aw
Ġsy ot
Ġsy iad
Ġsy km
Ġsy if
Ġsy iera
Ġg g
Ġg et
Ġg lot
Ġg uage
Ġdu w
tam p
Ġ20 16
Ġ20 12
lap ngar
Ġkynja k
Ġtyr saw
Ġtyr sai
Ġtyr suh
Ġnob g
ft e
ft r
ft y
ft ia
ft iew
ĠSa la
ĠSa jar
ĠSa tara
ĠSa fer
ĠSa ians
khem ish
Ġpl om
Ġpl ural
Ġias ad
Ġias yi
Ġias ynrap
Ġias bim
ĠPha liangki
10 1
10 6
Ġjingi iam
Ġjingi ynjar
Ġmat ters
Ġpyll ew
Ġjingth ied
Ġjingth ngan
Ġjingth ombor
Ġkai ta
Ġjmg ai
Ġjmg eh
Ġjmg suk
Ġjmg bym
Ġjmg pyrkhat
Ġjmg duna
Ġnongp an
Ġnongp yrkhat
Ġpynia leh
Ġpynia hap
Ġpynia khleh
lia k
lia s
Ġmad iah
kar ong
kar ang
man i
man briew
man shwa
man kni
Ġpr ous
HA W
Ġbi ei
Ġ23 6
Ġko f
Ġkhat ei
Ġkhat ja
Ġjingkh e
Ġjingkh u
Ġjingkh um
Ġjingkh lai
Ġjingkh reh
Ġjingkh eiii
ĠTe z
ĠTe chnology
Ġship ung
Ġship iah
Ġnongia shim
ll ait
Ġjingpyr shah
Ġsim ple
ĠIa ki
ĠIa iap
Ġno thing
Ġno tation
Ġtr oub
11 6
ĠDr y
ĠDr um
Ġkynt eit
Ġkynt aid
ĠX U
ĠX ong
Ġpynr hem
Ġjai ib
Ġjai sngi
Ġjai jai
Ġjai pateng
Ġjai fS
Ġthung maw
ĠAp osi
16 4
Ġdih sha
ĠPat i
ĠPat ti
ĠAss em
YN R
Ġbas wai
Ġbas ed
Ġbas bisha
ĠSt ing
ĠSt ru
ĠSt eph
ĠSt ainfor
ĠHang to
14 92
Ġem er
Ġem plo
fa am
bl h
18 00
18 42
18 91
18 71
pat hai
ĠBA J
ĠBA LEI
ĠBA THYMM
Ġphuh snieu
ĠSaw ian
ĠSaw brut
ĠPyn k
ĠPyn bam
ĠPyn jem
Ġieh sa
Ġieh se
khi o
khi in
ro at
ĠBai ei
Ġat t
Ġat trib
Ġpynj ai
Ġpynj ngi
Ġpynj ngut
Ġpynj ynsur
Ġy ambar
Ġe a
Ġe ha
Ġe asy
Ġring maw
Ġlym ong
Ġlym brum
nem sniew
Ġhyn bew
Ġhyn Siew
Ġjingsh ynrang
Ġjingsh ukor
kyn ih
kyn shew
kyn thci
ĠKor kha
ĠKor bar
ĠKor blang
ĠInd ust
Ġsynr em
ĠJo y
ĠJo sh
ĠJo as
riew thma
riew kynthei
Ġ26 2
Ġ26 3
Ġ26 4
Ġ26 7
Ġ26 10
Ġphar eit
Ġdem oc
Ġ] >
Ġ] ^
ĠPh m
ĠPh ot
ĠPh iang
ĠPh iah
ĠPh ron
ĠPh yllut
ĠPh oidari
Ġkong ri
ĠUn less
lur i
Ġhad len
Ġ28 2
Ġ28 7
Ġ28 8
ĠAr liang
ĠAr ty
ĠAr arat
ĠAr nold
tom a
Ġad ang
Ġad khu
Ġad van
Ġkajing ia
Ġkajing ieit
Ġkajing trei
Ġkajing jia
Ġkajing iathuh
ĠKong diei
alm ud
Ġkynth op
Ġli ba
Ġli og
Ġli ft
Ġli qu
Ġli ving
Ġkn ien
Ġkn ich
Ġjur in
ĠBab Uon
ĠNongk yr
Ġsyn flia
Ġsyn mong
Ġ25 9
cm fm
Ġdum ok
Ġmo uth
Ġjingleh bha
Ġjingleh beifi
Ġryn ong
Ġryn tich
kt ung
kt ist
Ġkr ba
Ġkr ap
Ġkr oid
Ġkr mi
Ġ27 1
Ġ27 4
Ġ27 7
Ġ27 8
Ġ27 9
Ġjingl oh
Ġjingl oi
Ġjingl ip
Ġjingl cit
Ġjingl arap
Ġjingl oag
Ġsniew briew
Ġsniew dur
ĠRai l
ĠRai ot
ĠRai mon
uj i
uj n
ĠRam a
ĠRam eses
Ġpynl ung
Ġpynl aid
Ġpynl oog
ĠDor kas
iei h
Ġpur ia
Ġfi g
Ġfi ieu
Ġfi gi
ĠBas dang
ĠLong briew
ĠLong syiem
ĠLong kpa
ĠLong fellow
ĠKyn p
ĠKyn ud
ĠKyn ja
ĠKyn bat
ĠKyn jah
ĠKyn pha
ĠKyn sai
Ġ29 3
Ġ29 6
Ġ29 7
Ġ29 9
Ġ30 3
Ġ30 9
Ġ30 60
Ġ30 66
Ġrang iaw
Ġrang phawar
Ġrang kynsai
Ġrang bali
Ġtap g
by s
Ġbap un
te og
Ġfa aba
Ġfa cts
oc ate
Ġnongk ong
Ġnongk ing
Ġnongk ylli
Ha ei
ĠTiew lar
ĠTiew lyngksiar
ĠIn k
ĠIn sp
ĠIn stru
ĠIn stitute
ea ch
pha naiah
Ġdie ag
Ġshan khung
Ġjingiap oi
Ġjingiap ber
Ġjingiap yllait
Ġjingm eng
Ġjingm ul
Ġjingm ib
Ġjingm lien
Ġjingm iit
Ġjingkha n
Ġjingkha ngiit
Ġra on
Ġra aw
Ġra she
Ġra adan
Ġra ugbah
Ġpyniap ber
ĠPut ioli
ĠAn tip
ĠAn net
ĠAn anias
Ġang ap
Ġang muid
Ġbe ia
Ġbe ar
Ġbe ain
Ġbe yond
ell er
ell ent
ĠPres b
Ġiam on
Ġiam ap
ĠCh ris
ĠCh ester
ĠJING B
ĠJING T
ĠJING HI
ĠJING TH
est ure
Ġmen kmie
Ġpo int
Ġpo und
kat i
gi ta
gi noth
iph er
ken s
Ġnongs ah
Ġnongs ait
Ġnongs aih
Ġnongs epngi
Ġnongs ynran
Ġthan si
Ġthan ks
ĠKynr ut
ĠDieng bah
ĠDieng song
ĠDieng lieng
Ġbyr ie
Ġbyr shem
ĠAi fl
TA D
cn t
ya shar
15 0
15 42
ĠEngl isb
Ġal mari
Ġal ways
Ġlaw b
Ġlaw bn
Ġpynm eh
rat us
rat ed
ek anos
Ġshy it
Ġshy tn
Ġshy icng
Ġah ynr
Ġ40 3
ĠRang jyr
ĠÂ« *
Ġjingkyn hoi
aifi thlen
Ġlynd ct
Ġjain bah
IA NO
vn riew
Ġsp ee
ook s
ĠRoberts on
Ġbyn ia
Ġbyn ti
ĠAb om
ĠAb ih
ĠAb don
ĠAb iram
LA D
Ġjaid by
ĠCom men
Ġfor a
Ġfor ces
kb raw
Ġjingph yrnai
Ġjingph oida
Ġkj am
Ġkj al
law bah
Ġsab on
Ġsab iah
Ġsab lang
Ġsab uit
23 0
Ġsin i
Ġpynh d
Ġsngewt riem
ĠIm d
ĠIm wei
ĠIm pact
ĠKl ar
Ġthei lud
Ġnongpyn i
Ġnongpyn ieng
Ġsuh ot
Ġshang rit
Ġphew hajar
ĠSyn sbar
Ġ< &
OH BAH
Ġnar ang
Ġnar um
ĠLam at
ĠLam ekh
ĠNongs iat
Ġsl ut
Ġsl om
Ġsl ait
Ġsl mong
Ġsain ar
ĠSy ai
ĠSy ier
sai h
sai pur
kl ot
kl eng
kl and
ĠKyr oh
ĠKyr bei
ĠKyr woh
ĠKit ai
ĠKit ed
Ġkhyll iat
Ġpynt ngcn
ĠMos t
ĠAd jekt
ĠAd van
ĠAd berb
loan nis
ĠKb ein
Ġhistor ical
Ġx in
Ġx iii
Ġku ih
Ġku lab
ĠSk inner
iad d
.) -
.) >
Kh yndai
Kh ron
Ġjot ig
Ġih uh
Ġih iah
Ġkaj ieh
Ġniew beifi
sing mastieh
Ġ> .
pyr shang
Ġ/ /.
Ġjl n
Ġjingr hem
Ġjingr unar
tn t
tn ie
Nong siewspah
ff ord
ff aria
Ġle U
Ġle ast
Ġle arn
Ġle hae
ĠSol fa
Ġpoh nep
ĠHA P
ĠHA DIEN
ĠHA LOR
Ġphan iaw
ĠTim aios
Ġput e
Ġput it
ĠSym a
ling ton
ling uistics
usi ve
ĠAh em
ĠGe hasi
ĠSal athiel
iai fi
Ġpynsh lei
Ġpynsh ynna
ĠMih sngi
ĠMih ogi
Ġwal lara
Ġjo flg
Ġbub rieh
Ġkynd ing
Ġkynd ob
nt f
Ġor gan
Ġpas bat
Ġkor klia
ĠKhar sat
ĠKhar du
Ġsal e
Ġsal am
Ġkhad lai
Ġkhad nessar
Ġjyr ham
Ġbu la
Ġbu ih
Ġbu ilding
ĠBat l
ĠBat or
ĠBat bymmai
ĠLA W
Jing rwai
Jing khei
Jing khein
eth ubhim
tr eng
tr cp
Ġmin us
ĠSyr pai
ĠSyr tet
Ġpynth ym
Ġpynth iang
ĠHyn Siew
Ġkhan apateng
Ġmy asiem
ĠHer mon
ĠWan hat
ĠWan sai
ĠSolom i
Ġud ut
ĠBor sing
ĠBor hir
Ġ60 7
Ġcon tem
Ġcon nection
kyr ang
kyr shan
sng aid
Ġdo ta
Ġdo ctor
ĠLai pbew
Ġsai ii
Ġ36 4
Ġ36 6
ine ma
ine nt
ĠNe gro
Ġkhap brib
ĠKHA H
Ġca ve
ĠSynt eog
ĠCol ony
Ġkf en
Ġkf li
Ġml b
ĠMath ias
ĠCa ffaria
Ġkhyn oah
Ġkhyn hiuh
ĠNongia lehthma
lait luid
ĠPan jira
ĠRa ju
ĠRa hab
ĠNG AN
ĠNG EIT
Ġ198 6
huh khana
Ġ$ .
Ġtim ai
ĠPar iong
Nam biria
lar tham
ĠQ ua
ĠQ geit
Ġsait eh
Ġsait da
Ġsait met
Ġsait jain
Ġiaka ne
Ġtyll l
Ġnongt ymmen
olog i
Ġtyn ieng
Ġtyn nen
ĠSer iculture
Ġmai tang
Ġmai fl
ĠGo el
sb isba
Ġper for
ĠLi fe
ĠNam pliang
ĠJi ug
ĠJi fig
Ġiat d
Ġiat uid
Ġ37 6
ĠKol shor
ĠSec ret
ĠSec urity
Ġ39 7
Ġpd ing
Ġpd ah
Ġpd cng
AT a
tara jan
^^ ^
Ġsu iii
Ġsu ffered
ĠPait bab
Ġ49 0
ĠSar ephat
ĠJai A
ĠJai S
Ġpuk et
ĠCon sul
Ġiad ie
Ġiad oi
Ġiad el
Ġiad uwai
Ġdi ih
Ġdi wan
Ġdi ffic
ĠSep sngi
Ġthai A
pr ess
ĠNONG D
ĠNONG KYN
ĠNONG LEH
ĠNONG KIT
ĠKom ili
Ġjingbym hok
Ġjingbym thikna
ĠAssemb li
ĠKai riang
... .âĢĿ
Ġjii r
ĠNongt ymmen
fc or
fc hat
vv ah
ĠJon j
ĠJon as
Ġwa u
ĠDang le
per a
Ġkli ynnah
Ġran da
Ġjingias am
Ġiab iang
ĠJingpyn i
ER M
uag es
Ġjaw ummat
Ġty U
Ġty pe
ĠSc ient
ĠSc phanaiah
ĠHos anna
ina ta
Ġpb la
Ġab nong
ĠPrim e
pan poh
ĠSH ON
ĠTyr so
Ġkynti cw
Ġkynti cn
ĠEl ohim
Ġ48 4
han iah
Ġlia duh
Ġjyn kieng
ĠAl om
Ġ46 2
Ġjiag ia
Ġjiag ai
sk etch
Ġsi x
Ġsi im
Ġnc di
Ġbynr icw
Ġbet ter
Ġnew spah
ĠSi ban
ĠSi khar
ĠSi ogh
ĠEph raim
Ġsog ap
ylh ew
Ġso ul
Ġryng ai
Ġryng ngi
Ġryng lat
til is
RA L
RA l
Ġkal ta
Ġsd m
Ġsd an
ĠSe kh
Ġbran ch
dieng phna
Ġkar ri
Ġlo ug
Ġlo ves
Ġcom es
ĠJingia dei
ĠJingia soh
Ma ne
kong ngor
sy ir
sy icm
Ġbei S
Ġhynr oh
Louk as
Ġkyrk ich
byn a
Ġlit e
Ġtaw an
ĠPol ok
ĠPol yg
jai fl
ĠSab n
EM AIAH
KA KAMRINGAP
be ia
ĠSng ah
ĠSng in
ĠJob in
ĠLaw ar
Ġjingkit khia
60 5
60 6
pai la
Ġdd h
Ġarphew saw
Ġtiew dieng
âĢľ ,
ĠTap her
Ġkhar oi
Ġkhar bania
Ġ80 6
tra ktor
Ġiakh reh
Ġnongap il
dai os
Ġsynt eng
ĠMyr ia
ĠMyr ho
ĠMik ado
Ġse al
myn no
sam mut
Ġial ok
Ġial ara
ĠSept em
ĠRiew shlur
dt f
Ġjor ig
Ġnon p
ĠXX II
ĠXX VI
Ġex ception
ĠJingk wah
ĠJingk dew
ĠTyng am
ĠEs se
ĠEs rom
Ġdam bit
ĠKar bi
ĠKar khemish
ĠSang sot
ĠSang dom
ĠSir kit
ĠSir lapalang
ĠSngew nguh
ĠPom shala
ĠDew ani
ho od
pl ie
Ġhy odai
fic ation
Ġen ough
Ġkait o
Ġbo at
Ġbo ard
Ġbo orom
ĠBid ang
AN I
Ġlet ters
Ġlea ve
Ġpra y
shoh noh
Ġib eih
Ġfc um
ĠRoman s
Sha poh
ĠGal lio
Ġlob sngew
ĠMin istry
hy thm
kan a
Ġsngcw sih
ĠAugust us
ĠKhang rang
dr ed
ov en
Ġry ta
Ġry tap
Ġry khie
ĠSad ew
ĠSim ri
ĠJar ed
ĠJar langthang
ĠKy orad
Ġnai ig
Ġbur an
yndi ih
Shi bun
Shi liang
Shi phew
kn m
Ġkob ngub
ĠMal ng
Ġdup at
Ġris ain
ness es
ĠNor thern
ĠLYNN ONO
Ġjingbuh khoh
Ġjingioh nong
row n
ĠSai muka
Ġkhynr au
ĠKajing pyn
shain doh
UR E
Ġlais en
Ġtem ple
Ġkhei d
ĠBo tan
ĠNoh sngi
ĠNoh wet
now n
Ġag o
tiew dohmaw
Ġro ad
Ġro ugh
ĠHy stap
ĠTha bah
ĠTha ss
ĠTha nt
ĠPre si
lass ar
ĠMang kaliang
ĠPud tara
Ġwor ship
ĠRyngk uh
ĠAbi jah
ĠÂ£ .
ĠÂ£ /
OS TO
yan ah
ĠKT I
ĠUni tarian
ĠBer ini
lic an
Ġch urch
Ġkyl H
Ġkyl ta
Ġkyl ii
ĠKyll oog
Ġrat hai
ĠSou ve
phra se
ĠXI L
Ġjyll ie
ĠTH UNG
ĠRI a
ĠRyn san
Ġjlng long
Me g
jem nud
kin ar
sn ieh
sn cm
ven tion
ĠSynr iah
Ġshibit or
Ġkhu D
Ġkhu ih
ĠBiei j
Ġshap uloit
ĠJe ne
ĠJe nesis
Ġer ngit
sid es
Ġmyns ie
Ġmyns iern
ĠKhn n
Ġare as
ĠShan duh
Ġ90 2
Ġ90 6
bynr ieu
Ġsuid wah
Ġpul se
Ġmu ih
ĠKhyr dei
jn ta
Ġbis hin
Ġrn aw
ĠSHI P
ĠSHI SHA
ĠNA NG
Ġthad rong
ĠShul ai
Um niuh
Ġpol is
Ġiasngew thub
ĠKynd ir
ĠHamar ba
ĠAnd rok
ĠPastor al
ĠPastor ate
YR TA
fer y
ĠMi la
ĠMi ner
ĠPad ot
PH ER
PH NA
Ġlor g
Ġtor oh
Ġtor ngot
ĠNat ep
ĠNat hanai
ĠPam tiah
ĠShyr liang
ĠKur bah
Ġbh or
ĠStat istics
Ġkutn ta
55 6
55 9
ĠBrit ain
ĠHI LL
Ġknm ne
rt Kei
Ġbakh laih
Ġtym phong
Ġtym nien
Ġres p
Ġres pect
ĠHin ia
Ġnongshong shnong
ĠBak la
ĠNi uh
ĠNi khla
Ġ78 7
Ġall owed
Jingpyn paw
Ġpi ta
Ġpi tal
ĠKYN TH
Ġnongmih bteng
Ġ199 6
Ġ199 9
ĠJINGS HAI
/- .
IN A
IN E
stan ces
tyn juh
ĠSo ar
ĠMer win
ĠMer oda
ĠMer odak
ĠIb san
moh on
ĠIs rad
ĠIs real
ĠDo ctor
Ġkynsha w
Ġsbis ba
Ġsli uh
Ġiath uli
ĠKhi ist
Ġpyntrei kam
khaw pud
Ġhin iaw
ĠHor mur
Ġnap deog
ĠRyng i
ĠRyng hep
ĠHag ar
Ġiapyn eh
Ġiapyn mih
Ġjingpyni ra
ĠJINGK H
ĠJINGK MEN
ĠJINGK ULAR
ĠBI RIA
ĠVol ume
kr ih
py ut
Ġpj iah
Ġdis pute
Ġdis miss
ĠKal ba
vm men
Ġpu shara
ĠBha gvat
ĠRod bour
AL EM
AL OI
AL ONI
ANG KAR
byr thit
char ya
kul ai
Ġjy iliew
Ġlaleh kai
Ġsbit hi
ĠOr pah
Sait sokpen
Ġlin dane
Ġjng ob
Ġjat on
Ġruk on
Ġruk ont
ĠKap k
ĠNeb u
ĠLur step
ĠLeb se
ĠLeb baios
ĠPYN IM
ĠEn lar
ĠEducation al
KH ONG
hana s
ĠKu ther
Ġjingiar yngkat
ĠNar iang
ĠNar ud
Ġparab rieu
ĠDin jar
ĠStep wan
fit t
Ġnyn i
Ġtd en
ator s
ator ium
ĠTer n
ĠDi ein
ĠKHU ID
Ġslia thie
Ġmyll uog
ĠNia phor
ĠNad iih
Ġcla uses
Ġsbim iet
Ġgo ver
kal ong
Ġq ueen
Ġkijing eh
Ġser mon
ĠKon krid
Ġtion al
Ġmal an
ĠTI ew
Ġwang nub
ĠEur ya
Ġtak e
ĠSun apani
ĠBe atrice
Ġpynleh rain
ĠJal yngkhan
Ġnad ah
ĠPHA N
ĠWil berforce
Ġkyo thei
Man uscripts
ĠSO LOM
ĠJab in
Ġnongkit ram
Ġspong khor
BR U
Ġbir d
Ġbir oh
Ġbir th
ĠiQ T
ĠLe banon
Ġjingsng ow
Ġjingsng euthuh
Ġfe et
RAI D
Ġpbar sbi
ĠjingT ap
ĠjingT aid
Ġmor ning
ĠTlang we
ĠRub i
Ġdiengsoh wai
190 4
190 8
Ġ128 7
Ġreg ion
jok isor
Ġsch olar
ĠSu es
ĠSid on
ĠNab eifi
ĠJor am
thu Mypa
ĠPH IANG
ric ative
ric ultural
ĠGil pin
ĠGil boa
Jingkh eiti
Ġnongmihkhmat jong
ryngk uh
Ġyr n
Ġsfa a
Ġsho wa
Ġsho ug
ĠMis pah
ĠPap un
ĠPap ias
ĠJings dang
ĠJings ynshar
Ġspar iong
Phil ipi
Ġsut ol
Ġpet ition
Ġrec eived
ĠMet e
ĠLyngk or
Ġfing jaifi
Mei rad
Ġrus it
Ġrus ieh
Ġrus ni
Ġngai h
Ġsham ok
ĠThi ophilos
ĠDen bon
ĠHap deog
ĠShe la
ĠShe khem
ST E
Ġbakhat dub
Ġnyngk oag
ĠBel h
ĠBel seb
ĠLaitum kbr
Hi kai
Ġus ebok
Ġjf ing
ĠUT k
ĠSd b
ĠSd iah
ĠBap li
ĠPe kaha
ĠDirector s
ĠCent ra
Ġjaitbynr lew
Ġcol our
ĠMaka bi
ĠMaka bis
ĠMaka baios
thap niang
Ġpya ban
Ġpro jek
Ġniuh khlieh
PYN IM
Ġsyl ar
Ġrym bai
Ġshngai fl
Ġshngai ft
Ġdab ia
ĠMul uk
Ġkynh ot
Ġkynh oit
ĠAP OSTO
shet ja
Ġkurn ba
Ad v
Ġqu es
Ġqu oted
Ġkon traktor
Ġjt ngi
Ġjt mg
Ġjingman a
ĠMA Sl
ĠThad daios
Ġlyog ba
Ġlyog ngoh
ĠXXX I
Phar eng
fm h
jh ieh
loh g
Ġhaog ta
ĠTib er
ĠTHA N
ĠAf ter
Ġsaian tis
Ġpyt shang
Ġapp ointed
Ġ79300 1
Ġ79300 3
Kam rup
ful ly
Ġbakha dduh
Ġlynn ing
Ġsc isoh
Ġsew tuh
Ġdain i
iev ing
ĠSap hin
ĠSap hira
ĠJes se
Ġkbat duh
Ġbasngew tynnad
Ġliew stad
Ġiait rei
Ġtrad e
Ġtrad ers
ĠpynY ap
ĠPla y
ĠPla ce
ĠIC hasi
ĠRh etor
ĠRh ymes
Ġ216 6
Ġpyrt uit
ĠWor ks
ĠCi tap
ĠShem phang
Ġjail bynriew
ĠKait or
ĠSil k
ĠSil banos
Ġkhdn lung
ĠpynT aid
ĠJop pa
ĠLo adi
ĠLo barson
ĠPi hahiro
ĠIl ynniew
ĠRel ations
ĠAk bar
Ġmaj ei
ĠMakai fi
Ġgreat est
Ġ270 6
Ġpain khana
Ġbel ong
ĠSYN TIEW
ĠMynn ar
ĠMod el
ĠTet rakhy
ĠPong shai
ihuh paw
Ġkhain shi
Ġfar ik
Ġpynsy ier
Ġsbip hang
Ġsbib it
ĠPro verb
Ġjmgmut dur
Ġlymb ung
In spector
Ġbais eng
Ġdes er
Ġjinghi kal
ĠHall el
ĠJaw er
ĠJaw hoit
ĠLiter eshor
ĠPoh krong
Ġthyll iet
ĠDui ong
ĠRes erved
ĠNongp yllait
Ġjingsuh khun
ĠGer isim
ĠJingsngew nguh
Ġcoun trymen
Ġbiin sien
Ġjingphuh mat
sein iong
Ġz i
Ġpih uifi
yna har
Ġkhw up
Ġkhw iap
ĠTIEW IWBIH
ĠPy thia
ĠEp ic
ĠEp ist
ĠCar l
Ġff la
Ġgrow n
Ġpynias ob
87 5
syn ci
Ġksi r
Ġksi og
Ġkthaw kurim
Ġsui fl
Ġsui table
Ġpv ndep
ĠKm ic
Ġjingf ap
Ġmvn ta
ĠSop har
ĠBle L
ĠBle j
Ġ316 6
ĠWait lam
ĠLak iang
ĠLak shmi
ĠGen til
ĠGol iath
Ġfound ation
Ġcar ta
Ġjingtr d
Ġjingtr el
ĠMaha bharata
Ġbakyn sai
ĠSaitso Kpen
ĠLeilong kur
ĠLeilong jait
Sai isohpen
ĠSyi om
ĠSyi ein
ĠLing uistic
ĠDUR BAR
Ġnonglam ktien
yndet on
ĠCor ris
ĠfC hasi
Ġbatb ymmai
Ġjingpynia bynta
ĠInter rog
Ġxxx x
Ġmorph ology
Ġshympriah ti
jun ction
mos phere
tyngk rong
ĠKei th
ĠKen khria
ĠKis ot
ĠKbr onikl
ĠBrow n
Ġshalyng ka
ĠHir ekanos
ĠLet ter
ĠTyn jang
Ġthyr nia
Ġthyr amai
ĠDg im
Ġpyrdai ii
Ġac id
Ġac qu
lion aire
Ġjmgpyn long
ĠStud ies
Ġhear ts
Ni uma
sal ia
Ġbapa u
Ġlook ed
Ġsom ew
Ġtynn um
Ġbg d
Ġrie W
ĠSN OHBAH
ĠHit ler
ĠJust in
ĠTran s
ĠPb il
Ġthyn imai
Ġthyn unai
ĠRas mohon
Ġsagew thuh
Ġgiv ing
ĠJaih tiapur
Lym bong
Ph ra
US ALEM
yog kong
Ġsw ali
Ġsik ret
Ġidi olect
Ġshr iak
ĠNal le
ĠNal ini
ĠPynd eng
Ġshik long
ĠArist ubulos
ĠArist obulos
ĠKhai fi
ĠES THER
Ġjingiatbub kbana
Ġind ica
Ġpyor em
Ġpyor oi
Ġgro up
ĠJINGIA THUH
hl kai
pra si
Ġkaji ih
Ġkaji og
Ġsug i
Ġdop wai
ĠSyngk en
ĠKash ee
ĠTt um
ĠTfi omasjones
ĠPU LE
ĠIQ iasi
ĠIsh mel
ĠDOH NUD
Ġjingpynr ung
Ġjingpynt rei
Ġkby od
Ġjinglyng a
ĠPoli cy
Ġjingiasaid nia
ĠJAIT BYN
Ġfrien d
Ass am
Map hi
pba ag
pynd ap
pro ved
Ġjun cture
Ġpii la
ĠKain an
Ġmur ot
ĠBes jo
ĠHip shon
ĠMun da
ĠLuk bi
ĠRan jit
Ġbaro fa
ĠWol flang
Ġjingiak op
ĠGos pd
Ġjaitb yntiew
Ġcent ury
Ġsohkha son
ĠManas seh
ĠJehoiak in
ĠKnm no
ĠTaberna kI
Pud khia
Sam la
gro und
Ġket li
Ġrukor a
ĠST EN
ĠSok ra
ĠSiar mon
ĠStan d
ĠHym n
ĠHvn rei
Ġhyr irei
Ġnongth iem
ĠAug ustine
Ġsngewb tai
ĠCat tel
ĠGom morah
Ġcur teng
Ġcle ar
odes a
ĠUmsh ken
Ġkyt teng
Ġjingkhei fl
Ġâĸ ¡
Ġorig inal
Ġdoub le
ĠNONGIA LAM
Ġjingiasyr lem
Ġpublic ation
ĠJINGSHI M
trib es
Mat li
ex tra
mor al
Ġbaha dien
Ġback ground
Ġlymm uh
Ġsynrei l
Ġpiah wei
Ġhadi eii
Ġjingib it
atha ia
Ġkhfii um
ĠMynr i
ĠPand ua
Ġkynph uit
ĠAsap h
ĠKhor asin
ĠEnd ren
Ġchi ld
ĠBaa sha
ĠSohm rit
Ġjaif is
Ġrayn ba
ĠRaj put
ĠZe aland
Ġkla u
Ġkylh m
Ġjic d
Ġjic g
Ġnyr a
Ġnok ol
Ġtil uh
Ġrut it
Ġmod al
ĠSkai thia
Ġishong khia
Ġishong kun
Ġkhmi li
ĠNeng pei
ĠLim eri
ĠLYNG DOH
ĠDim asa
ĠReb ekah
Ġnongban beifl
Ġpyra hah
Ġjingiad ci
Ġstrong ly
Ġnongkyr shan
ĠKliar mikar
Ġconsider ed
ĠPales tine
ĠXXV III
79300 1
Ġkhyod ew
ESS ALONI
Doh nud
Es th
KOR INTH
LY PA
col ony
Ġbac ooid
Ġjynr at
Ġmed ium
ĠSrom motimai
ĠSAW PHEW
Ġpynin ih
ĠHah oi
ĠHynt ei
ĠJep thah
ĠJeb us
ĠLlan idloes
ĠTK omasJones
Ġshij hoh
ĠRynta thiang
ĠRymp bang
Ġparam ynsiem
ĠProg ress
ĠProg ramme
Ġiakynd ub
Ġraar wei
Ġbsei S
Ġabol ished
ĠElim as
ghte ous
ĠJINGKYN THOH
ĠJINGKYN TU
Bis ei
Dur bar
Pbar shi
Ġjen til
Ġjour ney
ĠKW AH
Ġtus bir
Ġjingaw ria
ĠSek retary
Ġkhk wait
ĠBre ktist
Ġpynrn ih
ĠHub ert
ĠNic obar
ĠJER USALEM
ĠTak e
ĠTrib es
Ġthu nem
ĠDic kens
ĠDOR BAR
ĠDieog iei
ĠAdon sing
Ġmynb yndai
ĠKharn aior
Ġkyrj uid
oper ative
ĠGam aliel
Ġdiengp yngkiang
ĠMahar am
Ġsku L
ĠMawka iew
ĠSohlap er
ĠBadon bor
Ġkyil eng
Ġtyrn men
ĠGeom etry
ĠMathemat ical
ĠCherrap un
Ġcomplement iser
Ġretur ned
ĠGriffi th
Histor y
Nine be
Shu nem
Ġrnar iang
Ġshgi uh
ĠJcr cmaiah
ĠTub er
ĠDid imos
ĠDain thlen
ĠDup uli
inad ab
ĠAha saiah
Ġbarang li
ĠKhass ia
ĠCENT RAL
ĠGib ion
Ġfis ra
ĠShalam en
ĠShloi fi
Ġchan ce
Ġpynsei soh
ĠVes par
ĠOl toma
ĠOthn iel
leg ory
ĠSohtyngk dom
sec ond
ĠFab les
ĠFlor entina
ĠMeth uselah
Ġkhria tan
ĠStre et
ĠBAKH UID
ĠPynpoi kam
ĠArtaks ar
ĠKynsh reng
Ġelement s
ĠSOBJ EKT
ĠSpon dee
ĠBaph ylla
ĠNONGIATHUH LYPA
UJIS U
ĠLieuten ant
One simos
Rhi me
SC STE
Up odesa
sel ves
Ġsyll ud
Ġlaim iet
ĠKuj u
ĠKvm ta
Ġpynur long
ĠHE BRU
ĠHook er
ĠJOS HUA
ĠRONG BIR
ĠRYMP EI
ĠArim athaia
ĠAva tar
Ġbariew blei
Ġphyng nang
ĠNongks eb
ĠLakad ong
ĠCard inal
ĠGab riel
Ġflia d
ĠShaid om
ĠShand ora
uplet s
Ġcustom er
ĠBachiar ello
ĠVen ice
Ġsohtyngk oh
Ġterrit ory
Ġiasy ilem
ĠStream let
ĠReview ing
ĠArtic le
ĠLaittyr a
ĠWahum dong
rehen sive
ĠLamph rano
Khong jin
Ġexpl odes
ĠPomsh ella
ĠRefor ms
ĠMangka shang
Ġerop lein
ĠDAB ID
ĠPYNDON KAM
ĠSuch iang
ĠVivekan anda
Ġsitu ated
ĠJtNG THOH
ĠSavit ri
Ġkhvnd ew
Ġeconom ic
Mal ngiang
Mek edonia
Nasar eth
Put it
Version s
WBi H
ĠkaShi thi
Ġiaiw ad
Ġjingsicw spah
ĠSci on
ĠKaiap has
ĠKalen dar
ĠBbab new
ĠBbu yan
ĠBrata s
ĠHot el
Ġlongkf iii
ĠNest orian
ĠTESTA MENT
ĠPalm er
ĠPith om
ĠPET ROS
Ġshikad dei
ĠDrai bar
ĠDymm u
ĠDuba sia
ĠDRA MA
ĠRustom ji
ĠKikai on
Ġbrak et
ulil ypa
ĠAlad din
ĠAWAR D
ĠAcephalo us
ĠNongkhi rlem
rinel is
ĠWyc li
Ġjakhl aid
Ġthauj ait
Ġjingiatyng khuh
ĠClas sic
ĠGlad ys
Ġparalo fc
ĠVoc abulary
ĠVatic an
Ġinhabi tants
Ġjingpynkhr eli
ĠMawml ub
Ġsohtr un
Ġvers es
ĠStainfor th
Ġattrib ute
ĠTiewlar un
Ġspee ch
ĠKharsat i
Jingkhei ii
ĠConsul tations
Ġdiffic ult
ĠKomili os
ĠScient ist
ĠPolyg onum
ĠHystap es
ĠNathanai l
ĠMerwin na
ĠMeroda kh
ĠHormur ai
ĠBhagvat gita
ĠNiaphor sing
ĠSOLOM ON
ĠBelseb ul
ĠLaitumkbr ah
ĠPekaha iah
ĠAPOSTO L
ĠPihahiro th
ĠRONGBIR IA
! '
! Â»
" "
" ;
" âĢĻ
" Â®.
$ ,
& '
' ?
' ).
' ^^
) (
) )
* )
* >
* ?
* |
* ),
* Â®
* Â®.
, ;
, _
, âĢľ
- )
- âĢĺ
. >
. Â£
/ "
/ )
/ âĢĻ*
0 2
3 18
4 51
5 60
9 13
9 37
9 56
9 57
: ,
: /
: >
: \
; '
; )
; ]
< (
< ;
< <
> ;
> Â«
> Â»
? *âĢĻ
A k
A o
A iew
A LA
A nt
A hem
A cc
A rt
B h
B w
B uh
B eh
B eng
B el
B ph
B fi
B rit
B ER
B EIT
B ST
B ale
B lank
C A
C E
C V
C k
C o
C her
C LE
D N
D P
D ie
D iew
D ew
D ev
D iv
D EI
D ENG
D ANG
D UP
E a
E d
E n
E w
E x
E ng
E le
E thi
E ditor
F r
F t
G e
G od
H M
H N
H T
H b
H g
H ai
H at
H oi
H aduh
H fc
H EM
H UM
H UR
I G
I ei
I ai
I eh
I iang
I sh
I Ca
J L
J M
J uh
J at
J ym
J ot
J iang
J uk
J os
J iar
J iaw
J mg
J iw
J ylliew
J ordan
J aih
K B
K en
K eng
K ab
K up
K ci
K ber
K ali
K ynmaw
K YR
K yndit
K ynriah
K pm
K yU
K ito
L N
L e
L g
L yr
L en
L ad
L al
L ead
L ER
L EN
L EM
L ES
L UNG
L IAR
L ady
M C
M J
M P
M Q
M c
M oh
M em
M er
M ad
M od
M ib
M ow
M YN
M ari
M ustoh
M AN
M ynsiem
M IET
M eeee
M sgr
M ylliem
M oses
N ur
N AT
N iuh
N EHU
O G
O Q
O ia
O it
O Dg
O LI
P Q
P T
P d
P g
P an
P ub
P as
P rim
P ONG
P rah
P EIT
P hawar
P arad
Q l
Q m
Q p
R a
R g
R ait
R ap
R wai
R IT
R IM
R UM
R WAI
R odborne
S E
S K
S M
S R
S em
S ew
S ep
S ub
S ham
S ak
S ft
S tat
S haw
S nem
S had
S HI
S hem
S ten
S IEN
S tem
S mit
S IANG
S tew
S kei
S thlen
S ynsbar
S ynteng
T t
T hi
T ew
T ii
T li
T rei
T ied
T re
T be
T IENG
T RAI
T UNG
U B
U W
U k
U w
U ia
U uh
U at
U iew
U ur
U no
U ung
U kai
U le
U IT
U nc
U PA
V V
W M
W w
W ur
W al
W ait
W IENG
W IR
W here
Y u
Y ing
[ /
\ )
\ -
\ /
] ,
] -
] Â»
^ !
^ &
^ :
^ <
^ \
^ ).
^ âĢĺ
^ **
^ Â®
^ âĢĻ^
a ha
a ien
a ot
a kh
a uk
a ul
a kha
a ab
a iet
a ug
a lap
a nem
a lade
a khia
a cc
a nes
a yin
b J
b c
b ie
b ing
b ep
b ra
b bah
b es
b mih
b tt
b oin
b fii
b ome
b ishni
b oag
b neog
b ooks
c A
c B
c S
c ei
c at
c en
c na
c una
c ks
c rit
c ken
c iii
c rom
c vv
c iig
c lass
c ons
c ircum
c lassical
d ut
d im
d ra
d ieh
d og
d bah
d raw
d har
d ein
d iap
d khar
d rama
d khur
d ulan
e S
e g
e ai
e hi
e as
e ce
e ther
e ded
f T
f uh
f on
f eh
f ah
f yl
f ot
f oi
f thei
f di
f cw
f ohi
f oli
f hano
g J
g ei
g ap
g le
g oo
g her
g brot
g raph
h m
h r
h w
h ba
h ot
h lei
h ung
h wa
h iat
h uid
h rei
h eb
h ch
h od
h mu
h oid
h oin
h ynrang
i C
i V
i long
i iar
i fi
i ja
i ui
i ow
i rist
i iea
j ha
j yn
j ta
j la
j is
j yng
j im
j rei
j ni
j iaw
j rem
j ali
j ail
j iad
j unom
j pb
j nl
j lng
j iir
j oDg
j zn
k ta
k is
k ien
k ynrei
k ic
k bi
k fa
k kat
k iak
k alang
k dew
k dr
k yndeh
l C
l M
l V
l j
l p
l ta
l sha
l ri
l to
l fi
l ma
l iaw
l ent
l mg
l uin
l cn
l ca
l iter
l athuh
l dn
l iea
m b
m r
m ia
m yr
m iew
m im
m no
m ait
m tien
m og
m rai
m men
m ain
m rei
m ic
m ci
m dong
m maw
m ram
m dit
m ali
m ission
m tt
m ail
m kylla
m ias
m donkam
m inot
m idt
n L
n O
n ait
n thei
n iar
n kam
n siem
n ic
n le
n st
n nam
n alor
n tom
n uksa
o S
o U
o ba
o is
o eng
o om
o oog
o bai
o fa
p duh
p mat
p ii
p men
p ris
p ied
p od
p re
p oog
p di
p est
p aifi
p vn
p roh
p uri
p len
p of
p brang
p ale
p ecial
p ire
p deb
p byna
q it
q uit
q pg
r p
r no
r ti
r ieng
r thuh
r men
r teng
r sa
r ci
r tbei
r ura
r ope
r nen
r oduc
r edicate
r hic
s g
s en
s om
s ka
s ri
s ylla
s kai
s se
s bab
s leit
s tat
s eifi
s nar
s ngl
s ier
s ara
s uda
s lung
s ieb
s ympat
s ynram
s ogi
s ora
s daog
s tao
s dot
t S
t V
t long
t iaw
t iap
t rong
t re
t bab
t mg
t rad
t tb
t rang
t rem
t nai
t ec
t di
t fa
t bang
t ry
t reh
t yndong
t ff
t lot
t nen
t bap
t yllun
t ylliat
t biih
u K
u q
u y
u ie
u ang
u an
u em
u en
u ad
u et
u ud
u sh
u il
u ui
u tang
u ug
u tar
u ate
u shia
v f
v p
v ad
v oi
v ti
v rai
v ic
v ci
v ival
w c
w k
w m
w y
w ing
w ur
w eit
w is
w ung
w dong
w ig
w blei
w oifi
w cmfm
x a
x th
x is
x yl
x im
x ii
x ote
y e
y p
y at
y ah
y aw
y iang
y ih
y ti
y id
y tt
y cl
y terian
z ng
z ing
z et
z ik
z one
z tec
| :
~ -
Â ±
Ð °
Ð ±
â ĸ
Ġ ynd
Ġ ok
Ġ ieu
Ġ ylliew
Ġ ohi
Ġ ess
Ġ eracy
Ġ ielt
Ġk B
Ġk I
Ġk M
Ġk Q
Ġk x
Ġk og
Ġk de
Ġk ban
Ġk bab
Ġk fl
Ġk tam
Ġk mu
Ġk ek
Ġk oni
Ġk elfi
ng e
ng p
ng s
ng on
ng oi
ng long
ng doh
ng oid
ng cw
ng kong
Ġka U
Ġka c
Ġka ong
Ġka um
Ġka nong
Ġka iar
Ġka uid
Ġka kam
Ġka di
Ġka pi
Ġka kt
Ġka ca
Ġka dor
Ġka hok
Ġka pan
Ġka bn
Ġka uo
Ġka dohnud
Ġka iio
Ġka janmiet
ba f
ba u
ba ym
ba ih
ba in
ba ra
ba nong
ba bha
ba dei
ba jar
ba ug
ba ss
ba stad
ba inong
ba khon
Ġba J
Ġba ta
Ġba em
Ġba iang
Ġba sha
Ġba thoh
Ġba juh
Ġba wan
Ġba bat
Ġba tar
Ġba iei
Ġba iaid
Ġba ling
Ġba shem
Ġba lo
Ġba shitom
Ġba ld
Ġba shoh
Ġba ini
Ġba icit
Ġba shyrkhei
Ġba maian
Ġba shemphang
Ġba foh
Ġba ogta
ha g
ha u
ha id
ha bar
ha ki
ha dar
ha pdeng
ha idien
Ġl E
Ġl yl
Ġl ien
Ġl ul
Ġl es
Ġl lang
Ġl ic
Ġl ib
Ġl ll
Ġl oo
Ġl had
Ġl ead
Ġl ore
Ġl AR
Ġl icw
Ġl EW
Ġl ini
Ġl lng
Ġl yntih
Ġl uni
Ġl ENG
Ġl eli
Ġl ihg
Ġl EIT
Ġl ogy
Ġl ull
Ġl eader
Ġki f
Ġki p
Ġki u
Ġki wai
Ġki ki
Ġki don
Ġki eu
Ġki siar
Ġki Wei
Ġki evv
Ġki vvei
Ġki story
ia ha
ia ong
ia ar
ia is
ia ri
ia ieit
ia shai
ia hap
ia khlad
ia kiba
ia tig
Ġs g
Ġs ud
Ġs ung
Ġs nong
Ġs ynta
Ġs lor
Ġs le
Ġs ig
Ġs tah
Ġs ieu
Ġs alm
Ġs ali
Ġs ell
Ġs ek
Ġs Dg
Ġs ck
Ġs era
Ġs vi
Ġs jm
Ġs old
Ġs fai
Ġs ever
Ġs ynshai
Ġs Uang
Ġs ekshon
Ġs yllen
Ġs Dgi
Ġu g
Ġu k
Ġu am
Ġu ra
Ġu na
Ġu dei
Ġu jong
Ġu oa
Ġu sing
Ġu bu
Ġu ao
Ġu jo
ong y
Ġj K
Ġj M
Ġj ie
Ġj ta
Ġj ynrei
Ġj ada
Ġj iaw
Ġj ymp
Ġj di
Ġj oo
Ġj ea
Ġj cn
Ġj bad
Ġj sng
Ġj yo
Ġj ogi
Ġj ms
Ġj cmg
Ġj wain
Ġj img
Ġj Ong
Ġj wg
Ġj reifi
Ġj qng
Ġj ocg
Ġj lag
Ġp U
Ġp s
Ġp ta
Ġp us
Ġp de
Ġp ki
Ġp ci
Ġp bat
Ġp una
Ġp eifi
Ġp uj
Ġp las
Ġp pt
Ġp uli
Ġp vi
Ġp ric
Ġp yllaw
Ġp irn
Ġp sych
Ġla U
Ġla ri
Ġla ii
Ġla lang
Ġla thoh
Ġla wan
Ġla noh
Ġla tap
Ġla rah
Ġla seng
Ġla tt
Ġla iii
Ġla nor
Ġla iig
Ġla thung
Ġla oot
Ġla sting
Ġla ladc
Ġla ksaid
Ġla ughter
Ġla ishnong
yn c
yn im
yn thei
yn ci
yn neng
yn shitom
yn unai
ei e
ei o
ei u
ei ng
Ġia ri
Ġia san
Ġia ib
Ġia tar
Ġia kata
Ġia lad
Ġia lur
Ġia bad
Ġia neh
Ġia kaba
Ġia jot
Ġia bishar
Ġia khawai
Ġia shor
Ġia Jeh
Ġia jei
Ġia shakri
Ġia ahem
Ġd M
Ġd ha
Ġd eh
Ġd ra
Ġd og
Ġd il
Ġd uit
Ġd ow
Ġd ft
Ġd pi
Ġd tt
Ġd aifi
Ġd iab
Ġd ate
Ġd uty
Ġd leng
Ġd tm
Ġd khaw
Ġd nn
Ġd oti
Ġd utn
Ġd yngkh
ĠK em
ĠK eh
ĠK ul
ĠK sh
ĠK ub
ĠK ri
ĠK iar
ĠK ed
ĠK ynda
ĠK ber
[...]
