{"<sos>":0,"<pad>":1,"<eos>":2,"<unk>":3,"<mask>":4,"!":5,"\"":6,"#":7,"$":8,"%":9,"&":10,"'":11,"(":12,")":13,"*":14,"+":15,",":16,"-":17,".":18,"/":19,"0":20,"1":21,"2":22,"3":23,"4":24,"5":25,"6":26,"7":27,"8":28,"9":29,":":30,";":31,"<":32,"=":33,">":34,"?":35,"@":36,"A":37,"B":38,"C":39,"D":40,"E":41,"F":42,"G":43,"H":44,"I":45,"J":46,"K":47,"L":48,"M":49,"N":50,"O":51,"P":52,"Q":53,"R":54,"S":55,"T":56,"U":57,"V":58,"W":59,"X":60,"Y":61,"Z":62,"[":63,"\\":64,"]":65,"^":66,"_":67,"`":68,"a":69,"b":70,"c":71,"d":72,"e":73,"f":74,"g":75,"h":76,"i":77,"j":78,"k":79,"l":80,"m":81,"n":82,"o":83,"p":84,"q":85,"r":86,"s":87,"t":88,"u":89,"v":90,"w":91,"x":92,"y":93,"z":94,"{":95,"|":96,"}":97,"~":98,"¡":99,"¢":100,"£":101,"¤":102,"¥":103,"¦":104,"§":105,"¨":106,"©":107,"ª":108,"«":109,"¬":110,"®":111,"¯":112,"°":113,"±":114,"²":115,"³":116,"´":117,"µ":118,"¶":119,"·":120,"¸":121,"¹":122,"º":123,"»":124,"¼":125,"½":126,"¾":127,"¿":128,"À":129,"Á":130,"Â":131,"Ã":132,"Ä":133,"Å":134,"Æ":135,"Ç":136,"È":137,"É":138,"Ê":139,"Ë":140,"Ì":141,"Í":142,"Î":143,"Ï":144,"Ð":145,"Ñ":146,"Ò":147,"Ó":148,"Ô":149,"Õ":150,"Ö":151,"×":152,"Ø":153,"Ù":154,"Ú":155,"Û":156,"Ü":157,"Ý":158,"Þ":159,"ß":160,"à":161,"á":162,"â":163,"ã":164,"ä":165,"å":166,"æ":167,"ç":168,"è":169,"é":170,"ê":171,"ë":172,"ì":173,"í":174,"î":175,"ï":176,"ð":177,"ñ":178,"ò":179,"ó":180,"ô":181,"õ":182,"ö":183,"÷":184,"ø":185,"ù":186,"ú":187,"û":188,"ü":189,"ý":190,"þ":191,"ÿ":192,"Ā":193,"ā":194,"Ă":195,"ă":196,"Ą":197,"ą":198,"Ć":199,"ć":200,"Ĉ":201,"ĉ":202,"Ċ":203,"ċ":204,"Č":205,"č":206,"Ď":207,"ď":208,"Đ":209,"đ":210,"Ē":211,"ē":212,"Ĕ":213,"ĕ":214,"Ė":215,"ė":216,"Ę":217,"ę":218,"Ě":219,"ě":220,"Ĝ":221,"ĝ":222,"Ğ":223,"ğ":224,"Ġ":225,"ġ":226,"Ģ":227,"ģ":228,"Ĥ":229,"ĥ":230,"Ħ":231,"ħ":232,"Ĩ":233,"ĩ":234,"Ī":235,"ī":236,"Ĭ":237,"ĭ":238,"Į":239,"į":240,"İ":241,"ı":242,"Ĳ":243,"ĳ":244,"Ĵ":245,"ĵ":246,"Ķ":247,"ķ":248,"ĸ":249,"Ĺ":250,"ĺ":251,"Ļ":252,"ļ":253,"Ľ":254,"ľ":255,"Ŀ":256,"ŀ":257,"Ł":258,"ł":259,"Ń":260,"Ġk":261,"ng":262,"Ġka":263,"ba":264,"Ġba":265,"ha":266,"Ġl":267,"Ġki":268,"ia":269,"Ġs":270,"Ġu":271,"ong":272,"Ġj":273,"Ġp":274,"Ġla":275,"yn":276,"ei":277,"Ġia":278,"Ġd":279,"ĠK":280,"ie":281,"Ġn":282,"Ġt":283,"Ġha":284,"ing":285,"ai":286,"Ġbad":287,"Ġb":288,"oh":289,"Ġjing":290,"hi":291,"ta":292,"âĢ":293,"Ġr":294,"uh":295,"ar":296,"Ġm":297,"ang":298,"Ġban":299,"ne":300,"at":301,"ĠU":302,"ĠS":303,"on":304,"Ġi":305,"an":306,"Ġng":307,"um":308,"Ġkh":309,"or":310,"Ġjong":311,"Ġsh":312,"ĠKa":313,"am":314,"Ġ(":315,"ĠB":316,"Ġpyn":317,"Ġda":318,"ĠâĢ":319,"Ġkaba":320,"Ġsha":321,"ĠH":322,"yr":323,"Ġlong":324,"ĠN":325,"iew":326,"ĠJ":327,"Ġna":328,"la":329,"th":330,"Ġ1":331,"Ġkum":332,"em":333,"ĠM":334,"eh":335,"ew":336,"ĠL":337,"ah":338,"er":339,"un":340,"ĠT":341,"it":342,"ur":343,"en":344,"ĠP":345,"aw":346,"ym":347,"eit":348,"Ġdon":349,"Ġth":350,"Ġw":351,"is":352,"yl":353,"ut":354,"ĠI":355,"Ġngi":356,"ien":357,"Ġkiba":358,"ot":359,"ad":360,"wei":361,"ynr":362,"Ġshi":363,"ĠD":364,"eng":365,"om":366,"Ġh":367,"ĠR":368,"ĠKi":369,"yng":370,"Ġsng":371,"al":372,"iang":373,"ih":374,"Ġdei":375,"Ġruh":376,"Ġnga":377,"Ġpat":378,"kh":379,"im":380,"Ġkyn":381,"iem":382,"no":383,"in":384,"uk":385,"Ġnong":386,"yll":387,"Ġkane":388,"ĠHa":389,"Ġkha":390,"si":391,"oi":392,"ait":393,"sha":394,"Ġkat":395,"ti":396,"ep":397,"ka":398,"Ġ2":399,"Ġphi":400,"ap":401,"id":402,"lei":403,"Ġbr":404,"ul":405,"Ġkam":406,"et":407,"ĠA":408,"Ġ:":409,"ĠâĢľ":410,"Ġong":411,"ĠâĢĶ":412,"kha":413,"tien":414,"Ġne":415,"Ġioh":416,"Ġmyn":417,"Ġuba":418,"Ġbar":419,"ieng":420,"Ġpyr":421,"ĠKha":422,").":423,"ynd":424,"âĢĿ":425,"Ġkata":426,"Ġtang":427,"Ġhi":428,"âĢĻ":429,"ud":430,"Ġbriew":431,"duh":432,"Ġlah":433,"Ġai":434,"el":435,"sh":436,"yiem":437,"Ġbaroh":438,"ok":439,"ub":440,"Ġwan":441,"Ġ-":442,"ynrei":443,"Ġpor":444,"Ġsngew":445,"amar":446,"Ġ;":447,"Ġleit":448,"ip":449,"ĠKh":450,"Ġph":451,"ra":452,"ĠKhasi":453,"hang":454,"Ġsa":455,"ĠBlei":456,"Ġju":457,"yngk":458,"ieh":459,"ĠNg":460,"os":461,"Ġnoh":462,"ob":463,"da":464,"ĠNong":465,"Ġktien":466,"Ġkyr":467,"long":468,"ri":469,"ung":470,"nong":471,"Ġa":472,"na":473,"ph":474,"thuh":475,"Ġ3":476,"og":477,"Ġkawei":478,"iah":479,"thei":480,"Ġsngi":481,"iar":482,"Ġnang":483,"Ġar":484,"ynta":485,"bah":486,"mat":487,"Ġkhl":488,"Ġsne":489,"ĠâĢĺ":490,"ren":491,"Ġym":492,"ĠW":493,"Ġshu":494,"op":495,"Ġnamar":496,"Ġjings":497,"Ġpha":498,"Ġleh":499,"rai":500,"Ġ*":501,"es":502,"Ġri":503,"ĠLa":504,"ĠY":505,"Ġja":506,"Ġkhun":507,"wai":508,"Ġtha":509,"pa":510,"Ġshong":511,"Ġjingk":512,"ii":513,"ĠE":514,"Ġhap":515,"wa":516,"ylla":517,"Ġsnem":518,"Ġkan":519,"Ġ4":520,"as":521,"Ġum":522,"Ġkiwei":523,"Ġdang":524,"Ġjingia":525,"Ġhaba":526,"ĠC":527,"to":528,"Ġkine":529,"Ġhynrei":530,"Ġkham":531,"iam":532,"Ġeh":533,"fi":534,"ĠSyiem":535,"ynn":536,"Ġjingp":537,"phang":538,"Ġbha":539,"ynt":540,"Ġthoh":541,"iat":542,"li":543,"Ġma":544,"Ġkin":545,"Ġshuh":546,"Ġo":547,"men":548,"ĠKum":549,"ma":550,"Ġkot":551,"ĠG":552,"aid":553,"ylli":554,"ĠJing":555,"Ġun":556,"Ġkren":557,"Ġjait":558,"Ġtip":559,"ris":560,"ir":561,"Ġmih":562,"Ġf":563,"Ġshnong":564,"Ġei":565,"uid":566,"Ġ5":567,"ain":568,"il":569,"Ġ.":570,"Ġkumba":571,"Ġbun":572,"Ġbynta":573,"ol":574,"Ġhaduh":575,"us":576,"lang":577,"rei":578,"Ġ'":579,"de":580,"ĠShi":581,"Ġjaka":582,"Ġ6":583,"Ġ19":584,"Ġkl":585,"kai":586,"mih":587,"ab":588,"teng":589,"Ġpyrthei":590,"kam":591,"Ġpynd":592,"ĠSha":593,"ĠSh":594,"Ġmar":595,"Ġkumta":596,"ĠTh":597,"ukom":598,"ule":599,"mut":600,"up":601,"Ġks":602,"ĠRi":603,"siem":604,"Ġkhmat":605,"mie":606,"Ġpoi":607,"Ġbuh":608,"Ġthe":609,"Ġpar":610,"ngi":611,"ngew":612,"Ġlyn":613,"Ġrukom":614,"Ġshaphang":615,"Ġhang":616,"doh":617,"thoh":618,"deng":619,"bar":620,"Ġim":621,"raw":622,"Ġ7":623,"khat":624,"Ġ^":625,"Ġsah":626,"Ġdoh":627,"ĠâĢĻ":628,"Ġkhlem":629,"har":630,"Ġmynta":631,"Ġlyng":632,"Ġbym":633,"Ġc":634,"Ġbiang":635,"ĠKhris":636,"Ġto":637,"Ġlang":638,"ĠHaba":639,"Ġkiei":640,"Ġte":641,"bha":642,"ik":643,"Ġkhot":644,"Ġpyns":645,"Ġman":646,"ĠNga":647,"Ġwat":648,"Ġbor":649,"Ġiohi":650,"ĠJis":651,"Ġsn":652,"Ġngin":653,"ĠBa":654,"ein":655,"Ġkano":656,"ĠJisu":657,"Ġdur":658,"Ġlada":659,"Ġdieng":660,"Ġjingt":661,"Ka":662,"Ġtar":663,"lor":664,"Ġngan":665,"dien":666,"ed":667,"ic":668,"leh":669,"âĢĶ":670,"ied":671,"sa":672,"Ġsyiem":673,"Ġkumno":674,"dei":675,"dang":676,"eb":677,"Ġbam":678,"Ġkatba":679,"Ġsb":680,"Ġkhn":681,"iej":682,"Ġmynsiem":683,"Ġ8":684,"Ġpynk":685,"Ġ9":686,"Ġshim":687,"19":688,"tad":689,"tab":690,"Ġof":691,"bun":692,"Ġsaw":693,"NG":694,"Ġshah":695,"urom":696,"Ġiing":697,"Ġjingmut":698,"Ġuwei":699,"Ġ?":700,"Ġiap":701,"ĠBal":702,"ynriew":703,"Ġshem":704,"Ġ18":705,"ch":706,"juh":707,"ĠV":708,"Ġbn":709,"Ġkim":710,"Ġbat":711,"wah":712,"ĠMar":713,"one":714,"ĠMa":715,"ada":716,"Ġriew":717,"ĠO":718,"ĠKane":719,"Ġlum":720,"Ġjingim":721,"Ġkyrteng":722,"Ġsk":723,"Ġlap":724,"ĠTrai":725,"Ġpeit":726,"Ġbah":727,"Ġlynti":728,"ki":729,"ci":730,"neng":731,"Ġkhynd":732,"angbah":733,"tan":734,"Ġme":735,"ĠKA":736,"yngkong":737,"),":738,"Ġ10":739,"Ġkb":740,"Ġin":741,"Ġjingpyn":742,"Ġmut":743,"Ġling":744,"Ġsam":745,"Ġhapoh":746,".âĢĿ":747,"Ġlade":748,"Ġlai":749,"Ġkti":750,"ĠMaw":751,"ĠDon":752,"ĠKumta":753,"le":754,"st":755,"ĠHynrei":756,"Ġshis":757,"and":758,"ieit":759,"pah":760,"ni":761,"iaw":762,"Ġiathuh":763,"ath":764,"Ġshit":765,"kor":766,"shi":767,"Ġkita":768,"Ġkhla":769,"iap":770,"Ġmaw":771,"ĠNa":772,"Ġ12":773,"ja":774,"ĠId":775,"Ġtylli":776,"od":777,"Ġhadien":778,"br":779,"ĠJong":780,"Ġpa":781,"Ġpyrkhat":782,"ĠPa":783,"ĠBar":784,"ban":785,"dong":786,"ĠPhi":787,"Ġpara":788,"..":789,"Ġ!":790,"rong":791,"Ġryngk":792,"Ġpule":793,"Ġlane":794,"Ġnaduh":795,"Ġjinglong":796,"Ġdak":797,"ĠKitab":798,"Ġkd":799,"Ġkit":800,"Ġhalor":801,"Ġkmie":802,"Ġlait":803,"Ġkumne":804,"ĠLyng":805,"Ġsdang":806,"ĠKhrist":807,"ui":808,"Ġsla":809,"ĠSoh":810,"lam":811,"poh":812,"Ġhok":813,"ymm":814,"nud":815,"Ġsur":816,"iet":817,"Ġkylla":818,"Ġburom":819,"rn":820,"tha":821,"ĠBalang":822,"se":823,"Ġjingj":824,"ubor":825,"Ġdaw":826,"Ġ11":827,"san":828,"Ġde":829,"ian":830,"ish":831,"uit":832,"oit":833,"Ġtrei":834,"lem":835,"ynsha":836,"Ġrub":837,"Ġuta":838,"Â«":839,"ly":840,"Ġngam":841,"ishar":842,"Ġkwah":843,"maw":844,"re":845,"Ġpynp":846,"Ġthaw":847,"ĠKat":848,"Â»":849,"shai":850,"Ġwad":851,"Ġshym":852,"Ġst":853,"ĠLada":854,"ist":855,"onkam":856,"ĠBan":857,"Ġniam":858,"Ġphai":859,"ynshar":860,"ynnah":861,"Ġsoh":862,"Ġnyngkong":863,"Ġji":864,"âĢĺ":865,"ĠYn":866,"jing":867,"ent":868,"Ġiaid":869,"ĠUm":870,"ynda":871,"ĠYa":872,"Ġmet":873,"Ġsiej":874,"ct":875,"Ġpynmih":876,"Ġieng":877,"ĠBah":878,"Ġkyll":879,"ram":880,"Ġryngkat":881,"wan":882,"Ġkpa":883,"ib":884,"00":885,"Ġpyni":886,"Ġkatne":887,"Ġphin":888,"Ġhapdeng":889,"jar":890,"ham":891,"ĠII":892,"Ġshisha":893,"pyn":894,"Ġyn":895,"tang":896,"ones":897,"Ġkur":898,"ig":899,"ĠSing":900,"Ġshibun":901,"Ġynda":902,"Ġlut":903,"bab":904,"Ġsan":905,"Ġkynthei":906,"ak":907,"Ġ16":908,"ag":909,"ug":910,"ĠPr":911,"Ġjingd":912,"mg":913,"ĠF":914,"bat":915,"ĠMe":916,"Ġiar":917,"Ġkut":918,"Ġbud":919,"ima":920,"Ġpyrsha":921,"Ġlab":922,"noh":923,"ĠNgi":924,"ion":925,"Ġrit":926,"Ġkhynnah":927,"Ġhima":928,"hikai":929,"Ġkyntien":930,"Ġbnai":931,"thi":932,"ĠMan":933,"Ġ14":934,"Ġjia":935,"ĠYnda":936,"war":937,"dar":938,"Ġly":939,"Ġpy":940,"ukum":941,"Ġngeit":942,"Ġsngewthuh":943,"nd":944,"Ġkt":945,"jat":946,"Ġlok":947,"Ġkhraw":948,"Ġrah":949,"Ġpaw":950,"Ġshai":951,"Ġ13":952,"Ġsba":953,"Ġune":954,"ss":955,"Ġwah":956,"liang":957,"rep":958,"bi":959,"nga":960,"tip":961,"uwa":962,"jan":963,"rad":964,"Ġpynlong":965,"Ġsamla":966,"Ġkatto":967,"ĠJones":968,"hai":969,"Ġkatta":970,"Ġlem":971,"Ġsuk":972,"ĠDa":973,"sngew":974,"Ġlei":975,"Ġap":976,",âĢĿ":977,"iw":978,"Ġpynb":979,"Ġshynr":980,"angta":981,"ĠBad":982,"Ġkaei":983,"diang":984,"ymmen":985,"Ġduh":986,"ĠâĢ¢":987,"ĠDei":988,"Ġrangbah":989,"Ġv":990,"Ġtyng":991,"nia":992,"Ġii":993,"oog":994,"Ġand":995,"Ġbak":996,"Ġkynr":997,"Ġsat":998,"Ġlam":999,"ĠKaba":1000,"Ġdep":1001,"Ġtarn":1002,"rwai":1003,"bynriew":1004,"Ġjingsngew":1005,"Ġkhlaw":1006,"ev":1007,"ymmai":1008,"Ġlad":1009,"pel":1010,"ngai":1011,"sra":1012,"Ġpal":1013,"Ġkhr":1014,"Ġskul":1015,"ĠJer":1016,"ĠHad":1017,"Ġphah":1018,"Ġpyndonkam":1019,"tar":1020,"Ġngut":1021,"Ġshad":1022,"ynrai":1023,"Ġmon":1024,"ow":1025,"tb":1026,"Ġiak":1027,"Ġieit":1028,"Ġta":1029,"ĠHima":1030,"ter":1031,"ord":1032,"ĠPaul":1033,"Ġmiet":1034,"Ġhangne":1035,"fl":1036,"ĠLyngdoh":1037,"kri":1038,"lai":1039,"Ġ15":1040,"ĠPyr":1041,"Ġky":1042,"una":1043,"Ġdonkam":1044,"Ġkhlieh":1045,"Ġit":1046,"shong":1047,"Ġkhnang":1048,"ĠLyn":1049,"omas":1050,"Ġtb":1051,"Ġlaid":1052,"soh":1053,"Ġloh":1054,"ĠShil":1055,"Ġpynkh":1056,"ĠKI":1057,"leit":1058,"Ġpateng":1059,"Ġ17":1060,"âĢĿ.":1061,"Ġshuwa":1062,"ĠNamar":1063,"pher":1064,"Ġkba":1065,"Ġnia":1066,"Ġter":1067,"Ġjingb":1068,"je":1069,"nam":1070,"Ġkp":1071,"ĠUba":1072,"Ġjan":1073,"Ġthi":1074,"Ġrung":1075,"Ġtrai":1076,"Ġrai":1077,"Ġngim":1078,"ĠWat":1079,"Ġsngewbha":1080,"ill":1081,"Ġkito":1082,"Ġdohnud":1083,"Ġjin":1084,"Ġbneng":1085,"oan":1086,"Ġkhi":1087,"Ġuno":1088,"Ġpaid":1089,"ĠTo":1090,"ymp":1091,"ĠMyn":1092,"Ġiai":1093,"Ġbishar":1094,"Ġsyr":1095,"dit":1096,"hun":1097,"rang":1098,"Ng":1099,"Ġkyrp":1100,"srael":1101,"Ġshisien":1102,"Ġjiog":1103,"Ġjingthoh":1104,"ĠTang":1105,"ĠShillong":1106,"Ġhangta":1107,"ĠKhristan":1108,"bor":1109,"Ġnangta":1110,"ce":1111,"Ġnam":1112,"bai":1113,"Ġsy":1114,"Ġg":1115,"yndai":1116,"ĠIsrael":1117,"Ġ,":1118,"khot":1119,"Ġdu":1120,"tam":1121,"Ġ20":1122,"Ġhikai":1123,"Ġspah":1124,"lap":1125,"ber":1126,"niew":1127,"rem":1128,"ĠShithi":1129,"Ġkdew":1130,"Ġsei":1131,"Ġkynja":1132,"Ġpynpaw":1133,"Ġsum":1134,"Ġtyr":1135,"ĠThomas":1136,"mar":1137,"Ġnob":1138,"ft":1139,"Ġmrad":1140,"ĠSa":1141,"ĠYm":1142,"Ġheh":1143,"khem":1144,"Ġpl":1145,"Ġias":1146,"ĠPha":1147,"10":1148,"Ġjingi":1149,"saw":1150,"Ġkhubor":1151,"ĠKba":1152,"Ġdap":1153,"Ġmat":1154,"Ġkhyndew":1155,"Ġpyll":1156,"Ġjingth":1157,"Ġkai":1158,"kut":1159,"Ġkylli":1160,"Ġjmg":1161,"Ġdor":1162,"Ġdel":1163,"ary":1164,"khar":1165,"Ġpalat":1166,"ĠNangta":1167,"ĠKine":1168,"Ġpynban":1169,"Ġnongp":1170,"hisha":1171,"Ġpynia":1172,"Ki":1173,"Ġnongthoh":1174,"lia":1175,"Ġmad":1176,"Ġjop":1177,"ĠKot":1178,"Ġteng":1179,"II":1180,"Ġing":1181,"ngeit":1182,"kata":1183,"ĠKam":1184,"kar":1185,"man":1186,"Ġkynmaw":1187,"Ġ22":1188,"Ġ...":1189,"Ġpr":1190,"HA":1191,"tat":1192,"Ġ\"":1193,"Ġbi":1194,"don":1195,"Ġtymmen":1196,"ĠSohra":1197,"Ġkiew":1198,"eifi":1199,"Ġ23":1200,"Ġko":1201,"Ġliang":1202,"Ġkhyndiat":1203,"Ġkhat":1204,"nai":1205,"nar":1206,"rim":1207,"Ġjingkh":1208,"Ġkjat":1209,"briew":1210,"Ġsynshar":1211,"ĠTe":1212,"Ġship":1213,"Ġnongia":1214,"ll":1215,"sien":1216,"Ġnym":1217,"Ġjingpyr":1218,"Ġshitom":1219,"Ġsim":1220,"ĠIa":1221,"Ġkhana":1222,"ĠHadien":1223,"ks":1224,"Ġno":1225,"Ġtr":1226,"Ġbeit":1227,"phew":1228,"Ġbaba":1229,"11":1230,"Ġsatia":1231,"mu":1232,"ĠDr":1233,"lypa":1234,"Ġkynt":1235,"ĠX":1236,"Ġpynr":1237,"ĠRom":1238,"Ġsngap":1239,"alor":1240,"ospel":1241,"lieh":1242,"Ġshna":1243,"Ġjai":1244,"Ġthung":1245,"ular":1246,"Ġkhnam":1247,"Ġpdiang":1248,"ĠAp":1249,"Ġbatai":1250,"Ġpyrshah":1251,"Ġshynrang":1252,"Ġhar":1253,"Ġthiah":1254,"Ġjingieit":1255,"Ġis":1256,"16":1257,"Ġdih":1258,"Ġkatno":1259,"Ġjaitbynriew":1260,"Ġlyngba":1261,"ust":1262,"ONG":1263,"ngl":1264,"tah":1265,"Ġseng":1266,"Ġaiu":1267,"12":1268,"ec":1269,"Ġbynriew":1270,"ĠPat":1271,"khana":1272,"ts":1273,"ieu":1274,"ĠAss":1275,"ĠGospel":1276,"Ġrong":1277,"ĠNo":1278,"oid":1279,"Ġlyngk":1280,"Ġurn":1281,"YN":1282,"Ġjrong":1283,"Ġbit":1284,"ĠRo":1285,"Ġkajuh":1286,"ĠSam":1287,"alem":1288,"Ġpyndep":1289,"ve":1290,"ĠHat":1291,"rit":1292,"Ġbas":1293,"Ġphylla":1294,"bam":1295,"ĠKbasi":1296,"ĠSt":1297,"ĠHang":1298,"oso":1299,"Ġ**":1300,"14":1301,"nguh":1302,"miet":1303,"tei":1304,"ĠThe":1305,"jong":1306,"Ġpan":1307,"Ġding":1308,"ĠJiw":1309,"Ġem":1310,"Ġher":1311,"di":1312,"Ġrynt":1313,"ĠNiam":1314,"ynniew":1315,"Ġmarwei":1316,"!âĢĿ":1317,"fa":1318,"Ġhiar":1319,"Ġkein":1320,"ier":1321,"bl":1322,"Ġblei":1323,"ĠKatba":1324,"ĠLum":1325,"Ġmano":1326,"18":1327,"cw":1328,"pat":1329,"Ġjinghikai":1330,"yllung":1331,"Ġ24":1332,"Ġpher":1333,"Ġjingtrei":1334,"ara":1335,"Ġthymmai":1336,"haw":1337,"ĠBA":1338,"ober":1339,"Ġphuh":1340,"Ġkloi":1341,"13":1342,"?âĢĿ":1343,"ĠSaw":1344,"ĠPyn":1345,"ĠDur":1346,"IE":1347,"Ġieh":1348,"Ġbeh":1349,"Ġkumjuh":1350,"khi":1351,"ĠSingh":1352,"ĠJerus":1353,"Ġphang":1354,"Ġre":1355,"lah":1356,"ro":1357,"Ġjar":1358,"ĠBai":1359,"Ġjubab":1360,"yntiew":1361,"ngoh":1362,"Ġkhmih":1363,"Ġat":1364,"ĠJerusalem":1365,"Ġkila":1366,"ynnad":1367,"Ġula":1368,"Ġiarap":1369,"ĠManik":1370,"Ġiadei":1371,"Ġpynj":1372,"Ġy":1373,"Ġjingtip":1374,"lad":1375,"Ġe":1376,"Ġhukum":1377,"Ġjah":1378,"Ġring":1379,"ers":1380,"Ġlym":1381,"pi":1382,"ĠRev":1383,"Ġtei":1384,"Ġrwai":1385,"Ġlyngdoh":1386,"Ġpait":1387,"nem":1388,"ĠTham":1389,"Ġngap":1390,"Ġsem":1391,"tap":1392,"ĠSoso":1393,"issi":1394,"Ġhyn":1395,"Ġklet":1396,"Ġtnga":1397,"Ġjingsh":1398,"kyn":1399,"Ġpop":1400,"ĠKor":1401,"ĠInd":1402,"Ġsynr":1403,"Ġpang":1404,"ĠJo":1405,"khuid":1406,"riew":1407,"yer":1408,"Ġjingrwai":1409,"yllong":1410,"Ġ26":1411,"Ġsawdong":1412,"aloi":1413,"Ġphet":1414,"ĠKtien":1415,"ment":1416,"iong":1417,"Ġsang":1418,"Ġphar":1419,"Ġlynnong":1420,"Ġdem":1421,"Ġ]":1422,"ĠPh":1423,"uin":1424,"Ġkong":1425,"bang":1426,"Ġsep":1427,"ĠUn":1428,"lur":1429,"Ġhad":1430,"ation":1431,"Ġ28":1432,"Ġjied":1433,"ĠAr":1434,"Ġjingjia":1435,"tom":1436,"Ġdkhot":1437,"ĠSor":1438,"Ġad":1439,"Ġkajing":1440,"ĠKong":1441,"Ġtynrai":1442,"alm":1443,"Ġjingshisha":1444,"spah":1445,"Ġkynth":1446,"Ġkhamtam":1447,"ge":1448,"Ġli":1449,"Ġjingkyr":1450,"pdeng":1451,"ĠRangbah":1452,"Ġshwa":1453,"Ġiohsngew":1454,"ouk":1455,"Ġnguh":1456,"lade":1457,"Ġtarik":1458,"Ġkn":1459,"Ġsien":1460,"Ġtn":1461,"Ġjur":1462,"ĠBab":1463,"rah":1464,"ĠNongk":1465,"Ġsyn":1466,"ĠIyer":1467,"Ġartat":1468,"Ġbuit":1469,"Ġthma":1470,"ĠPhar":1471,"Ġ25":1472,"Ġlypa":1473,"kur":1474,"istor":1475,"cm":1476,"Ġdum":1477,"Ġmo":1478,"Ġshakri":1479,"isa":1480,"Ġloan":1481,"Ġjingleh":1482,"Ġryn":1483,"kt":1484,"Ġkr":1485,"ĠLait":1486,"ĠDaloi":1487,"Ġ27":1488,"Ġjingl":1489,"Ġby":1490,"ĠJu":1491,"Ġsniew":1492,"hadei":1493,"Ġthew":1494,"Ġkhie":1495,"ĠNalor":1496,"ĠRai":1497,"sngi":1498,"Ġktah":1499,"Ġkhein":1500,"Ġthied":1501,"ĠUne":1502,"Ġlehse":1503,"ry":1504,"uj":1505,"iel":1506,"aduh":1507,"ĠRam":1508,"Ġ)":1509,"ngut":1510,"ĠKo":1511,"ĠJI":1512,"ĠKhun":1513,"blei":1514,"Ġialeh":1515,"Ġpynl":1516,"ĠDor":1517,"ĠBaroh":1518,"iei":1519,"Ġpur":1520,"Ġpdeng":1521,"shuwa":1522,"ĠâĢĺâĢĺ":1523,"iria":1524,"trei":1525,"Ġfi":1526,"tion":1527,"ĠNgan":1528,"ĠBas":1529,"ĠLong":1530,"Ġrep":1531,"Ġjingstad":1532,"ĠIndia":1533,"Ġkmen":1534,"khraw":1535,"tia":1536,"ĠKyn":1537,"Ġ29":1538,"Ġ30":1539,"Nga":1540,"shah":1541,"Ġrang":1542,"ĠHistor":1543,"ĠWar":1544,"ĠRoy":1545,"oo":1546,"Ġtap":1547,"Ġkyrd":1548,"Ġpynkylla":1549,"Ġtyngka":1550,"by":1551,"stad":1552,"Ġbap":1553,"ĠHynniew":1554,"bit":1555,"sih":1556,"Ġbang":1557,"Ġbalang":1558,"ĠJa":1559,"ure":1560,"thuhlypa":1561,"Ġhajar":1562,"uksa":1563,"ylliew":1564,"17":1565,"jur":1566,"hap":1567,"hoi":1568,"te":1569,"ĠJud":1570,"ali":1571,"Ġfa":1572,"jah":1573,"ept":1574,"oc":1575,"Ġsor":1576,"new":1577,"Ġnongk":1578,"Ha":1579,"Ġan":1580,"Ġjngai":1581,"ohn":1582,"Ġksiar":1583,"Ġthik":1584,"ĠSngi":1585,"ĠTiew":1586,"Ġsnam":1587,"Ġkitei":1588,"Ġbakla":1589,"ission":1590,"Math":1591,"tai":1592,"Ġkynhun":1593,"Ġkyrpang":1594,"ros":1595,"Ġthang":1596,"seng":1597,"ĠIn":1598,"Ġpaidbah":1599,"ea":1600,"pha":1601,"Ġ[":1602,"ĠMynsiem":1603,"ru":1604,"Ġslem":1605,"Ġdie":1606,"Ġmasi":1607,"Ġon":1608,"ordor":1609,"ĠSan":1610,"Ġshan":1611,"Ġjingpyrkhat":1612,"Ġjingngeit":1613,"Ġpynkha":1614,"Ġiew":1615,"Ġsym":1616,"Ġpyrshang":1617,"Ġkirn":1618,"Ġshoh":1619,"Ġjingiap":1620,"Ġjingiadei":1621,"Ġstad":1622,"ĠHukum":1623,"imon":1624,"ynnat":1625,"Ġbniah":1626,"Ġjingm":1627,"ynduh":1628,"ĠBaibl":1629,"Ġni":1630,"ĠRober":1631,"âĢĻ.":1632,"Ġsumar":1633,"Ġjingkha":1634,"Ġra":1635,"art":1636,"Ġpyniap":1637,"ĠJohn":1638,"ĠPut":1639,"ĠAn":1640,"Ġhyndai":1641,"20":1642,"lan":1643,"Ġang":1644,"Ġsynd":1645,"Ġsyntiew":1646,"Ġ21":1647,"ver":1648,"Ġialam":1649,"Ġnuksa":1650,"Ġbe":1651,"khie":1652,"Ġ|":1653,"Ġnongrim":1654,"ell":1655,"ĠPres":1656,"pen":1657,"Ġimat":1658,"ĠLap":1659,"paw":1660,"Ġiam":1661,"ĠCh":1662,"Ġstep":1663,"enten":1664,"ĠJING":1665,"kum":1666,"Ġmei":1667,"est":1668,"ĠDorbar":1669,"liew":1670,"Ġbalei":1671,"Ġmen":1672,"ĠNongbah":1673,"**":1674,"Ġjingai":1675,"ĠMat":1676,"Ġthain":1677,"Ġ184":1678,"ji":1679,"ĠSeng":1680,"Ġjam":1681,"Ġpo":1682,"Ġdurbar":1683,"kat":1684,"Ġneh":1685,"ĠMon":1686,"ĠTing":1687,"21":1688,"gi":1689,"siang":1690,"iph":1691,"Ġkhatduh":1692,"ĠNaduh":1693,"shan":1694,"ĠPutit":1695,"ken":1696,"Ġnongs":1697,"Ġthan":1698,"lyng":1699,"ĠKynr":1700,"ĠDieng":1701,"ĠKH":1702,"Ġbyr":1703,"Ġshapoh":1704,"Ġkhaw":1705,"ĠAi":1706,"iaid":1707,"ynjar":1708,"ĠJain":1709,"IT":1710,"ou":1711,"ĠKawei":1712,"ĠAm":1713,"Ġskhem":1714,"Ġmariang":1715,"Ġnongpule":1716,"TA":1717,"Ġsiat":1718,"Ġduk":1719,"ugh":1720,"cn":1721,"yi":1722,"Ġwei":1723,"Ġdohkha":1724,"197":1725,"tt":1726,"ya":1727,"Ġ&":1728,"Ġtur":1729,"Ġkatei":1730,"ĠWah":1731,"ĠMahadei":1732,"Ġkyrdan":1733,"ohi":1734,"ĠSah":1735,"ĠKata":1736,"Ġshiteng":1737,"Ġnongsh":1738,"15":1739,"reh":1740,"had":1741,"Ġialade":1742,"ĠPet":1743,"Ġkyndit":1744,"ĠEngl":1745,"ua":1746,"Ġal":1747,"Ġlaw":1748,"Ġpynm":1749,"ĠMei":1750,"Ġkino":1751,"Ġjingshai":1752,"Ġwait":1753,"Ġlyngkot":1754,"rat":1755,"ĠÂ":1756,"Ġbs":1757,"burom":1758,"ek":1759,"nang":1760,"oun":1761,"Ġsap":1762,"Ġshy":1763,"Ġkamra":1764,"Ġah":1765,"eih":1766,"Ġ40":1767,"ĠApos":1768,"bynta":1769,"Ġkordor":1770,"Ġduna":1771,"ĠRang":1772,"Ġphim":1773,"iii":1774,"ĠÂ«":1775,"Ġakor":1776,"Ġjingkyn":1777,"thaw":1778,"uba":1779,"hat":1780,"aifi":1781,"Ġjingma":1782,"Ġmadan":1783,"Dg":1784,"Ġlynd":1785,"Ġjuh":1786,"Ġjain":1787,"khu":1788,"âĢĿ,":1789,"tol":1790,"Ġpyllait":1791,"Ġhajan":1792,"yntur":1793,"IA":1794,"vn":1795,"ngap":1796,"ĠNgin":1797,"Ġart":1798,"Ġkhreh":1799,"ler":1800,"ool":1801,"Ġkaw":1802,"Ġkala":1803,"Ġsp":1804,"Ġmam":1805,"Ġkhuid":1806,"ook":1807,"tor":1808,"ĠKan":1809,"Ġteh":1810,"ĠMynta":1811,"ĠTes":1812,"Ġnongb":1813,"Ġkylleng":1814,"Phi":1815,"ooid":1816,"Ġkhoh":1817,"yndong":1818,"ĠRoberts":1819,"Ġkup":1820,"bad":1821,"Ġiong":1822,"ĠLouk":1823,"ĠBalei":1824,"Ġjer":1825,"ĠKpa":1826,"Ġtam":1827,"Ġbyn":1828,"elt":1829,"Ġksuid":1830,"Ġdien":1831,"ĠMission":1832,"Ġjingiathuh":1833,"Ġpyndon":1834,"Ġkhih":1835,"ĠEnglish":1836,"Ġiano":1837,"Ġshano":1838,"awa":1839,"bok":1840,"sniew":1841,"ĠKs":1842,"Ġnalor":1843,"rama":1844,"ĠPhareng":1845,"22":1846,"Ġlano":1847,"Ġjingeh":1848,"Ġkato":1849,"ĠAb":1850,"ublei":1851,"LA":1852,"mi":1853,"Ġkoh":1854,"ngam":1855,"ner":1856,"Ġithuh":1857,"khmat":1858,"ĠEdit":1859,"juk":1860,"upa":1861,"Ġjaid":1862,"Ġtiar":1863,"ail":1864,"Ġiob":1865,"ĠKiba":1866,"ĠNgam":1867,"ĠCom":1868,"batai":1869,"step":1870,"Ġkynthup":1871,"sar":1872,"Ġkular":1873,"Ġpap":1874,"tic":1875,"ca":1876,"oa":1877,"Ġ0":1878,"Ġfor":1879,"Ġkyrpad":1880,"kb":1881,"ynna":1882,"Ġarngut":1883,"Ġ197":1884,"ĠTesta":1885,"Ġknia":1886,"ynter":1887,"ĠMariang":1888,"ĠApostol":1889,"ran":1890,"wat":1891,"eila":1892,"ĠIV":1893,"ristan":1894,"ĠShain":1895,"Ġot":1896,"Ġkm":1897,"ĠKyllong":1898,"Ġjingph":1899,"Ġjingleit":1900,"ĠMynt":1901,"ĠNongthoh":1902,"ĠIII":1903,"ĠRaikut":1904,"dor":1905,"kit":1906,"Ġialap":1907,"Ġthong":1908,"ĠKumba":1909,"uwai":1910,"Ġkj":1911,"Ġker":1912,"hah":1913,"Ġraid":1914,"law":1915,"ĠDab":1916,"Ġkhang":1917,"Ġslap":1918,"rom":1919,"wet":1920,"Ġbakhraw":1921,"Ġjem":1922,"Ġrem":1923,"Ġsab":1924,"Ġjingkmen":1925,"Ġ193":1926,"23":1927,"Ġdong":1928,"Ġtuid":1929,"ĠTa":1930,"Ġsin":1931,"Ġpynh":1932,"Ġsngewt":1933,"Ġjingkren":1934,"saiah":1935,"Ġryntieh":1936,"mon":1937,"our":1938,"Ġ{":1939,"ĠBi":1940,"iter":1941,"ĠIm":1942,"ylliej":1943,"Ġbarob":1944,"ĠKl":1945,"ĠâĢĿ":1946,"Ġthei":1947,"ĠHangne":1948,".âĢĻ":1949,"niang":1950,"ĠBhoi":1951,"bei":1952,"las":1953,"Ġnonghikai":1954,"Ġtharai":1955,"Ġduwai":1956,"cit":1957,"Ġiba":1958,"ĠTestament":1959,"cng":1960,"Ġbab":1961,"Ġpynieng":1962,"Ġshabar":1963,"ember":1964,"Ġpynsngew":1965,"80":1966,"aiah":1967,"Ġhat":1968,"Ġmraw":1969,"Ġshyntur":1970,"ĠBam":1971,"ĠSheila":1972,"ujor":1973,"nis":1974,"suk":1975,"ynei":1976,"Ġdew":1977,"Ġnud":1978,"ĠSait":1979,"Ġkynnoh":1980,"Ġnongpyn":1981,"stor":1982,"Ġshithi":1983,"Ġlew":1984,"Ġsuh":1985,"Ġshang":1986,"âĢĻ,":1987,"Ġphew":1988,"ead":1989,"iv":1990,"Ġrta":1991,"khong":1992,"uslai":1993,"ĠKynrad":1994,"ĠEditor":1995,"Ġkitab":1996,"Ġlaiph":1997,"Ġshon":1998,"Ġkynduh":1999,"Ġksai":2000,"Ġlyngkha":2001,"Ġharum":2002,"ĠSyn":2003,"uma":2004,"Ġsawa":2005,"Ġkper":2006,"Ġsynran":2007,"ĠBasan":2008,"Ġ<":2009,"Ġroi":2010,"ĠPhil":2011,"ills":2012,"29":2013,"OH":2014,"Ġâ":2015,"Ġnar":2016,"Ġrim":2017,"ore":2018,"Ġshet":2019,"thie":2020,"ĠTaw":2021,"ĠDabid":2022,"pt":2023,"ial":2024,"Ġjingwan":2025,"ĠLam":2026,"ĠNongs":2027,"Ġartad":2028,"Ġsuki":2029,");":2030,"Ġsl":2031,"Ġsain":2032,"ĠSy":2033,"Ġthat":2034,"*.":2035,"28":2036,"sai":2037,"Ġsenten":2038,"Ġthem":2039,"ĠDkhar":2040,"iarap":2041,"Ġplie":2042,"kl":2043,"Ġpah":2044,"ĠKyr":2045,"ĠLang":2046,"ĠLieh":2047,"Ġjingsuk":2048,"Ġjingthmu":2049,"ĠJudah":2050,"Ġnongshun":2051,"rap":2052,"ĠKit":2053,"hih":2054,"Ġkhyll":2055,"Ġpynt":2056,"ĠMos":2057,"yntang":2058,"ĠShaphang":2059,"ĠPyrthei":2060,"ĠPresby":2061,"ith":2062,"Ġhun":2063,"ĠAd":2064,"EI":2065,"loan":2066,"ĠKb":2067,"Ġtieng":2068,"Ġhistor":2069,"Ġ*âĢĺ":2070,"Ġsniang":2071,"ON":2072,"trep":2073,"Ġx":2074,"Ġku":2075,"Ġpisa":2076,"Ġtan":2077,"neh":2078,"ĠSk":2079,"uda":2080,"Ġ190":2081,"Ġlaiphew":2082,"iad":2083,"Ġnongrep":2084,"Ġmynt":2085,"ĠKhong":2086,"Ġphlang":2087,"ĠKumno":2088,"Ġsyiar":2089,"ĠAssam":2090,".)":2091,"Kh":2092,"oin":2093,"Ġjot":2094,"Ġih":2095,"Ġshaduh":2096,"iti":2097,"uli":2098,"Ġkylliang":2099,"Ġshipai":2100,"24":2101,"bym":2102,"Ġbabha":2103,"Ġmyllung":2104,"ĠSch":2105,"Ġthap":2106,"ĠMoses":2107,"pei":2108,"Ġkwai":2109,"Ġjoog":2110,"Ġshkor":2111,"Ġpynshong":2112,"ĠJak":2113,"ĠTem":2114,"Ġjingialeh":2115,"dur":2116,"kdar":2117,"rieh":2118,"Ġkaj":2119,"Ġpud":2120,"Ġniew":2121,"Ġsakhi":2122,"Ġsentens":2123,"buh":2124,"sing":2125,"son":2126,"Ġ>":2127,"Ġdkhar":2128,"âĢ¢":2129,"Ġhe":2130,"Ġriewstad":2131,"ĠJaintia":2132,"Ġkohnguh":2133,"AI":2134,"pyr":2135,"Ġsar":2136,"Ġiwei":2137,"Ġ/":2138,"Ġkem":2139,"Ġsop":2140,"Ġjl":2141,"Ġjingr":2142,"ĠJeh":2143,"Ġaiom":2144,"Ġiasiat":2145,"ĠShainimon":2146,"ĠPresbyter":2147,"26":2148,"roh":2149,"iak":2150,"Ġmap":2151,"ano":2152,"ther":2153,"Ġshiliang":2154,"Ġmynno":2155,"Ġjingkylla":2156,"uwakdar":2157,"ĠBAD":2158,"Ġloannis":2159,"To":2160,"niam":2161,"tn":2162,"Ġlung":2163,"Ġjh":2164,"25":2165,"eij":2166,"Ġkhia":2167,"Ġthep":2168,"shang":2169,"Ġnamarkata":2170,"Ġthait":2171,"abor":2172,"Ġlohi":2173,"Ġlyndet":2174,"Nong":2175,"ff":2176,"ngen":2177,"Ġle":2178,"hitom":2179,"ĠSol":2180,"Ġkynj":2181,"ess":2182,"196":2183,"Ġkhlad":2184,"lung":2185,"pe":2186,"ron":2187,"Ġog":2188,"Ġkul":2189,"Ġkpoh":2190,"Ġpoh":2191,"Ġpyrta":2192,"Ġam":2193,"Ġsob":2194,"ĠHA":2195,"Ġphan":2196,"ĠMark":2197,"HI":2198,"mai":2199,"rum":2200,"bak":2201,"ĠTim":2202,"Ġbrieu":2203,"Ġjab":2204,"Ġput":2205,"uri":2206,"alok":2207,"Ġsneng":2208,"Ġksew":2209,"ĠHato":2210,"Ġryntih":2211,"ĠHistory":2212,"Ġsot":2213,"ĠSym":2214,"Ġwai":2215,"Ġjingthaw":2216,"Ġiehnoh":2217,"ĠMyntri":2218,"hok":2219,"ling":2220,"usi":2221,"Ġbaa":2222,"Ġsiew":2223,"ĠJait":2224,"aiti":2225,"ĠNgim":2226,"ĠBakhuid":2227,"athuh":2228,".'":2229,"Ġet":2230,"Ġkhyr":2231,"ĠAh":2232,"Ġjingkylli":2233,"ĠGe":2234,"Ġkynrad":2235,"ĠSal":2236,"ĠBun":2237,"Ġho":2238,"shwa":2239,"rak":2240,"ĠDurbar":2241,"Ġjingshem":2242,"La":2243,"sim":2244,"iai":2245,"ĠUta":2246,"Ġpynsh":2247,"Ġnaba":2248,"ĠMih":2249,"Ġwal":2250,"Ġkhadar":2251,"ĠShnong":2252,"Ġpaitbah":2253,"30":2254,"Ġjo":2255,"Ġbub":2256,"ĠHills":2257,"Ġkynd":2258,"kaba":2259,"Ġpynbiang":2260,"Ġiakren":2261,"Ġpyniaid":2262,"ĠSchool":2263,"nt":2264,"phi":2265,"siew":2266,"Ġor":2267,"iab":2268,"Ġpas":2269,"ĠUwei":2270,"Ġ31":2271,"Ġharud":2272,"iing":2273,"ĸł":2274,"Ġkor":2275,"Ġsuit":2276,"Ġsuda":2277,"Ġtad":2278,"ĠKhar":2279,"Ġphawar":2280,"tbei":2281,"Ġthikna":2282,"jied":2283,"Ġjongngi":2284,"Ġshait":2285,"ĠHeb":2286,"erb":2287,"phna":2288,"ĠBareh":2289,"BA":2290,"Ġkun":2291,"Ġseh":2292,"Ġsal":2293,"Ġnot":2294,"Ġti":2295,"ĠMr":2296,"ĠPnar":2297,"Ġmynba":2298,"ĠEd":2299,"Ġbunsien":2300,"Ġiakynduh":2301,"Ġpynkhreh":2302,"sia":2303,"ngiew":2304,"Ġjylliew":2305,"ĠSalm":2306,"Ġkhad":2307,"Ġksing":2308,"oitri":2309,"ĠPator":2310,"ĠTawat":2311,"ĠTempi":2312,"boh":2313,"dem":2314,"ga":2315,"nh":2316,"Ġjyr":2317,"Ġlashai":2318,"Ġbu":2319,"ĠBat":2320,"Ġshat":2321,"Ġshane":2322,"ĠLA":2323,"Ġthuh":2324,"Ġphong":2325,"27":2326,"Jing":2327,"Salm":2328,"eth":2329,"tr":2330,"Ġkrem":2331,"Ġbaj":2332,"Ġdci":2333,"Ġhaneng":2334,"Ġriam":2335,"Ġmin":2336,"ature":2337,"ĠSyr":2338,"Ġpynth":2339,"ĠHyn":2340,"Ġkhan":2341,"ĠWill":2342,"Ġjingsynshar":2343,"rist":2344,"ilon":2345,"Ġparalok":2346,"ĠPhali":2347,"Ġnongiathuhlypa":2348,"eptieng":2349,"34":2350,"kylla":2351,"pong":2352,"Ġmy":2353,"Ġkhong":2354,"ĠHer":2355,"Ġbarim":2356,"ĠWan":2357,"Ġhangno":2358,"Ġskum":2359,"Ġpharshi":2360,"ĠPetros":2361,"ĠSolom":2362,"cr":2363,"Ġleng":2364,"Ġlieng":2365,"Ġud":2366,"Ġdob":2367,"ĠNang":2368,"ĠLar":2369,"rammar":2370,"Ġshaniah":2371,".,":2372,"lot":2373,"ieb":2374,"ort":2375,"ĠBor":2376,"Ġpynshai":2377,"ĠPule":2378,"phrang":2379,"Ġ60":2380,"Ġcon":2381,"Ġetc":2382,"ee":2383,"kyr":2384,"riang":2385,"Ġjingbatai":2386,"Ġwas":2387,"Ġkyntang":2388,"yndem":2389,"Ġaha":2390,"Ġummat":2391,"ical":2392,"Ġshisnem":2393,".*":2394,"he":2395,"luid":2396,"oe":2397,"sng":2398,"tatien":2399,"ĠSynrai":2400,"emaiah":2401,"ĠRal":2402,"Ġmynshuwa":2403,"Ġas":2404,"Ġpynbeit":2405,"jukut":2406,"bu":2407,"Ġaiti":2408,"Ġbapher":2409,"Ġlu":2410,"Ġlynter":2411,"Ġpom":2412,"Ġbnew":2413,"Ġjingmih":2414,"ĠHangta":2415,"rik":2416,"fiia":2417,"ĠShani":2418,"^.":2419,"lyn":2420,"ria":2421,"Ġ~":2422,"Ġlieh":2423,"Ġpai":2424,"Ġpung":2425,"Ġdo":2426,"Ġram":2427,"ĠLai":2428,"ĠRait":2429,"000":2430,"Ġsorkar":2431,"kren":2432,"len":2433,"let":2434,"ias":2435,"Ġsai":2436,"Ġsad":2437,"Ġbieit":2438,"Ġsngewsih":2439,"Ġ36":2440,"Ġ196":2441,"Ġtaiew":2442,"ĠLapang":2443,"ine":2444,"Ġtong":2445,"Ġjingbam":2446,"Ġkamram":2447,"sohpen":2448,"ustur":2449,"ĠJeho":2450,"hala":2451,"Ġpun":2452,"Ġpep":2453,"ĠNe":2454,"Ġkhap":2455,"elia":2456,"Ġarliang":2457,"Ġpynkut":2458,"Ġkurim":2459,"ĠJakob":2460,"ĠSolomon":2461,"jer":2462,"wir":2463,"ĠKHA":2464,"inguh":2465,"Ġpynim":2466,"ĠIng":2467,"shem":2468,"Ġshynrong":2469,"Ġdrama":2470,"Ġthylliej":2471,"ĠRab":2472,"Ġca":2473,"lum":2474,"pbang":2475,"ĠSynt":2476,"Ġthwei":2477,"ĠCol":2478,"yntoi":2479,"thah":2480,"artiang":2481,"her":2482,"his":2483,"thub":2484,"udui":2485,"Ġnangne":2486,"Ġmane":2487,"ĠSorkar":2488,"Ġkf":2489,"Ġkeifi":2490,"tal":2491,"Ġml":2492,"Ġpynduh":2493,"ĠMath":2494,"yngkai":2495,"ĠCa":2496,"ĠLynnong":2497,"ĠRaitong":2498,"ju":2499,"Ġbaieit":2500,"Ġlen":2501,"Ġbelt":2502,"Ġkhyn":2503,"ĠNartiang":2504,"ĠLah":2505,"Ġbri":2506,"ĠNongia":2507,"Ġlyngngoh":2508,"Ġ189":2509,"biria":2510,"fe":2511,"lait":2512,"Ġiapher":2513,"Ġtep":2514,"yrwa":2515,"Ġnapdeng":2516,"ĠTrep":2517,"ĠPan":2518,"ĠRa":2519,"wer":2520,"Ġjingh":2521,"Ġdawai":2522,"Ġshatei":2523,"ĠNG":2524,"Ġ33":2525,"Ġ198":2526,"Ġ99":2527,"huh":2528,"Ġ$":2529,"Ġ=":2530,"Ġset":2531,"Ġtim":2532,"ĠMor":2533,"ĠPal":2534,"yngkat":2535,"Ġ38":2536,"brot":2537,"35":2538,"OR":2539,"Ġjuk":2540,"Ġpynph":2541,"ĠPar":2542,"Ġ32":2543,"Ġjingiaid":2544,"ĠComm":2545,"iterature":2546,"Nam":2547,"TH":2548,"jait":2549,"lar":2550,"so":2551,"wad":2552,"ĠQ":2553,"Ġsait":2554,"Ġiaka":2555,"Ġtyll":2556,"Ġtymp":2557,"Ġdawa":2558,"Ġnongt":2559,"Ġ34":2560,"olog":2561,"jekt":2562,"Ġpynlut":2563,"bri":2564,"io":2565,"Ġtyn":2566,"Ġbba":2567,"ĠSer":2568,"Ġkhwai":2569,"Ġshken":2570,"Ġshiphew":2571,"shua":2572,"Ġjingpang":2573,"ĠShelia":2574,"Ġksiew":2575,"Ġsymbai":2576,"Ġmyntoi":2577,"AR":2578,"Ġjngoh":2579,"Ġthliew":2580,"ĠDan":2581,"shad":2582,"etry":2583,"Ġtangba":2584,"ĠBarim":2585,"Ġjingkyrmen":2586,"Ġshyieng":2587,"ĠWilliam":2588,"uth":2589,"Ġleb":2590,"Ġspel":2591,"Ġtih":2592,"Ġmai":2593,"khei":2594,"Ġkhlur":2595,"ĠGo":2596,"ĠThoh":2597,"Ġjingjop":2598,"Ġartylli":2599,"Ġâĸł":2600,"ck":2601,"sb":2602,"Ġper":2603,"hit":2604,"Ġkhet":2605,"ĠLi":2606,"Ġkamai":2607,"shon":2608,"Ġbymjukut":2609,"ishon":2610,"Ġitynnad":2611,"pator":2612,"31":2613,"36":2614,"50":2615,"sl":2616,"ĠBeng":2617,"ĠNam":2618,"ĠJi":2619,"Ġwith":2620,"yngng":2621,"ĠAg":2622,"yndang":2623,"ĠJingrwai":2624,"Ġkpu":2625,"Ġhynmen":2626,"jot":2627,"Ġiat":2628,"Ġbt":2629,"Ġshlei":2630,"ĠLir":2631,"Ġ37":2632,"ĠEm":2633,"Ġkbam":2634,"ĠRaliang":2635,"bih":2636,"lyngk":2637,"Ġop":2638,"Ġbai":2639,"Ġdait":2640,"ĠKol":2641,"ĠSec":2642,"ĠHom":2643,"ĠPo":2644,"Ġjingpule":2645,"Ġpynskhem":2646,"Ġjingkhang":2647,"dn":2648,"vel":2649,"Ġtied":2650,"Ġ39":2651,"Ġsnieh":2652,"Ġkongsan":2653,"Ġrynieng":2654,"aa":2655,"por":2656,"ue":2657,"Ġpd":2658,"Ġbiria":2659,"Ġnongbah":2660,"ipt":2661,"ĠRijied":2662,"icw":2663,"'.":2664,"32":2665,"AT":2666,"eu":2667,"Ġ\\":2668,"Ġnih":2669,"tara":2670,"ĠJan":2671,"thiah":2672,"alang":2673,"khoh":2674,"ister":2675,"ĠBabilon":2676,"ĠSaitsohpen":2677,"^^":2678,"ton":2679,"ngan":2680,"Ġsu":2681,"Ġsong":2682,"Ġlathuh":2683,"ies":2684,"ĠSoc":2685,"Ġkhristan":2686,"Ġkhuslai":2687,"emb":2688,"ĠPait":2689,"uti":2690,"Ġnongwei":2691,"ĠNgaid":2692,"ĠWal":2693,"Ġ49":2694,"ĠMakri":2695,"Ġduwan":2696,"Ġlymda":2697,"Ġtnat":2698,"ĠLirpator":2699,"ĠSar":2700,"ĠJai":2701,"ĠJos":2702,"khiew":2703,"Ġ35":2704,"ĠVII":2705,"ĠBabu":2706,"Ġpei":2707,"Ġpuk":2708,"Ġdk":2709,"Ġshyr":2710,"ĠIt":2711,"ĠCon":2712,"Ġpyndap":2713,"ĠMarin":2714,"ĠMeg":2715,"Ġshadem":2716,"37":2717,"lo":2718,"sem":2719,"uel":2720,"Ġkoit":2721,"hasi":2722,"Ġiad":2723,"Ġdi":2724,"ĠSep":2725,"Ġshen":2726,"ĠLy":2727,"isha":2728,"ĠHapdeng":2729,"ĠKhat":2730,"Ġkyrshan":2731,"Ġthai":2732,"Ġ50":2733,"Ġjingduwai":2734,"Ġjanai":2735,"ĠHistori":2736,"ĠSynteng":2737,"nor":2738,"pr":2739,"reng":2740,"Ġdpei":2741,"Ġdustur":2742,"ohsniew":2743,"ĠNONG":2744,"thiang":2745,"Ġthmu":2746,"int":2747,"Ġmynstep":2748,"Ġphyr":2749,"ĠCal":2750,"Ġjingtep":2751,"ĠVI":2752,"Ko":2753,"bishar":2754,"nc":2755,"nah":2756,"Ġeb":2757,"ĠKom":2758,"ĠMai":2759,"Ġthor":2760,"ĠIj":2761,"Ġ44":2762,"Ġjingbym":2763,"ĠAssemb":2764,"dk":2765,"sad":2766,"syiem":2767,"Ġkei":2768,"ĠKai":2769,"Ġhamar":2770,"Ġid":2771,"umar":2772,"ĠHooid":2773,"ynrang":2774,"Ġpyrsa":2775,"ĠWa":2776,"Ġkliar":2777,"Ġsbong":2778,"...":2779,"Ġpynroi":2780,"ĠPatsha":2781,"ĠSahep":2782,"Ġwallam":2783,"dop":2784,"sur":2785,"Ġklong":2786,"Ġlymp":2787,"Ġjii":2788,"Ġpoitri":2789,"Ġrieh":2790,"ĠJen":2791,"ĠJin":2792,"ere":2793,"ity":2794,"ĠRis":2795,"inth":2796,"Ġkamon":2797,"yndon":2798,"ĠNongt":2799,"Ġjingsawa":2800,"shisha":2801,"Ġsyndon":2802,"ĠAbra":2803,"ĠPresbyterian":2804,"fc":2805,"vv":2806,"Ġjingiarap":2807,"Ġmyr":2808,"Ġngat":2809,"Ġshaw":2810,"ĠJon":2811,"ĠMyll":2812,"Ġwa":2813,"ĠIngl":2814,"ĠDang":2815,"ĠDep":2816,"imai":2817,"ast":2818,"ĠDonbok":2819,"Ġstem":2820,"Ġsngewtynnad":2821,"ĠSynod":2822,"41":2823,"46":2824,"me":2825,"per":2826,"wait":2827,"Ġkli":2828,"Ġkiw":2829,"Ġbtap":2830,"Ġrupa":2831,"Ġmib":2832,"ura":2833,"ukor":2834,"Ġkhlain":2835,"Ġpynkhih":2836,"Ġkhyndai":2837,"Ġjingdum":2838,"lyngdoh":2839,"Ġjabieng":2840,"ĠInglis":2841,"hem":2842,"nat":2843,"Ġtt":2844,"Ġjingshah":2845,"Ġran":2846,"ari":2847,"ate":2848,"oni":2849,"Ġhis":2850,"Ġjingias":2851,"lege":2852,"iety":2853,"Ġlyoh":2854,"Ġpynkhuid":2855,"Ġsyriem":2856,"kurim":2857,"ĠHerod":2858,"ĠAssembly":2859,"38":2860,"jia":2861,"Ġoh":2862,"Ġlain":2863,"Ġiab":2864,"Ġnat":2865,"Ġkhyllung":2866,"ĠKim":2867,"uld":2868,"Ġphut":2869,"Ġphra":2870,"Ġjingkieng":2871,"ĠJingpyn":2872,"Ġjanmiet":2873,"ĠRamew":2874,"ĠLoukas":2875,"ER":2876,"jrong":2877,"uag":2878,"Ġsiang":2879,"Ġjaw":2880,"Ġty":2881,"Ġtuh":2882,"Ġblang":2883,"ĠSc":2884,"ĠKaei":2885,"ĠHos":2886,"ina":2887,"Ġ45":2888,"ĠShala":2889,"Ġpynshitom":2890,"Ġkbubor":2891,"Ġshipor":2892,"Ġsepngi":2893,"Ġjingiathuhkhana":2894,"Pnar":2895,"SI":2896,"Â®":2897,"Ġkali":2898,"Ġpb":2899,"Ġbteng":2900,"ĠSob":2901,"ĠHok":2902,"era":2903,"Ġthiang":2904,"ĠHapoh":2905,"Ġab":2906,"Ġars":2907,"Ġjingiapher":2908,"Ġmihngi":2909,"ĠShuwa":2910,"Ġduriaw":2911,"igh":2912,"ĠPrim":2913,"33":2914,"pan":2915,"Ġjynjar":2916,"ĠKut":2917,"Ġriat":2918,"Ġrkhie":2919,"ĠSH":2920,"ĠBl":2921,"ĠTyr":2922,"Ġkynti":2923,"rain":2924,"ĠEl":2925,"Ġ48":2926,"Ġ66":2927,"haios":2928,"halaya":2929,"ĠAbraham":2930,"ding":2931,"ear":2932,"sah":2933,"han":2934,"Ġlia":2935,"Ġjyn":2936,"thma":2937,"Ġthob":2938,"khia":2939,"Ġpynshisha":2940,"Ġsurok":2941,"ject":2942,"oli":2943,"tong":2944,"uc":2945,"Ġbok":2946,"ĠDoh":2947,"ĠRym":2948,"ĠAl":2949,"ĠNongthaw":2950,"ĠNonglyngdoh":2951,"iig":2952,"Ġ46":2953,"Ġsbi":2954,"shitom":2955,"Ġkyllon":2956,"Ġjiag":2957,"ĠJoshua":2958,"ĠDaniel":2959,"'s":2960,"):":2961,"EW":2962,"sk":2963,"Ġ+":2964,"Ġsi":2965,"Ġpla":2966,"Ġlak":2967,"Ġnc":2968,"Ġhaka":2969,"Ġbynr":2970,"Ġbet":2971,"Ġbynrei":2972,"Ġmot":2973,"amin":2974,"unom":2975,"ĠTar":2976,"ĠTam":2977,"Ġdonbor":2978,"Ġtheh":2979,"inong":2980,"shaid":2981,"eph":2982,"Ġjutang":2983,"ĠKumjuh":2984,"ĠGrammar":2985,"Ġeiei":2986,"Ġpyndem":2987,"Ġriti":2988,"ĠJehobah":2989,"kmen":2990,"ten":2991,"Ġnew":2992,"Ġbein":2993,"ĠSi":2994,"Ġshathie":2995,"ĠHalor":2996,"Ġlongbriew":2997,"ĠTip":2998,"ĠAng":2999,"ĠEph":3000,"Ġjingiaseng":3001,"ĠJingim":3002,"Ġsbai":3003,"bakla":3004,"ĠRabon":3005,"*âĢĻ":3006,"pd":3007,"Ġsog":3008,"Ġtdong":3009,"Ġryndang":3010,"ĠLew":3011,"ylh":3012,"ĠRead":3013,"Ġartatien":3014,"oneri":3015,"Ġ100":3016,"sek":3017,"Ġnongialam":3018,"Ġkyntiew":3019,"ĠJubab":3020,"Ġjingkynmaw":3021,"Ġhistori":3022,"*,":3023,"aan":3024,"kmie":3025,"met":3026,"Ġso":3027,"Ġryng":3028,"ĠJyndem":3029,"ĠMuk":3030,"ĠMes":3031,"til":3032,"shew":3033,"Ġ47":3034,"ĠShisien":3035,"Ġpynrung":3036,"Ġlymne":3037,"ĠJowai":3038,"Kum":3039,"RA":3040,"Rom":3041,"cy":3042,"hoh":3043,"kba":3044,"sot":3045,"Ġkal":3046,"Ġsd":3047,"ĠSe":3048,"ĠBath":3049,"ĠBib":3050,"Ġhynriew":3051,"khlieh":3052,"Ġbran":3053,"ĠLakor":3054,"Ġkanc":3055,"tbuh":3056,"ĠMarkos":3057,"ĠMeghalaya":3058,"dieng":3059,"dub":3060,"dob":3061,"kti":3062,"lat":3063,"not":3064,"pain":3065,"wi":3066,"ĠÂ»":3067,"Ġkar":3068,"Ġlo":3069,"Ġnujor":3070,"Ġting":3071,"Ġjingbha":3072,"ĠBynta":3073,"ĠâĢŀ":3074,"ĠLeh":3075,"ĠDam":3076,"shari":3077,"ĠNongpyn":3078,"ĠWel":3079,"Ġ70":3080,"Ġcom":3081,"Ġiaroh":3082,"ĠNongkrem":3083,"40":3084,":âĢĶ":3085,"Na":3086,"ben":3087,"fii":3088,"Ġtoh":3089,"anga":3090,"Ġnapoh":3091,"thong":3092,"end":3093,"ĠJingia":3094,"ymmei":3095,"YNN":3096,"IEW":3097,"Ġpynjot":3098,"Ġsarong":3099,"39":3100,"EN":3101,"duma":3102,"uta":3103,"Ġbaje":3104,"Ġbook":3105,"Ġkhiew":3106,"Ġpynbha":3107,"Ġ195":3108,"Ġpynsah":3109,"Ġshimti":3110,"ĠNamarkata":3111,"Ġjingmyntoi":3112,"ĠCollege":3113,"ĠSociety":3114,"ĠWales":3115,"Ma":3116,"kong":3117,"ould":3118,"sy":3119,"Ġklas":3120,"Ġbei":3121,"Ġbsa":3122,"ĠSur":3123,"Ġkhublei":3124,"ĠJyrwa":3125,"ĠPers":3126,"ĠIsaiah":3127,"Ġhynr":3128,"ĠKham":3129,"ĠKhlem":3130,"ril":3131,"iwell":3132,"Gen":3133,"Louk":3134,"jop":3135,"Ġlawei":3136,"Ġialeit":3137,"oktor":3138,"Ġkyrk":3139,"Ġriewspah":3140,"istri":3141,"ĠKorinth":3142,"ĠMathaios":3143,"Ġpynmib":3144,"byn":3145,"cp":3146,"of":3147,"sis":3148,"ngem":3149,"bal":3150,"Ġlit":3151,"Ġkiad":3152,"Ġtai":3153,"Ġtaw":3154,"ĠPaid":3155,"ĠPol":3156,"ind":3157,"Ġain":3158,"Ġphla":3159,"Ġkhunlung":3160,"Ġ59":3161,"ĠHaduh":3162,"ĠMondon":3163,"IS":3164,"Mar":3165,"gh":3166,"hu":3167,"jai":3168,"ld":3169,"Ġuei":3170,"Ġhave":3171,"Ġbanyngkong":3172,"ĠSab":3173,"Ġkhmut":3174,"Ġsheptieng":3175,"Ġmynmiet":3176,"Ġmynjur":3177,"Ġkyrhai":3178,"Ġ41":3179,"ynnai":3180,"ĠMasi":3181,"Ġpyllun":3182,"Ġdorbar":3183,".âĢĶ":3184,"AP":3185,"Blei":3186,"EM":3187,"KA":3188,"be":3189,"ring":3190,"Ġsaid":3191,"Ġrun":3192,"ĠSng":3193,"Ġiw":3194,"ĠJob":3195,"ĠLuh":3196,"ĠLaw":3197,"ĠPur":3198,"Ġkyndong":3199,"Ġkynsan":3200,"Ġpyrtbei":3201,"Ġjingkit":3202,"ĠJingieit":3203,"thait":3204,"ĠFor":3205,"Ġphareng":3206,"ĠHebru":3207,"60":3208,"Ba":3209,"pb":3210,"pai":3211,"ula":3212,"Ġdd":3213,"Ġnep":3214,"Ġriang":3215,"Ġshun":3216,"Ġdonburom":3217,"ĠAle":3218,"Ġarphew":3219,"ĠElia":3220,"Ġ42":3221,"Ġoa":3222,"Ġmawsiang":3223,"ishoneri":3224,"Ġstet":3225,"Ġjingdon":3226,"Ġphyllaw":3227,"ĠKsiar":3228,"kbat":3229,"ning":3230,"pad":3231,"tng":3232,"Ġkadiang":3233,"Ġsub":3234,"Ġiashong":3235,"Ġtiew":3236,"âĢľ":3237,"Ġita":3238,"otduma":3239,"khai":3240,"Ġ68":3241,"ĠBaro":3242,"tary":3243,"Ġjingbishar":3244,"ĠPhilip":3245,"ĠBathymmai":3246,"ĠWelsh":3247,"'t":3248,"UN":3249,"sat":3250,"Ġkah":3251,"Ġjngi":3252,"ynmaw":3253,"Ġnoog":3254,"Ġjingong":3255,"ĠNap":3256,"ĠTap":3257,"Ġshin":3258,"Ġkhar":3259,"Ġjingknia":3260,"Ġ43":3261,"iction":3262,"Ġ80":3263,"ĠMawlong":3264,"ĠMylliem":3265,"beit":3266,"pet":3267,"tra":3268,"Ġiakh":3269,"ĠSb":3270,"ĠMen":3271,"ĠLei":3272,"ĠPeit":3273,"Ġshiphang":3274,"ĠDuwakdar":3275,"Ġnongap":3276,"Ġpyrth":3277,"âĢĻ*":3278,"aster":3279,"Ġshitnga":3280,"ugust":3281,"Ġtern":3282,"Ġthis":3283,"Ġfiiew":3284,"ĠHomiwell":3285,"dai":3286,"ml":3287,"Ġsynt":3288,"Ġjingit":3289,"hich":3290,"Ġkhlei":3291,"ĠMyr":3292,"ĠMik":3293,"ĠLat":3294,"ĠTymmen":3295,"aleh":3296,"Ġbret":3297,"Ġbarit":3298,"Ġjingsdang":3299,"ĠJeremaiah":3300,"Ġitynnat":3301,"Ġisynei":3302,"Ġpynhiar":3303,"istrict":3304,"ĠElias":3305,".\"":3306,".).":3307,"Ġse":3308,"ĠSot":3309,"ĠBang":3310,"Ġpynwan":3311,"ĠPas":3312,"khubor":3313,"phlang":3314,"Ġci":3315,"Ġ187":3316,"uitara":3317,"Ġkyllum":3318,"ĠDuriaw":3319,"ĠTimot":3320,"ĠSalong":3321,"bnai":3322,"kot":3323,"kuna":3324,"myn":3325,"pud":3326,"sam":3327,"yo":3328,"Ġuto":3329,"Ġial":3330,"ieo":3331,"ĠSept":3332,"ĠHam":3333,"Ġnadien":3334,"ĠMo":3335,"Ġhep":3336,"ĠRiew":3337,"Ġwanrah":3338,"Ġ*'":3339,"ĠChar":3340,"fiiew":3341,"mane":3342,"Ġ56":3343,"Ġ67":3344,"Ġ79":3345,"198":3346,"Ġkdar":3347,"ĠMano":3348,"Ġjingthung":3349,"ksod":3350,"IEN":3351,"dt":3352,"Ġkuna":3353,"Ġjor":3354,"Ġnon":3355,"khlaw":3356,"ipmat":3357,"Ġjingpynd":3358,"Ġfrom":3359,"Ġsbu":3360,"ĠPhin":3361,"Ġjingjot":3362,"ĠKatno":3363,"ĠXX":3364,"Ġex":3365,"ĠGover":3366,"86":3367,"Sh":3368,"blang":3369,"ioh":3370,"Ġsm":3371,"Ġlar":3372,"Ġtrep":3373,"hir":3374,"Ġreng":3375,"ĠSier":3376,"Ġkheifi":3377,"ĠHar":3378,"ĠNyngkong":3379,"Ġkumwei":3380,"ĠKiwei":3381,"Ġbarabor":3382,"Ġaih":3383,"ĠJingk":3384,"195":3385,"ĠOh":3386,"Ġkdup":3387,"ĠPyrem":3388,"TAB":3389,"ĠKanaan":3390,"Ġkulai":3391,"Ġphyrnai":3392,"ĠBible":3393,"ĠTimothi":3394,"OT":3395,"roi":3396,"wit":3397,"Ġkbun":3398,"Ġiada":3399,"ĠHi":3400,"ĠTyng":3401,"Ġwar":3402,"Ġkynud":3403,"Ġnamarba":3404,"Ġjingsniew":3405,"esos":3406,"ĠEs":3407,"Ġ64":3408,"Ġbuhrieh":3409,"oner":3410,"bitar":3411,"Ġkyang":3412,"Ġkhanatang":3413,"Ġnoun":3414,"Ġsangeh":3415,"ĠSymph":3416,"yngngad":3417,"ej":3418,"ect":3419,"Ġpli":3420,"Ġdam":3421,"Ġdul":3422,"Ġduwakdar":3423,"ĠKar":3424,"Ġtyngkai":3425,"Ġjingri":3426,"ĠSang":3427,"ĠSir":3428,"ĠSngew":3429,"ond":3430,"ĠPom":3431,"ĠDew":3432,"Ġkhaii":3433,"Ġkambah":3434,"Ġ55":3435,"ĠKITAB":3436,"ĠSaul":3437,"Ġjingkyrkhu":3438,"ĠLongdoh":3439,"Ġsobjekt":3440,"uage":3441,"UT":3442,"ho":3443,"pl":3444,"phai":3445,"Â£":3446,"Ġlas":3447,"Ġtm":3448,"ĠSiej":3449,"ĠBir":3450,"ĠNai":3451,"ĠDada":3452,"Ġhy":3453,"khlia":3454,"Ġmynshwa":3455,"ĠEsek":3456,"fic":3457,"ĠKumne":3458,"ĠGrik":3459,"Ġ53":3460,"ĠShim":3461,"Ġjingpynlong":3462,"shit":3463,"Ġkynroh":3464,"ustoh":3465,"ĠSawkuna":3466,"ĠKHASI":3467,"ology":3468,"ĠIjipt":3469,"\".":3470,"42":3471,":-":3472,"kaw":3473,"Ġen":3474,"Ġkait":3475,"Ġjunom":3476,"Ġbo":3477,"ĠBid":3478,"ĠLu":3479,"Ġweng":3480,"Ġwhich":3481,"ĠIJ":3482,"uki":3483,"ilat":3484,"use":3485,"icm":3486,"Ġjingdonkam":3487,"ĠSampain":3488,"ĠMessaiah":3489,"',":3490,".-":3491,"AN":3492,"cut":3493,"nr":3494,"pule":3495,"qu":3496,"Ġbainong":3497,"Ġlet":3498,"Ġlea":3499,"Ġpra":3500,"Ġiawan":3501,"are":3502,"Ġmem":3503,"Ġpynhap":3504,"ĠKita":3505,"shoh":3506,"Ġkhnai":3507,"Ġjingjynjar":3508,"Ġtyrwa":3509,"Ġjingithuh":3510,"Ġpruh":3511,"Ġshipara":3512,"Ġnovel":3513,"ĠSande":3514,"ĠAnti":3515,"Ġnongbishar":3516,"ĠPalest":3517,"ĠSymphup":3518,"Te":3519,"km":3520,"bapt":3521,"Ġlat":3522,"Ġib":3523,"Ġshadien":3524,"laia":3525,"ĠMustoh":3526,"ĠImat":3527,"ĠDu":3528,"khe":3529,"khun":3530,"âĢĻâĢĻ":3531,"ese":3532,"Ġfc":3533,"Ġft":3534,"Ġsbuh":3535,"Ġshemphang":3536,"Ġshisngi":3537,"Ġpyi":3538,"Ġsyrtap":3539,"ĠRoman":3540,"ĠMihngi":3541,"Ġminot":3542,"ĠJoseph":3543,"Isa":3544,"Lada":3545,"Sha":3546,"War":3547,"ds":3548,"ges":3549,"lew":3550,"pung":3551,"thang":3552,"Ġrngai":3553,"Ġnguid":3554,"Ġkhon":3555,"ĠRon":3556,"Ġnongtrei":3557,"yllok":3558,"ĠNongrum":3559,"Ġjingkwah":3560,"ĠGal":3561,"Ġkite":3562,"Ġpynbna":3563,"Ngi":3564,"Ġkyntait":3565,"Ġnongbud":3566,"ĠMuken":3567,"ĠPalestain":3568,"baptis":3569,"49":3570,"loi":3571,"lain":3572,"tem":3573,"Ġlob":3574,"ĠKmie":3575,"Ġhato":3576,"Ġbin":3577,"Ġjingsha":3578,"ĠShang":3579,"ĠSHA":3580,"ĠMin":3581,"ĠRe":3582,"Ġ200":3583,"yndiat":3584,"ĠKhubor":3585,"Ġkyrkhu":3586,"irang":3587,"Ġ52":3588,"ĠShong":3589,"Ġkynriah":3590,"Ġsyrngiew":3591,"Ġbitar":3592,"ĠNongko":3593,"Ġbapli":3594,"Ġiobi":3595,"Ġjhur":3596,"ĠKhatduh":3597,"66":3598,"Da":3599,"bon":3600,"dew":3601,"der":3602,"gai":3603,"mraw":3604,"rangbah":3605,"Ġbabun":3606,"Ġdeng":3607,"Ġthup":3608,"ĠDON":3609,"Ġhynniew":3610,"all":3611,"ulom":3612,"shnong":3613,"Ġaba":3614,"phet":3615,"ĠâĢĺ*":3616,"ĠYing":3617,"ilia":3618,"Ġ65":3619,"Ġdiengphna":3620,"Ġ?âĢĿ":3621,"Ġjingpynim":3622,"retary":3623,"ordan":3624,"Ġpylleng":3625,"ĠSamuel":3626,"ĠPynban":3627,"Ġjinglait":3628,"hy":3629,"iur":3630,"kon":3631,"kan":3632,"lut":3633,"pu":3634,"Ġkiar":3635,"Ġdud":3636,"Ġtl":3637,"Ġhaei":3638,"Ġru":3639,"Ġshlur":3640,"Ġshaba":3641,"ĠLal":3642,"ĠIA":3643,"ĠRs":3644,"Ġsngcw":3645,"Ġngab":3646,"ult":3647,"ĠAugust":3648,"ĠKhang":3649,"Ġaa":3650,"ĠWei":3651,"Ġklos":3652,"ĠRibha":3653,"Ġpynkynmaw":3654,"Ġshimet":3655,"Ġkbot":3656,"Ġkbmat":3657,"Ġiathuhkhana":3658,"ĠDav":3659,"Ġkhim":3660,"Ġtyrp":3661,"Ġkyntu":3662,"ĠNoun":3663,"ĠMissionary":3664,"Ġkhyrdop":3665,"ĠPaidbah":3666,"ictionary":3667,"IM":3668,"^,":3669,"cc":3670,"dr":3671,"ov":3672,"ĠlA":3673,"Ġsoi":3674,"Ġdan":3675,"Ġdiang":3676,"Ġdung":3677,"Ġtien":3678,"Ġbaduh":3679,"Ġry":3680,"aro":3681,"Ġmishoneri":3682,"ĠSad":3683,"ĠSim":3684,"ĠHoi":3685,"ĠJar":3686,"ĠTir":3687,"iss":3688,"ĠDun":3689,"ĠRaid":3690,"Ġkyrmen":3691,"Ġsaheb":3692,"Ġkhniang":3693,"Ġmatlah":3694,"Ġpura":3695,"Ġnongkren":3696,"ĠEsekiel":3697,"47":3698,"48":3699,"Khasi":3700,"lin":3701,"ruh":3702,"tieh":3703,"wiang":3704,"hara":3705,"Ġsuin":3706,"ĠKy":3707,"Ġnai":3708,"Ġbur":3709,"Ġjinga":3710,"Ġrad":3711,"Ġrben":3712,"Ġkhum":3713,"Ġpynhun":3714,"ĠJap":3715,"uty":3716,"yllon":3717,"khan":3718,"yndi":3719,"okotduma":3720,"phoh":3721,"Ġsnep":3722,"Ġ51":3723,"Ġhangtai":3724,"that":3725,"ĠStem":3726,"rati":3727,"Eksod":3728,"Shi":3729,"bong":3730,"kn":3731,"kwah":3732,"leng":3733,"nujor":3734,"par":3735,"rut":3736,"Ġkob":3737,"Ġkeih":3738,"Ġsia":3739,"Ġsiem":3740,"Ġjylli":3741,"Ġpuh":3742,"Ġjingbakla":3743,"ĠMal":3744,"ĠTom":3745,"ence":3746,"istan":3747,"khuh":3748,"oiig":3749,"Ġsner":3750,"Ġ57":3751,"Ġjingpynbynta":3752,"Ġtbian":3753,"alilaia":3754,"Ġtympew":3755,"44":3756,"Ji":3757,"UH":3758,"biang":3759,"bud":3760,"bynna":3761,"pang":3762,"song":3763,"swet":3764,"Ġed":3765,"Ġsieh":3766,"Ġpliang":3767,"Ġdup":3768,"Ġris":3769,"ness":3770,"ĠSngap":3771,"ĠBeth":3772,"ĠHugh":3773,"ĠHigh":3774,"ĠNor":3775,"Ġkumto":3776,"ĠLYNN":3777,"Ġshil":3778,"ĠKiw":3779,"ini":3780,"Ġsak":3781,"Ġkyrsiew":3782,"Ġainguh":3783,"Ġnangno":3784,"ĠEx":3785,"ĠGre":3786,"kordor":3787,"Ġjingbuh":3788,"Ġjingioh":3789,"Ġmlien":3790,"ĠEphesos":3791,"cutta":3792,"'*":3793,"UM":3794,"ae":3795,"row":3796,"wang":3797,"hin":3798,"ĠSai":3799,"Ġkhynr":3800,"ĠKajing":3801,"ĠBook":3802,"ĠLiterature":3803,"ĠToh":3804,"ymg":3805,"Ġthngan":3806,"ĠDictionary":3807,"Ġnongkh":3808,"shain":3809,"yndew":3810,"Ġhim":3811,"ost":3812,"ĠNongrim":3813,"Ġkhleh":3814,"Ġ61":3815,"Ġ69":3816,"Ġpynsan":3817,"Ġjingtem":3818,"Ġtboh":3819,"Ġtnad":3820,"Ġkhyllipmat":3821,"ĠJaitbynriew":3822,"ĠBengali":3823,"ĠLehse":3824,"Ġrunar":3825,"43":3826,"UR":3827,"gn":3828,"jam":3829,"rkhie":3830,"sew":3831,"vr":3832,"Ġkom":3833,"ngain":3834,"Ġlip":3835,"Ġkiim":3836,"Ġpub":3837,"Ġlais":3838,"Ġdub":3839,"Ġtem":3840,"Ġbid":3841,"Ġbthah":3842,"Ġmail":3843,"Ġkhei":3844,"Ġshyll":3845,"ĠBo":3846,"Ġshaphrang":3847,"ĠNoh":3848,"lab":3849,"laka":3850,"ĠMishon":3851,"ition":3852,"ĠIS":3853,"Ġkynta":3854,"now":3855,"ĠKhana":3856,"Ġag":3857,"ĠEsra":3858,"icn":3859,"ĠKAM":3860,"akot":3861,"Ġkthang":3862,"Ġtbob":3863,"Ġatiar":3864,"rose":3865,"ĠCalcutta":3866,"ĠPersia":3867,"LL":3868,"^'":3869,"bn":3870,"gew":3871,"kna":3872,"tl":3873,"tiew":3874,"vi":3875,"Ġkshaid":3876,"Ġkad":3877,"Ġlaka":3878,"Ġiaia":3879,"Ġiaiam":3880,"Ġtah":3881,"Ġhai":3882,"Ġro":3883,"Ġrud":3884,"ĠHy":3885,"ĠNep":3886,"ĠJang":3887,"ĠJem":3888,"lak":3889,"ĠTha":3890,"ĠPre":3891,"ĠPugh":3892,"Ġthymmei":3893,"istic":3894,"adar":3895,"ĠKhron":3896,"Ġarsien":3897,"Ġjingsneng":3898,"Ġmarjan":3899,"Ġhangto":3900,"Ġsboh":3901,"ĠMaws":3902,"Ġlaitluid":3903,"Ġkhriat":3904,"Ġtreh":3905,"ĠLapalang":3906,"Ġbsein":3907,"Ġjingithuhpaw":3908,"Hooid":3909,"dd":3910,"jang":3911,"mer":3912,"nl":3913,"Ġel":3914,"ngit":3915,"Ġbasa":3916,"Ġpad":3917,"Ġiashem":3918,"Ġdar":3919,"Ġdkut":3920,"ĠKn":3921,"Ġnan":3922,"Ġtat":3923,"Ġjingnang":3924,"Ġrisa":3925,"arap":3926,"Ġbanse":3927,"Ġshub":3928,"yria":3929,"ĠJordan":3930,"lass":3931,"thew":3932,"ĠMang":3933,"ĠMas":3934,"ĠTr":3935,"ĠTab":3936,"ĠPud":3937,"Ġwor":3938,"adb":3939,"ĠDistrict":3940,"ĠRyngk":3941,"Ġkynjah":3942,"ĠAbi":3943,"shop":3944,"ĠGi":3945,"ĠShai":3946,"Ġmareh":3947,"Ġshisyndon":3948,"Ġjingthiah":3949,"Ġjingpyrshang":3950,"ĠApril":3951,"ĠÂ£":3952,"Ġhistory":3953,"OS":3954,"bur":3955,"lng":3956,"pun":3957,"sap":3958,"yan":3959,"Ġbasan":3960,"Ġsmai":3961,"Ġpyngngad":3962,"Ġdng":3963,"ĠKT":3964,"ĠUni":3965,"ĠBer":3966,"Ġshar":3967,"ĠJam":3968,"ĠTeng":3969,"ĠIsa":3970,"ynrong":3971,"ĠDol":3972,"Ġpyrkbat":3973,"ĠNongbuh":3974,"yllah":3975,"lic":3976,"ĠGalilaia":3977,"ĠShu":3978,"Ġch":3979,"1980":3980,"Ġpyo":3981,"Ġlamler":3982,"Ġtbit":3983,"Ġ....":3984,"Ġbastad":3985,"ĠSkei":3986,"ĠKaisar":3987,"ĠAngel":3988,"cil":3989,"jor":3990,"para":3991,"tg":3992,"tin":3993,"van":3994,"Ġkyl":3995,"ĠKyll":3996,"ĠKsan":3997,"Ġtba":3998,"Ġhan":3999,"Ġhas":4000,"Ġhakhmat":4001,"Ġbl":4002,"Ġrat":4003,"ned":4004,"ĠSynshar":4005,"ĠSib":4006,"ĠSou":4007,"Ġine":4008,"Ġiii":4009,"Ġkheit":4010,"ĠByr":4011,"Ġpyniar":4012,"Ġsharak":4013,"yriem":4014,"ĠNeh":4015,"iewspah":4016,"thung":4017,"Ġwiat":4018,"ome":4019,"Ġkhasi":4020,"Ġkatai":4021,"khara":4022,"Ġmynsngi":4023,"ĠNongwar":4024,"phra":4025,"ĠEli":4026,"Ġjingialam":4027,"Ġmahadei":4028,"Ġ54":4029,"Ġ58":4030,"illa":4031,"ich":4032,"ĠXI":4033,"Ġjaifi":4034,"Ġyou":4035,"Ġnongkyndong":4036,"Ġjingkhawai":4037,"ĠSecretary":4038,"ĠDeputy":4039,"ĠDambri":4040,"'^":4041,"EH":4042,"Namar":4043,"Ui":4044,"bneng":4045,"jri":4046,"lt":4047,"nei":4048,"synei":4049,"Ġjyll":4050,"Ġiadon":4051,"Ġdom":4052,"iea":4053,"him":4054,"ĠSoi":4055,"ĠSain":4056,"Ġiv":4057,"Ġkhor":4058,"Ġshapbang":4059,"ĠTH":4060,"itos":4061,"Ġthiaw":4062,"ĠDrama":4063,"ĠRI":4064,"ĠRong":4065,"ĠRyn":4066,"ĠKin":4067,"yngkhong":4068,"Ġsngur":4069,"Ġnongrwai":4070,"shlur":4071,"ĠGanga":4072,"ĠShyllong":4073,"Ġsahlang":4074,"Ġbymman":4075,"ice":4076,"Ġsbem":4077,"Ġiathuhlypa":4078,"Ġ120":4079,"Ġsuri":4080,"ĠKatto":4081,"ctober":4082,"Ġpynbud":4083,"ĠSordar":4084,"neral":4085,"Ġjlng":4086,"ĠNangne":4087,"ĠSepngi":4088,"Ġthaifi":4089,"61":4090,"Ca":4091,"Me":4092,"dih":4093,"if":4094,"jm":4095,"jem":4096,"kin":4097,"sn":4098,"sop":4099,"ven":4100,"ĠSynr":4101,"Ġiuh":4102,"ory":4103,"Ġpynrem":4104,"ĠHe":4105,"ĠHo":4106,"ĠJONG":4107,"ĠMad":4108,"ĠMular":4109,"ĠThang":4110,"Ġwill":4111,"adei":4112,"Ġshibit":4113,"ĠDe":4114,"Ġkynbat":4115,"ose":4116,"ĠGat":4117,"ĠLyngngam":4118,"Ġkhroh":4119,"Ġkput":4120,"Ġnongsynshar":4121,"Ġlawbei":4122,"Ġjingphohsniew":4123,"Ġophis":4124,"ĠJentil":4125,"Ġkyrkieh":4126,"-âĢĻ":4127,"53":4128,"Th":4129,"pli":4130,"ryn":4131,"Ġkni":4132,"Ġkajong":4133,"has":4134,"Ġluh":4135,"Ġjon":4136,"Ġbadon":4137,"Ġbut":4138,"Ġbna":4139,"aroh":4140,"Ġmiaw":4141,"Ġkhu":4142,"ĠBiei":4143,"Ġshap":4144,"ĠJe":4145,"ĠMem":4146,"Ġjak":4147,"Ġkani":4148,"ile":4149,"Ġ62":4150,"Ġkblem":4151,"niuh":4152,"ĠUmsoh":4153,"Ġjingsngewbha":4154,"ĠDiengdoh":4155,"lyngkot":4156,"Ġlympung":4157,"ĠJonah":4158,"'m":4159,"Maw":4160,"jin":4161,"riat":4162,"Ġer":4163,"Ġbakhuid":4164,"Ġiah":4165,"Ġniang":4166,"Ġnylla":4167,"Ġbadien":4168,"ĠSin":4169,"ĠSniew":4170,"ĠJler":4171,"Ġnadong":4172,"sid":4173,"sion":4174,"eter":4175,"Ġmyns":4176,"ĠKhn":4177,"ĠKhmih":4178,"ĠNongbishar":4179,"Ġare":4180,"ĠYoh":4181,"ĠCha":4182,"ĠShan":4183,"Ġsnoh":4184,"Ġ90":4185,"Ġbniat":4186,"ĠOng":4187,"stit":4188,"Ġshispah":4189,"Ġbieij":4190,"ĠJutang":4191,"ĠÂ®":4192,"lynti":4193,"Ġshyrkhei":4194,"ĠPrimrose":4195,"ĠBlci":4196,"ĠLYNNONG":4197,"kharaiah":4198,"70":4199,"bynr":4200,"jub":4201,"ko":4202,"kpa":4203,"lish":4204,"rta":4205,"tuh":4206,"Ġsuid":4207,"Ġur":4208,"Ġpe":4209,"Ġpul":4210,"Ġpvn":4211,"Ġjingis":4212,"Ġmu":4213,"Ġmuk":4214,"ati":4215,"ĠSub":4216,"Ġjongno":4217,"Ġlongdoh":4218,"ĠPd":4219,"ĠIeit":4220,"ĠRyngkat":4221,"Ġkynshew":4222,"Ġpyrd":4223,"ĠKhyr":4224,"ĠKhyndai":4225,"yngkot":4226,"ope":4227,"Ġthala":4228,"ĠCenten":4229,"Ġone":4230,"Ġfl":4231,"Ġ..":4232,"Ġimlang":4233,"icng":4234,"ishni":4235,"tbub":4236,"Ġkyi":4237,"Ġtyrkhong":4238,"ĠKitbor":4239,"Ġjingroi":4240,"Ġjingshemphang":4241,"Ġsalia":4242,"Ġjyrngam":4243,"ĠNongiathuhlypa":4244,"ĠReader":4245,"'d":4246,"*'":4247,"-^":4248,".),":4249,"79":4250,"jn":4251,"peit":4252,"sla":4253,"tm":4254,"wieng":4255,"Ġkabym":4256,"Ġliterature":4257,"Ġkieng":4258,"ĠKyndong":4259,"Ġnum":4260,"Ġbis":4261,"Ġrn":4262,"Ġmul":4263,"Ġmudui":4264,"Ġmokotduma":4265,"ĠSHI":4266,"ĠBon":4267,"Ġshawei":4268,"ĠNA":4269,"iskam":4270,"ĠIcit":4271,"Ġkhah":4272,"kaiah":4273,"phuh":4274,"phylla":4275,"Ġkhlam":4276,"Ġthad":4277,"iir":4278,"ĠJingmut":4279,"ĠJingshai":4280,"Ġ1980":4281,"ĠShad":4282,"ĠShul":4283,"ĠThei":4284,"uifi":4285,"Ġpynphai":4286,"ĠPaitnia":4287,"Ġiaiade":4288,"Heb":4289,"Rev":4290,"Um":4291,"au":4292,"bet":4293,"dm":4294,"for":4295,"jna":4296,"ty":4297,"tylli":4298,"Ġ).":4299,"Ġpol":4300,"Ġiasngew":4301,"ĠKynd":4302,"Ġroh":4303,"ĠSba":4304,"ĠSylh":4305,"ĠHamar":4306,"thymmai":4307,"ution":4308,"ĠIc":4309,"Ġnongleit":4310,"shat":4311,"kap":4312,"uly":4313,"ĠAnd":4314,"Ġkhlai":4315,"Ġrich":4316,"Ġ63":4317,"Ġsahep":4318,"Ġ188":4319,"ĠOf":4320,"Ġjingpyniaid":4321,"Ġjiug":4322,"Ġkura":4323,"Ġlyiur":4324,"Ġjingsngewnguh":4325,"Ġkhriam":4326,"jee":4327,"kseh":4328,"Ġpass":4329,"Ġkhadduh":4330,"ĠBengal":4331,"ĠPastor":4332,"ĠDavid":4333,"ĠCentenary":4334,"51":4335,"Hynrei":4336,"Lyn":4337,"Qg":4338,"YR":4339,"buit":4340,"fer":4341,"jaw":4342,"mudui":4343,"nda":4344,"vers":4345,"wci":4346,"Ġjingkhot":4347,"tari":4348,"ĠSwer":4349,"Ġif":4350,"Ġkhop":4351,"ĠJat":4352,"ĠMi":4353,"ĠPer":4354,"ĠPad":4355,"ĠPara":4356,"Ġthiar":4357,"Ġshikat":4358,"Ġhu":4359,"Ġnongai":4360,"Ġkyrs":4361,"pab":4362,"ynnin":4363,"Ġborabor":4364,"Ġ89":4365,"Ġjingpynshitom":4366,"ĠFran":4367,"sawlia":4368,"ĠXV":4369,"Ġsyndah":4370,"Ġpoetry":4371,"ĠSkul":4372,"Ġjingheh":4373,"Ġarsut":4374,"ĠTirot":4375,"ĠDoloi":4376,"ĠSylhet":4377,"PH":4378,"Wat":4379,"dup":4380,"hon":4381,"oam":4382,"ret":4383,"rip":4384,"tyr":4385,"ĠZ":4386,"Ġlor":4387,"Ġlui":4388,"Ġdwar":4389,"Ġtor":4390,"Ġtab":4391,"Ġbih":4392,"Ġmang":4393,"ĠNat":4394,"them":4395,"ement":4396,"ĠThaw":4397,"itical":4398,"ĠPam":4399,"ograp":4400,"Ġjingiakren":4401,"langbrot":4402,"ĠShyr":4403,"Ġ76":4404,"ĠMarch":4405,"ĠFir":4406,"ympei":4407,"cene":4408,"ĠRomilia":4409,"ĠSamla":4410,"Ġpynjah":4411,"Ġpuri":4412,"Haba":4413,"Ġsngewtynnat":4414,"iasiat":4415,"ucation":4416,"-'":4417,"AW":4418,"YM":4419,"ction":4420,"dep":4421,"heh":4422,"kano":4423,"pap":4424,"pore":4425,"rup":4426,"sit":4427,"Ġsiaw":4428,"Ġjoit":4429,"Ġjtng":4430,"Ġpp":4431,"eii":4432,"Ġiaieh":4433,"ĠKur":4434,"ĠKylla":4435,"Ġbh":4436,"Ġjingshong":4437,"nen":4438,"ĠStat":4439,"Ġkhoit":4440,"Ġshor":4441,"Ġsher":4442,"yrkhat":4443,"Ġwere":4444,"isi":4445,"ĠKhie":4446,"rab":4447,"Ġkyrt":4448,"ĠYap":4449,"Ġmaham":4450,"ĠMari":4451,"Ġsamrkhie":4452,"ĠNaba":4453,"Ġkutn":4454,"Ġtyngeh":4455,"ympat":4456,"Ġseisoh":4457,"ĠPhawar":4458,"narphna":4459,"Ġbasdang":4460,"pital":4461,"ĠJaka":4462,"tee":4463,"Ġjaidbynriew":4464,"Ġogi":4465,"Ġkhongpong":4466,"uthor":4467,"ĠNongtrai":4468,"Ġmyrsiang":4469,"Ġsogew":4470,"ĠSekharaiah":4471,"ĠSeptember":4472,"55":4473,"OM":4474,"bba":4475,"png":4476,"poi":4477,"rew":4478,"sun":4479,"Ġiaw":4480,"Ġiaki":4481,"Ġiatrei":4482,"ĠKt":4483,"Ġjingbitar":4484,"angnud":4485,"ĠSei":4486,"ĠSut":4487,"Ġkhm":4488,"Ġjongnga":4489,"ĠBrit":4490,"ĠHI":4491,"thing":4492,"Ġshimiet":4493,"omi":4494,"Ġsnge":4495,"alam":4496,"khlad":4497,"Ġsngewnguh":4498,"Ġphieng":4499,"ĠNongsh":4500,"Ġkhlieng":4501,"ynnoh":4502,"oll":4503,"ĠThess":4504,"Ġpynsum":4505,"Kane":4506,"ica":4507,"Ġ98":4508,"ĠMay":4509,"uij":4510,"ishot":4511,"Ġjingduna":4512,"Ġpawnam":4513,"Ġjingsngewsih":4514,"Ngam":4515,"ĠStew":4516,"ĠSten":4517,"kynthei":4518,"Ġknm":4519,"ĠJudia":4520,"phan":4521,"Ġsynduk":4522,"ĠAmos":4523,"ynnab":4524,"âĢ¢âĢ¢":4525,"Ġpynshlur":4526,"ĠNGAP":4527,"Ġjiiig":4528,"Ġjinglaitluid":4529,"Ġradbah":4530,"54":4531,"AH":4532,"LEI":4533,"cti":4534,"dw":4535,"ktien":4536,"les":4537,"oag":4538,"rt":4539,"riem":4540,"rin":4541,"Ġbakh":4542,"ynsiem":4543,"Ġtym":4544,"Ġres":4545,"Ġmg":4546,"Ġmreng":4547,"nes":4548,"onoun":4549,"Ġkhra":4550,"Ġshl":4551,"Ġshukor":4552,"ĠHin":4553,"Ġnadub":4554,"Ġthok":4555,"utia":4556,"ĠRep":4557,"khmi":4558,"Ġkynthoh":4559,"Ġnongshong":4560,"Ġkhai":4561,"oii":4562,"Ġkatkum":4563,"ĠWow":4564,"Ġshongkha":4565,"Ġjingkut":4566,"yntih":4567,"ĠBak":4568,"Ġiapoi":4569,"ĠOnd":4570,"kiba":4571,"Ġryngkew":4572,"Ġ118":4573,"Ġsting":4574,"Ġpyut":4575,"Ġkynram":4576,"Ġkhiin":4577,"Ġjingkhraw":4578,"ĠNov":4579,"ĠRoba":4580,"Ġadong":4581,"Ġreport":4582,"Ġsymboh":4583,"Ġrakhe":4584,"Ġsopti":4585,"ĠPresbytery":4586,"Ġjinghiar":4587,"ĠKolkata":4588,"ĠSoitan":4589,"beh":4590,"die":4591,"fed":4592,"hiang":4593,"ys":4594,"Ġkfiia":4595,"Ġbala":4596,"Ġbapoh":4597,"Ġsaifi":4598,"Ġup":4599,"Ġjubor":4600,"Ġiamih":4601,"Ġber":4602,"ĠBym":4603,"Ġpyntha":4604,"Ġsharai":4605,"Ġshaneng":4606,"ĠHead":4607,"ĠNi":4608,"ĠMu":4609,"ĠLym":4610,"ĠLad":4611,"ĠTitos":4612,"ĠRad":4613,"amaria":4614,"ĠKhoh":4615,"esli":4616,"Ġjakhlia":4617,"Ġthau":4618,"Ġ78":4619,"Ġsbun":4620,"Ngan":4621,"ĠHangno":4622,"ĠJune":4623,"Ġall":4624,"ĠÂ©":4625,"Ġshyiap":4626,"Ġkjit":4627,"Jingpyn":4628,"ĠSeram":4629,"ĠLewin":4630,"ĠCharan":4631,"ĠLaloo":4632,"Ġjingainguh":4633,"venir":4634,"Jo":4635,"Ri":4636,"cha":4637,"lh":4638,"rie":4639,"sieh":4640,"tis":4641,"we":4642,"Ġaw":4643,"Ġpi":4644,"Ġpbi":4645,"Ġlanot":4646,"Ġdoktor":4647,"ĠKYN":4648,"Ġneng":4649,"Ġtlang":4650,"Ġhano":4651,"Ġbyll":4652,"Ġrei":4653,"Ġiia":4654,"Ġshatai":4655,"ĠNP":4656,"ĠMap":4657,"ĠPub":4658,"ĠRiti":4659,"ihon":4660,"ink":4661,"Ġnongkha":4662,"Ġnongmih":4663,"yllait":4664,"khap":4665,"Ġmynsi":4666,"Ġjingshitom":4667,"Ġjingkoit":4668,"ĠKumar":4669,"ĠJinglong":4670,"Ġjaitbyn":4671,"Ġ'âĢĺ":4672,"Ġ199":4673,"ĠBakhraw":4674,"ĠLyngba":4675,"Ġktieh":4676,"ecember":4677,"ĠAssyria":4678,"kyntien":4679,"ĠPress":4680,"ĠJINGS":4681,"pyrkhat":4682,"lingki":4683,"Ġjingmihpat":4684,"lynnong":4685,"ĠPoetry":4686,"Ġjingpyndonkam":4687,"Ġkhynraw":4688,"/-":4689,"45":4690,"68":4691,"IN":4692,"Ia":4693,"kk":4694,"ku":4695,"mit":4696,"sneng":4697,"stan":4698,"tyn":4699,"Ġkab":4700,"Ġiahap":4701,"Ġrain":4702,"ated":4703,"ĠSo":4704,"Ġkhy":4705,"ĠBos":4706,"ĠBilat":4707,"ĠMer":4708,"ĠIX":4709,"ĠIb":4710,"nob":4711,"Ġbricw":4712,"kham":4713,"Ġphiah":4714,"Ġbhabriew":4715,"Ġpynkyntang":4716,"ĠOctober":4717,"Ġskei":4718,"jaka":4719,"Ġpaka":4720,"Ġsbaphang":4721,"Ġsati":4722,"Ġsyaid":4723,"Ġpleng":4724,"Ġnongiathuh":4725,"ĠPateng":4726,"Ġhadub":4727,"shaniah":4728,"Ġ1979":4729,"Ġtheir":4730,"Ġkuni":4731,"sngiat":4732,"ĠMorris":4733,"Ġpeisa":4734,"Ġbynrap":4735,"ĠLewis":4736,"Ġiwbih":4737,"ĠShangpung":4738,"ĠSerampore":4739,"/âĢĻ":4740,"Ai":4741,"ble":4742,"dh":4743,"dum":4744,"kup":4745,"moh":4746,"tf":4747,"uary":4748,"wiar":4749,"Ġkrai":4750,"Ġkabu":4751,"Ġsyngk":4752,"Ġswar":4753,"Ġlajan":4754,"Ġtyngk":4755,"Ġham":4756,"Ġbleit":4757,"Ġberb":4758,"Ġmiej":4759,"ĠUrn":4760,"Ġngain":4761,"Ġkhulom":4762,"Ġshata":4763,"Ġthri":4764,"Ġwit":4765,"ĠIs":4766,"ĠDA":4767,"ĠDo":4768,"ĠDuitara":4769,"alei":4770,"Ġkynsha":4771,"ulmar":4772,"Ġaifi":4773,"Ġphad":4774,"Ġlehnoh":4775,"asong":4776,"ĠCoun":4777,"yntu":4778,"ĠJingtip":4779,"uson":4780,"Ġ77":4781,"Ġsbis":4782,"Ġpynkup":4783,"Ġ108":4784,"ymmang":4785,"Ġ116":4786,"Ġsbapbang":4787,"jekti":4788,"ĠPhan":4789,"Ġjingthob":4790,"Ġisih":4791,"pateng":4792,"issioner":4793,"Ġduma":4794,"ound":4795,"Ġsbibun":4796,"ĠPolitical":4797,"ĠNehemaiah":4798,"ĠSutnga":4799,"52":4800,"56":4801,"Mi":4802,"Soh":4803,"bir":4804,"jon":4805,"lieng":4806,"nment":4807,"siar":4808,"tri":4809,"Ġktang":4810,"ngat":4811,"bap":4812,"Ġkici":4813,"Ġsli":4814,"Ġjn":4815,"Ġiath":4816,"Ġdai":4817,"ĠKhi":4818,"Ġnusi":4819,"ingut":4820,"Ġmas":4821,"ĠSuk":4822,"ĠBis":4823,"Ġpyntrei":4824,"Ġshadong":4825,"Ġsharati":4826,"und":4827,"uni":4828,"ĠPUT":4829,"Ġthrang":4830,"ishah":4831,"ynram":4832,"ĠKiei":4833,"khaw":4834,"khang":4835,"Ġhin":4836,"ogi":4837,"Ġjingkfiia":4838,"Ġksah":4839,"Ġsahnarphna":4840,"ĠBala":4841,"ĠMala":4842,"Ġ107":4843,"ĠMawkhar":4844,"Ġ111":4845,"Ġpynioh":4846,"ĠFr":4847,"Ġkynrup":4848,"owel":4849,"ĠLynti":4850,"Ġtran":4851,"Ġpynkham":4852,"TAP":4853,"Ġbyneng":4854,"ailar":4855,"ĠAdam":4856,"ĠRisaw":4857,"Ġtohkit":4858,"Ġtyrpeng":4859,"versity":4860,"ĠBritish":4861,"Ġbleithaw":4862,"jektib":4863,".^":4864,"Bad":4865,"ES":4866,"hiar":4867,"ksan":4868,"lim":4869,"prah":4870,"sang":4871,"Ġev":4872,"Ġkub":4873,"Ġkol":4874,"bas":4875,"Ġkii":4876,"iaog":4877,"Ġsul":4878,"yne":4879,"Ġdik":4880,"Ġrm":4881,"ard":4882,"Ġmi":4883,"ĠSimon":4884,"ani":4885,"umai":4886,"ĠBur":4887,"ĠBurom":4888,"ĠHor":4889,"ĠJia":4890,"Ġnap":4891,"ery":4892,"ittee":4893,"ĠRyng":4894,"yngngoh":4895,"khing":4896,"uku":4897,"ukhi":4898,"Ġnongwan":4899,"ĠHag":4900,"Ġkhajna":4901,"ople":4902,"Ġlehniam":4903,"Ġpyndei":4904,"Ġlangbrot":4905,"Ġiapyn":4906,"Ġskud":4907,"Ġjingpyni":4908,"Ġlamwir":4909,"Ġjingiohi":4910,"Ġniut":4911,"ĠJINGK":4912,"ĠSaheb":4913,"ĠJiog":4914,"ĠRising":4915,"Ġsubject":4916,"ĠEsther":4917,"ĠLukhmi":4918,"ĠShullai":4919,"ography":4920,",âĢĻ":4921,"97":4922,"ENG":4923,"Oh":4924,"Ym":4925,"bein":4926,"can":4927,"hep":4928,"lla":4929,"nn":4930,"pn":4931,"Ġkop":4932,"Ġkuin":4933,"Ġsian":4934,"Ġjwat":4935,"Ġpuit":4936,"eid":4937,"Ġtub":4938,"net":4939,"Ġiu":4940,"ant":4941,"Ġkhiah":4942,"Ġkhrei":4943,"ĠBI":4944,"ĠBiel":4945,"Ġdonnam":4946,"Ġwrit":4947,"ĠIf":4948,"Ġkiban":4949,"ĠRia":4950,"ĠRung":4951,"khyr":4952,"Ġkynto":4953,"Ġkhawai":4954,"ide":4955,"khawai":4956,"eli":4957,"ĠKhnang":4958,"yngkiang":4959,"ĠNongsawlia":4960,"rig":4961,"Ġshongkai":4962,"ĠEi":4963,"Ġoog":4964,"ĠGaro":4965,"Ġksang":4966,"Ġ72":4967,"Ġmanbriew":4968,"ĠVol":4969,"Ġskit":4970,"andar":4971,"ander":4972,"bru":4973,"baton":4974,"bikai":4975,"Ġappe":4976,"baibal":4977,"ĠPhalingki":4978,"ĠXII":4979,"yiur":4980,"sarong":4981,"Ġjingphylla":4982,"Ġ1937":4983,"Ġpynher":4984,"Ġpyntngen":4985,"ĠSyria":4986,"ĠCommittee":4987,"ĠTamti":4988,"Ek":4989,"Eph":4990,"NO":4991,"Pule":4992,"The":4993,"YNG":4994,"fli":4995,"hur":4996,"jg":4997,"kr":4998,"kom":4999,"lynnai":5000,"nm":5001,"py":5002,"woh":5003,"iadei":5004,"Ġubym":5005,"Ġjit":5006,"Ġjal":5007,"Ġpj":5008,"Ġdis":5009,"Ġtin":5010,"Ġtyndong":5011,"Ġtngen":5012,"Ġhati":5013,"Ġjingduh":5014,"Ġmh":5015,"Ġmission":5016,"ĠKal":5017,"ĠBuh":5018,"Ġpyntip":5019,"Ġlongshuwa":5020,"ĠNoog":5021,"ĠMy":5022,"ĠMyllung":5023,"ĠPusi":5024,"ĠPink":5025,"ience":5026,"ĠDoktor":5027,"Ġhiew":5028,"ĠRol":5029,"lein":5030,"ĠAkor":5031,"yndep":5032,"Ġsahit":5033,"ĠChi":5034,"ĠCos":5035,"reis":5036,"Ġksan":5037,"mied":5038,"Ġthey":5039,"Ġpynsniew":5040,"Ġsnieu":5041,"Ġsbnong":5042,"Ġ86":5043,"shim":5044,"Ġ126":5045,"ĠUmiam":5046,"Ġsani":5047,"thih":5048,"Ġplung":5049,"Ġjingkhein":5050,"Ġantad":5051,"Ġpoim":5052,"Ġjingmane":5053,"Ġkern":5054,"Ġtank":5055,"ĠGeneral":5056,"Ġpynthor":5057,"ĠCajee":5058,"ĠCommissioner":5059,"ĠDohnud":5060,"Ġtawiar":5061,"ĠNapdeng":5062,"ĠGovernment":5063,"ĠSouvenir":5064,"ĠCouncil":5065,"ĠRoland":5066,"''":5067,"Am":5068,"duwai":5069,"jih":5070,"jones":5071,"ota":5072,"reit":5073,"tung":5074,"tain":5075,"vm":5076,"ĠlU":5077,"Ġloog":5078,"Ġkid":5079,"Ġking":5080,"Ġsleh":5081,"Ġsuba":5082,"Ġpu":5083,"Ġlarap":5084,"Ġiaiap":5085,"Ġiabam":5086,"Ġtal":5087,"Ġtoi":5088,"ney":5089,"ĠSamaria":5090,"Ġkhyllah":5091,"ĠBha":5092,"ĠBriew":5093,"ĠHei":5094,"Ġlongiing":5095,"ĠJit":5096,"ĠJylliew":5097,"Ġwould":5098,"ĠRod":5099,"ĠRuth":5100,"khiang":5101,"Ġnongkam":5102,"tig":5103,"ĠAsia":5104,"Ġhir":5105,"Ġailad":5106,"Ġphohsniew":5107,"ĠWest":5108,"Ġumph":5109,"Ġmaian":5110,"ilg":5111,"old":5112,"Ġ'*":5113,"Ġpyndait":5114,"ĠThylliej":5115,"Ġ73":5116,"Ġsbym":5117,"Ġ87":5118,"Ġ88":5119,"Ġinshi":5120,"ĠIdba":5121,"ĠFeb":5122,"Ġ130":5123,"Ġtyngshop":5124,"Ġlamet":5125,"Ġjingsngewthuh":5126,"ĠMynba":5127,"Ġtnum":5128,"Ġjingaiei":5129,"ĠÂ§":5130,"Ġjingmaham":5131,"Ġmamla":5132,"ĠKito":5133,"Ġthapniang":5134,"Ġjoag":5135,"ĠVIII":5136,"ĠSobra":5137,"eracy":5138,"mluh":5139,"ĠMikir":5140,"ĠSirdar":5141,"Ġjingshakri":5142,"ĠUniversity":5143,"ĠIsaak":5144,"sident":5145,"ĠKhohwah":5146,"ĠPUTIT":5147,")-":5148,",*":5149,"96":5150,"AL":5151,"ANG":5152,"Kat":5153,"TI":5154,"byr":5155,"beifi":5156,"cl":5157,"cin":5158,"char":5159,"kul":5160,"kir":5161,"pliang":5162,"Ġkym":5163,"Ġkynrei":5164,"Ġsdien":5165,"Ġjy":5166,"Ġlama":5167,"Ġlaleh":5168,"Ġiathub":5169,"Ġianujor":5170,"ĠKop":5171,"Ġnm":5172,"Ġnyng":5173,"Ġtc":5174,"Ġbeifi":5175,"Ġrngiew":5176,"Ġmain":5177,"Ġmishon":5178,"ĠUp":5179,"ons":5180,"onia":5181,"Ġiit":5182,"Ġshn":5183,"ĠNah":5184,"ĠJuly":5185,"Ġnah":5186,"Ġnaka":5187,"entari":5188,"ĠIch":5189,"Ġhor":5190,"khmih":5191,"Ġkyntbei":5192,"inc":5193,"Ġnongtb":5194,"tir":5195,"Ġbrie":5196,"ĠKhasis":5197,"shor":5198,"ĠKhublei":5199,"Ġphrang":5200,"Ġphriang":5201,"phong":5202,"Ġkhlaifi":5203,"Ġjingsumar":5204,"Ġjingkular":5205,"ĠEh":5206,"asam":5207,"Ġhabar":5208,"Ġkinc":5209,"irect":5210,"Ġ75":5211,"Ġsbit":5212,"Ġsbub":5213,"Ġiapeit":5214,"Ġbatri":5215,"ĠOr":5216,"Ġmawbynna":5217,"Ġnongpop":5218,"ĠKongsan":5219,"Ġkriah":5220,"Ġkrcn":5221,"Ġpuriskam":5222,"ĠChrist":5223,"Ġ1842":5224,"katne":5225,"ĠKHUN":5226,"1978":5227,"simai":5228,"ĠSabbaton":5229,"istics":5230,"ĠSinai":5231,"Nai":5232,"Pa":5233,"Sait":5234,"^-":5235,"do":5236,"gan":5237,"jng":5238,"jew":5239,"jir":5240,"pg":5241,"pur":5242,"siej":5243,"teh":5244,"tymmen":5245,"uo":5246,"Ġ}":5247,"Ġeit":5248,"Ġlin":5249,"Ġkijuh":5250,"Ġsliang":5251,"Ġjng":5252,"Ġjat":5253,"Ġjynd":5254,"Ġpym":5255,"Ġiajan":5256,"ĠKuku":5257,"Ġboi":5258,"Ġbynn":5259,"Ġruk":5260,"artatien":5261,"Ġmong":5262,"Ġshniuh":5263,"ĠKap":5264,"ĠBen":5265,"ĠBud":5266,"ĠBneng":5267,"ĠBnai":5268,"ĠNeb":5269,"ĠLur":5270,"ĠLeb":5271,"ural":5272,"urch":5273,"ĠPYN":5274,"Ġwe":5275,"khein":5276,"khrah":5277,"Ġkhatar":5278,"oboam":5279,"Ġkyrhuh":5280,"ĠEn":5281,"ĠShano":5282,"ĠShuh":5283,"Ġ71":5284,"Ġjingthang":5285,"Ġjingtbit":5286,"Ġ97":5287,"Ġ101":5288,"Ġjingpynkylla":5289,"ĠPhim":5290,"ree":5291,"ctor":5292,"Ġ150":5293,"Ġkyiad":5294,"Ġits":5295,"ĠSajer":5296,"IEM":5297,"Ġhynne":5298,"Ġangnud":5299,"ĠNongsteng":5300,"Ġpahuh":5301,"ĠEducation":5302,"Ġpaila":5303,"ĠElisha":5304,"ĠSngon":5305,"ĠRyngkew":5306,"ĠKTIEN":5307,"ĠElijah":5308,"ĠGatphoh":5309,"Ap":5310,"Baroh":5311,"KH":5312,"bis":5313,"co":5314,"ef":5315,"fr":5316,"hen":5317,"iuh":5318,"lu":5319,"oDg":5320,"sm":5321,"tba":5322,"vng":5323,"zen":5324,"Ġkraw":5325,"hana":5326,"Ġlur":5327,"Ġsima":5328,"Ġstar":5329,"Ġjylla":5330,"Ġpuson":5331,"ĠKu":5332,"Ġjingiar":5333,"Ġmus":5334,"atia":5335,"ĠSuba":5336,"Ġiin":5337,"orei":5338,"Ġpynleit":5339,"Ġshaei":5340,"ĠNar":5341,"ĠLber":5342,"ĠLyiur":5343,"ote":5344,"ĠDecember":5345,"Ġnongjop":5346,"yllup":5347,"shar":5348,"Ġmynh":5349,"Ġpyrs":5350,"ĠKhad":5351,"shu":5352,"Ġ--":5353,"ĠNongkhlaw":5354,"yntah":5355,"Ġshongthait":5356,"asiat":5357,"ĠCiti":5358,"yntieh":5359,"Ġparab":5360,"Ġimg":5361,"Ġ74":5362,"Ġstieh":5363,"Ġjingdap":5364,"iwbih":5365,"Ġtyngshain":5366,"Ġgrammar":5367,"Ġpyniapher":5368,"Ġjingkhiah":5369,"Ġtrap":5370,"Ġbasniew":5371,"ĠSawdong":5372,"IENG":5373,"ĠKongthei":5374,"Ġkrung":5375,"ĠJaiaw":5376,"ĠChyne":5377,"1979":5378,"hadem":5379,"ĠLanguage":5380,"Ġkajia":5381,"ĠMrs":5382,"ĠLaiphew":5383,"ĠKomentari":5384,"Ġthorn":5385,"ĠTyrsim":5386,"Ġkalandar":5387,"stitution":5388,"Ġrmiang":5389,"Ġumphniang":5390,"ĠCitizen":5391,"Uba":5392,"bd":5393,"ke":5394,"ky":5395,"nap":5396,"rst":5397,"tel":5398,"tynnad":5399,"wd":5400,"Ġ_":5401,"Ġie":5402,"ngaw":5403,"Ġbathiang":5404,"hajar":5405,"Ġsing":5406,"Ġpyngkiang":5407,"ynsaw":5408,"Ġdt":5409,"Ġhata":5410,"Ġjingla":5411,"Ġjingshaniah":5412,"Ġruma":5413,"ĠSl":5414,"Ġkhep":5415,"Ġshyn":5416,"Ġshiah":5417,"Ġshynna":5418,"ĠNew":5419,"ĠMus":5420,"ĠLon":5421,"Ġwho":5422,"ĠIpa":5423,"ynroi":5424,"ĠDaw":5425,"ĠDin":5426,"ĠRupa":5427,"aloni":5428,"ihg":5429,"kher":5430,"Ġkynih":5431,"ylliang":5432,"ida":5433,"Ġiohthiah":5434,"ĠKhara":5435,"Ġphreis":5436,"phy":5437,"Ġ300":5438,"Ġarti":5439,"Ġjingiathuhlypa":5440,"Ġout":5441,"ĠShwa":5442,"Ġksaid":5443,"Ġlyngngai":5444,"Ġpynsuk":5445,"Ġ95":5446,"Ġ109":5447,"Ġjingpynpaw":5448,"Ġktik":5449,"ĠSohpet":5450,"thai":5451,"Ġkyllain":5452,"Ġjingdawa":5453,"Ġktem":5454,"janai":5455,"Ġpynbynta":5456,"borne":5457,"Ġpyniabynta":5458,"Ġproh":5459,"ĠStep":5460,"Ġeks":5461,"Ġadj":5462,"ĠKHR":5463,"ĠWahlang":5464,"Ġmama":5465,"ourse":5466,"Ġleft":5467,"Ġoga":5468,"Ġpynphriang":5469,"ĠJingpynpaw":5470,"ĠHosia":5471,"ĠSHIT":5472,"ĠNongpynim":5473,"ĠSainsimai":5474,"ĠUmsohsun":5475,"Ġmuluk":5476,"ĠFirst":5477,"ĠNovember":5478,"Ban":5479,"Lei":5480,"Sa":5481,"dom":5482,"fit":5483,"gut":5484,"hei":5485,"lm":5486,"out":5487,"ough":5488,"pyll":5489,"sc":5490,"sbar":5491,"trai":5492,"ngiam":5493,"basi":5494,"Ġsta":5495,"Ġjyntang":5496,"Ġpng":5497,"Ġiasoh":5498,"Ġnyn":5499,"Ġtd":5500,"Ġtyl":5501,"Ġtynnat":5502,"Ġtlot":5503,"Ġhaw":5504,"Ġbesli":5505,"ohnguh":5506,"Ġjingbun":5507,"Ġjingangnud":5508,"Ġrom":5509,"Ġrap":5510,"Ġrympei":5511,"Ġrishot":5512,"ator":5513,"Ġir":5514,"Ġshrieh":5515,"Ġpynlah":5516,"ĠHind":5517,"ĠJyr":5518,"ĠJah":5519,"Ġ119":5520,"ĠLONG":5521,"ĠLister":5522,"ĠTer":5523,"ism":5524,"ĠDi":5525,"ĠDak":5526,"Ġhynt":5527,"ĠRukom":5528,"Ġnongri":5529,"yndit":5530,"sher":5531,"ĠKhynnah":5532,"wab":5533,"ĠJingp":5534,"ĠJingstad":5535,"Ġklim":5536,"ĠShatei":5537,"ebon":5538,"ĠVP":5539,"Ġriewngeit":5540,"Ġkticn":5541,"ĠPaham":5542,"ĠLyngdob":5543,"ĠBank":5544,"ower":5545,"ĠPyrthew":5546,"Ġkpep":5547,"Ġpyniasoh":5548,"ĠTheology":5549,"ĠLumlang":5550,"Ġyear":5551,"Ġknup":5552,"ruary":5553,"Ġpoem":5554,"ĠDiengiei":5555,"ĠKHU":5556,"ĠAmer":5557,"ĠKsew":5558,"Ġkhyllie":5559,"Ġkynjoh":5560,"ological":5561,"ĠJanuary":5562,"ĠRymbai":5563,"ĠPurimai":5564,"ĠBangla":5565,"ĠKhanatang":5566,"lished":5567,"Ġshikatdei":5568,"ĠKopsop":5569,"62":5570,"Ah":5571,"Ci":5572,"Kol":5573,"ao":5574,"kun":5575,"ked":5576,"nad":5577,"snem":5578,"wn":5579,"wal":5580,"Ġkre":5581,"Ġkner":5582,"ngar":5583,"Ġslia":5584,"Ġjyng":5585,"Ġpbai":5586,"ynjuh":5587,"Ġiatbuh":5588,"Ġdus":5589,"Ġnor":5590,"Ġtiak":5591,"ings":5592,"aii":5593,"Ġbuj":5594,"Ġrum":5595,"Ġmyll":5596,"Ġmiat":5597,"Ġio":5598,"ĠBTAP":5599,"Ġpynneh":5600,"Ġshaid":5601,"Ġshajrong":5602,"ĠNia":5603,"ĠNon":5604,"ĠNad":5605,"ĠNihon":5606,"ĠTbam":5607,"Ġwoh":5608,"ute":5609,"ĠAmen":5610,"Ġmynnor":5611,"Ġnangiaid":5612,"ĠâĢĺ^":5613,"Ġphalang":5614,"Ġjingialang":5615,"Ġjingpeit":5616,"olar":5617,"Ġkseh":5618,"Ġksiah":5619,"Ġcla":5620,"Ġsni":5621,"Ġsbim":5622,"Ġ81":5623,"brieu":5624,"Ġpage":5625,"Ġryngkang":5626,"pohliew":5627,"reat":5628,"Ġvi":5629,"ordit":5630,"Ġgo":5631,"Ġpynriewspah":5632,"oberb":5633,"ĠChurch":5634,"IANG":5635,"LAW":5636,"Ġsabut":5637,"Ġpynheh":5638,"ĠSyicm":5639,"ĠKbrist":5640,"Ġ1908":5641,"Ġpynthut":5642,"Ġ1983":5643,"Ġnongtuh":5644,"astieh":5645,"Ġhynrci":5646,"ght":5647,"ĠPhilipi":5648,"kawei":5649,"ĠAntiok":5650,"ulture":5651,"ĠNorth":5652,"ĠPresident":5653,"Ġpeople":5654,"ĠState":5655,"federacy":5656,"ĠRiakor":5657,"\",":5658,",.":5659,"81":5660,"CT":5661,"UK":5662,"Ua":5663,"ach":5664,"iot":5665,"jc":5666,"kal":5667,"ous":5668,"snam":5669,"skhem":5670,"wo":5671,"zar":5672,"Ġq":5673,"Ġord":5674,"Ġke":5675,"Ġkk":5676,"Ġkdang":5677,"Ġlon":5678,"Ġkijing":5679,"Ġser":5680,"Ġsma":5681,"Ġsyngkai":5682,"Ġsympat":5683,"Ġpot":5684,"Ġlalam":5685,"Ġlajong":5686,"Ġdkhiew":5687,"ĠKon":5688,"Ġtf":5689,"Ġton":5690,"Ġten":5691,"Ġtion":5692,"Ġmal":5693,"Ġkhrong":5694,"Ġjongki":5695,"Ġshyng":5696,"Ġshlan":5697,"Ġpynbun":5698,"Ġshapha":5699,"ĠHyndai":5700,"ĠNan":5701,"thied":5702,"ĠTI":5703,"ĠPor":5704,"Ġthere":5705,"Ġwang":5706,"Ġwin":5707,"yli":5708,"ĠIg":5709,"ombor":5710,"Ġsngeu":5711,"khreh":5712,"Ġkynjat":5713,"Ġnongbat":5714,"ĠAuthor":5715,"Ġneb":5716,"phor":5717,"iil":5718,"ĠEur":5719,"Ġmay":5720,"Ġmala":5721,"Ġfii":5722,"ĠShinam":5723,"Ġpoikha":5724,"barim":5725,"Ġco":5726,"Ġsnap":5727,"Ġsncm":5728,"Ġjingtb":5729,"Ġ82":5730,"Ġiapyr":5731,"Ġinto":5732,"ather":5733,"iapur":5734,"Ġpynpoi":5735,"istia":5736,"Ġktieo":5737,"Ġverb":5738,"Ġiakyn":5739,"Ġthir":5740,"ĠBasa":5741,"artment":5742,"Ġnongsiat":5743,"Ġkawci":5744,"Ġnongpynkylla":5745,"ĠKyrteng":5746,"Ġkulmar":5747,"ĠMihpli":5748,"Ġpasiaw":5749,"Ġbuaid":5750,"Ġbajrong":5751,"THOH":5752,"shonhi":5753,"ĠAgent":5754,"Ġsogi":5755,"ĠHamlet":5756,"Ġdulan":5757,"ĠDuncan":5758,"Ġpulit":5759,"ĠOndrom":5760,"ĠHaggai":5761,"69":5762,"91":5763,"Balei":5764,"EP":5765,"ING":5766,"KI":5767,"Pyr":5768,"Ynda":5769,"hiew":5770,"jab":5771,"kad":5772,"mei":5773,"muri":5774,"run":5775,"skum":5776,"tih":5777,"tep":5778,"win":5779,"basan":5780,"Ġbait":5781,"hal":5782,"Ġlot":5783,"Ġsiar":5784,"Ġjir":5785,"Ġpre":5786,"eign":5787,"Ġtak":5788,"Ġtdem":5789,"Ġbadub":5790,"Ġria":5791,"Ġrakot":5792,"Ġrasong":5793,"Ġmoh":5794,"Ġmait":5795,"ato":5796,"ĠUei":5797,"ĠSun":5798,"ĠSNG":5799,"Ġic":5800,"Ġkhud":5801,"Ġkhmied":5802,"Ġshuki":5803,"ĠKashari":5804,"ĠBe":5805,"Ġpynleh":5806,"Ġpynnoh":5807,"Ġshalan":5808,"Ġlongsem":5809,"ĠJal":5810,"ĠJymmang":5811,"Ġnad":5812,"erna":5813,"ĠTok":5814,"iton":5815,"eni":5816,"ĠPHA":5817,"Ġther":5818,"ĠIan":5819,"ynriah":5820,"shait":5821,"ĠAll":5822,"Ġpyrkhing":5823,"shun":5824,"Ġsngewdei":5825,"Ġkyrdoh":5826,"ĠWil":5827,"Ġlehrai":5828,"ĠLane":5829,"ĠCare":5830,"Ġ''":5831,"Ġmarch":5832,"Ġ96":5833,"kiei":5834,"Ġkbraw":5835,"Ġkbyndiat":5836,"Ġjingpynbeit":5837,"ĠMawphlang":5838,"shipara":5839,"Ġpaki":5840,"Ġbuddien":5841,"Ġ140":5842,"Ġvowel":5843,"ĠPyrkhat":5844,"Ġkyo":5845,"Ġplan":5846,"Ġingdong":5847,"Ġkynton":5848,"Ġlife":5849,"Ġfirst":5850,"Ġ1846":5851,"Ġdukan":5852,"Ġkaweh":5853,"Ġpyndonburom":5854,"Ġbarobor":5855,"Ġkyndeh":5856,"ĠCaes":5857,"Ġpukri":5858,"Ġlympat":5859,"Naba":5860,"fiiuh":5861,"May":5862,"Ġpyrthci":5863,"Ġdulir":5864,"ĠBirth":5865,"ymgam":5866,"ctive":5867,"ilgrim":5868,"ĠAmerica":5869,"300":5870,"Em":5871,"EIT":5872,"ID":5873,"Ja":5874,"Ju":5875,"Man":5876,"OK":5877,"SHA":5878,"duid":5879,"kynduh":5880,"ls":5881,"oah":5882,"puh":5883,"ple":5884,"tyng":5885,"uistics":5886,"ved":5887,"Ġ%":5888,"Ġbal":5889,"hati":5890,"Ġloit":5891,"Ġsyng":5892,"Ġutei":5893,"Ġjr":5894,"Ġpneh":5895,"Ġlaingut":5896,"Ġdit":5897,"Ġbil":5898,"Ġbyndi":5899,"Ġjingwad":5900,"Ġrhem":5901,"ĠUno":5902,"ĠSO":5903,"ĠSpah":5904,"ĠSyngkhong":5905,"Ġikt":5906,"ĠBoi":5907,"Ġdabor":5908,"ĠNine":5909,"ĠJab":5910,"ĠMoin":5911,"ĠTi":5912,"ĠTro":5913,"ited":5914,"Ġthie":5915,"Ġthym":5916,"ise":5917,"ĠIaw":5918,"Ġhei":5919,"ĠRiang":5920,"ĠAin":5921,"Ġpyrsad":5922,"ĠKhas":5923,"Ġsngewsynei":5924,"Ġphur":5925,"Ġphoi":5926,"day":5927,"ĠNongl":5928,"ĠNonghikai":5929,"Ġjingsy":5930,"ĠLab":5931,"Ġkhunswet":5932,"ase":5933,"ĠCl":5934,"yntngen":5935,"ĠHabakk":5936,"Ġ104":5937,"Ġsamoi":5938,"ley":5939,"stis":5940,"Ġshisba":5941,"ists":5942,"Ġ160":5943,"ĠPronoun":5944,"ĠPyrt":5945,"Ġiaineh":5946,"sawa":5947,"ĠNoah":5948,"Ġbaskhem":5949,"Ġphuhmat":5950,"Ġsynei":5951,"Ġkyrdem":5952,"Ġnongkit":5953,"Ġbeen":5954,"peni":5955,"Ġspong":5956,"Ġkhohwah":5957,"Ġkhohsiew":5958,"ĠPhilistia":5959,"Ġsotti":5960,"Ġmluh":5961,"ĠDepartment":5962,"Ġranab":5963,"ĠScot":5964,"ĠGalatia":5965,"ĠGreek":5966,"Ġshylliah":5967,"ĠJeebon":5968,"Josh":5969,"Ġlehnohei":5970,"Ġsuloi":5971,"ĠSHITHI":5972,"ĠHabakkuk":5973,",,":5974,"57":5975,"89":5976,"BR":5977,"IV":5978,"MEN":5979,"NA":5980,"bol":5981,"du":5982,"iim":5983,"jt":5984,"kd":5985,"land":5986,"mang":5987,"mah":5988,"qg":5989,"xx":5990,"yieng":5991,"Ġoi":5992,"Ġpen":5993,"Ġdoi":5994,"Ġny":5995,"ĠtJ":5996,"Ġhajuh":5997,"Ġbii":5998,"Ġbir":5999,"ĠjingY":6000,"Ġjingtar":6001,"arong":6002,"nep":6003,"ĠSup":6004,"ĠScene":6005,"ĠiQ":6006,"Ġil":6007,"ora":6008,"Ġjongu":6009,"Ġpynap":6010,"Ġpynwai":6011,"Ġpynshad":6012,"ĠHynr":6013,"Ġnaog":6014,"Ġnabar":6015,"ĠMed":6016,"ĠLe":6017,"ero":6018,"ĠTohi":6019,"ĠPah":6020,"Ġthylli":6021,"Ġwir":6022,"ylia":6023,"ĠDong":6024,"ĠDai":6025,"ĠDkhoh":6026,"ĠRop":6027,"khon":6028,"Ġkynthih":6029,"Ġnongrah":6030,"Ġmynsaw":6031,"ely":6032,"dak":6033,"ĠNongkha":6034,"ĠâĢĺ'":6035,"Ġjingsng":6036,"Ġjingshit":6037,"pas":6038,"Ġshongman":6039,"Ġshongkurim":6040,"Ġjingkordor":6041,"Ġjingkyntu":6042,"ĠEast":6043,"Ġjingpah":6044,"ĠJingkhawai":6045,"Ġfe":6046,"Ġfca":6047,"ded":6048,"Ġtara":6049,"oney":6050,"Ġ106":6051,"ĠMawmluh":6052,"brang":6053,"Ġjingjrong":6054,"Ġ113":6055,"Ġpynpait":6056,"Ġkylluid":6057,"Ġlute":6058,"Ġsanphew":6059,"thikna":6060,"sngewbha":6061,"Ġapot":6062,"ĠJeroboam":6063,"Ġjingbit":6064,"Ġsyep":6065,"bert":6066,"ĠSaei":6067,"ĠTheod":6068,"kynsew":6069,"Ġknieh":6070,"hadadar":6071,"Ġsaph":6072,"Ġpynsngewbha":6073,"ĠKhongdup":6074,"ĠHynfiiew":6075,"ĠNongialam":6076,"ĠWilliams":6077,"ĠPaitbah":6078,"ĠWahadadar":6079,"ĠLuhblei":6080,"ĠTomlin":6081,"illages":6082,"rynieng":6083,"Ġpyrdain":6084,"Ġkubur":6085,"ĠLondon":6086,"Ġeksamin":6087,"ĠHindu":6088,"ĠCarey":6089,"ĠCaesar":6090,")âĢĶ":6091,".**":6092,"Jain":6093,"Lyng":6094,"RAI":6095,"SS":6096,"Sc":6097,"bed":6098,"ffi":6099,"hukum":6100,"ili":6101,"kroh":6102,"tet":6103,"ted":6104,"uwei":6105,"Ġob":6106,"Ġkrad":6107,"Ġbaar":6108,"Ġbaiong":6109,"Ġbapdeng":6110,"Ġbashisha":6111,"Ġkib":6112,"Ġsylli":6113,"Ġsada":6114,"Ġung":6115,"Ġjoh":6116,"Ġjyntah":6117,"Ġpong":6118,"Ġpiam":6119,"Ġpbar":6120,"Ġialong":6121,"Ġduitara":6122,"ĠKli":6123,"Ġhana":6124,"ĠjingT":6125,"Ġjingud":6126,"taiew":6127,"Ġrng":6128,"Ġmb":6129,"Ġmor":6130,"Ġmer":6131,"nesis":6132,"ĠSum":6133,"ĠSynd":6134,"Ġngl":6135,"Ġkhrai":6136,"Ġkhwan":6137,"ĠBh":6138,"Ġlongdien":6139,"Ġlongkpa":6140,"ĠNiang":6141,"ĠTlang":6142,"ĠPart":6143,"ĠIll":6144,"adu":6145,"ĠDkhan":6146,"ĠRl":6147,"ĠRit":6148,"ĠRub":6149,"Ġnongleh":6150,"sic":6151,"ĠKhaai":6152,"Ġsngewhun":6153,"Ġthaih":6154,"Ġjingiam":6155,"Ġjingialap":6156,"Ġ'^":6157,"Ġcm":6158,"Ġlanguage":6159,"ikl":6160,"Ġpynsleh":6161,"Ġdiengsoh":6162,"ici":6163,"ict":6164,"190":6165,"ĠMajaw":6166,"ĠOli":6167,"Ġlaiong":6168,"Ġshityllup":6169,"Ġ128":6170,"ĠPage":6171,"Ġ!âĢĿ":6172,"Ġ117":6173,"Ġiarwai":6174,"fliew":6175,"Ġkpong":6176,"Ġtyrsim":6177,"ĠPhadar":6178,"Ġnongpeit":6179,"manuel":6180,"Ġreg":6181,"Ġhynfiiew":6182,"ĠArbnai":6183,"Ġsynjuk":6184,"ĠPharshi":6185,"ĠRamhah":6186,"Ġany":6187,"1973":6188,"Ġkme":6189,"ĠAdv":6190,"Ġmyntri":6191,"ĠLaiseng":6192,"Ġtyllai":6193,"slation":6194,"Ġiabeh":6195,"ĠScience":6196,"ĠSobjekt":6197,"olik":6198,"ĠRymphang":6199,"Ġsmew":6200,"ĠKarew":6201,"Ġibh":6202,"ĠThangkhiew":6203,"ĠCosta":6204,"ĠNahum":6205,"Ġiktiar":6206,"*^":6207,"92":6208,"Job":6209,"Syiem":6210,"Wa":6211,"YLL":6212,"din":6213,"hong":6214,"ium":6215,"jok":6216,"jig":6217,"kes":6218,"kjat":6219,"lf":6220,"namar":6221,"rr":6222,"sp":6223,"sei":6224,"sin":6225,"sbi":6226,"wel":6227,"yse":6228,"Ġknow":6229,"Ġkaoe":6230,"Ġbao":6231,"Ġbalor":6232,"Ġbathymmai":6233,"Ġlupa":6234,"Ġkioe":6235,"Ġsch":6236,"Ġjap":6237,"Ġpnah":6238,"Ġiatip":6239,"Ġdier":6240,"ĠKath":6241,"Ġbod":6242,"ĠSu":6243,"ĠSid":6244,"ĠBei":6245,"Ġpynbaptis":6246,"Ġsharum":6247,"yrkhei":6248,"ĠNab":6249,"ĠJor":6250,"ĠJaid":6251,"lakhai":6252,"thu":6253,"thod":6254,"ĠMiaw":6255,"ĠLok":6256,"ĠPH":6257,"ĠPbar":6258,"ymb":6259,"isoh":6260,"ĠIta":6261,"Ġshirta":6262,"Ġkynda":6263,"aitung":6264,"Ġphikir":6265,"Ġpyrthat":6266,"Ġaibor":6267,"ĠNgap":6268,"ĠNongkseh":6269,"ric":6270,"ogew":6271,"ĠYohi":6272,"Ġjingput":6273,"Ġour":6274,"ĠGil":6275,"ĠShynna":6276,"Ġtod":6277,"Ġjingtei":6278,"Ġ84":6279,"Ġ85":6280,"Ġpynksan":6281,"Ġ94":6282,"ĠMarwei":6283,"Ġriewkhuid":6284,"Ġ124":6285,"Ġkynrum":6286,"Ġiasaid":6287,"Ġjingthew":6288,"Ġnongialap":6289,"Ġjaih":6290,"diih":6291,"ĠLaitkynsew":6292,"Ġpoet":6293,"ĠKHLAW":6294,"ĠAiom":6295,"Ġbseih":6296,"Ġkynjai":6297,"Ġkynjri":6298,"Jingkh":6299,"Ġtime":6300,"Ġbtin":6301,"ĠKolos":6302,"Ġkeifl":6303,"Ġkiwci":6304,"Ġsoem":6305,"IST":6306,"Mark":6307,"ĠAlex":6308,"ĠGovernor":6309,"Ġtmang":6310,"nessar":6311,"ĠGiri":6312,"Ġiasngewthuh":6313,"ĠThessaloni":6314,"ĠHeadm":6315,"Ġnongmihkhmat":6316,"ĠIbid":6317,"ĠRodborne":6318,"ĠUpper":6319,"ĠEurope":6320,"ĠMoina":6321,",\"":6322,"67":6323,"Jen":6324,"Jirang":6325,"brai":6326,"bnew":6327,"eog":6328,"jo":6329,"joh":6330,"lon":6331,"los":6332,"put":6333,"ryngk":6334,"ration":6335,"said":6336,"tiapur":6337,"va":6338,"well":6339,"yt":6340,"Ġyr":6341,"baw":6342,"haba":6343,"Ġlyntang":6344,"ialeh":6345,"Ġstang":6346,"Ġsfa":6347,"Ġutai":6348,"Ġjang":6349,"Ġjyndem":6350,"Ġjymgam":6351,"ynti":6352,"Ġiaei":6353,"Ġiaieit":6354,"Ġiaiaid":6355,"Ġdoo":6356,"ĠKJ":6357,"ĠKren":6358,"ĠKup":6359,"ĠKpu":6360,"Ġnur":6361,"Ġtyngkong":6362,"Ġhabud":6363,"Ġbom":6364,"Ġbuk":6365,"Ġjingiwbih":6366,"ĠSnem":6367,"ony":6368,"ana":6369,"anda":6370,"Ġsho":6371,"ĠBerb":6372,"ĠBLEI":6373,"Ġkaban":6374,"Ġnaphang":6375,"thob":6376,"ĠMis":6377,"ĠMid":6378,"ĠMYN":6379,"ĠLish":6380,"ĠTu":6381,"ĠPap":6382,"Ġdonbok":6383,"Ġthum":6384,"Ġthut":6385,"Ġshikyntien":6386,"ĠRakot":6387,"khl":6388,"Ġnongi":6389,"Ġnongmudui":6390,"ĠKhadar":6391,"ĠNongap":6392,"Ġkyrduh":6393,"Ġahi":6394,"Ġacc":6395,"Ġphawer":6396,"Ġshongshit":6397,"Ġhapob":6398,"yllaw":6399,"asar":6400,"ason":6401,"fiiang":6402,"Ġoe":6403,"ĠJings":6404,"ĠShisha":6405,"ĠRibaibal":6406,"Ġsahkut":6407,"Ġlyngkhot":6408,"Ġlyngwiar":6409,"ikna":6410,"Ġdiengduh":6411,"Ġjingtynjuh":6412,"Ġtari":6413,"Ġ91":6414,"Ġ93":6415,"ĠPhilem":6416,"Ġdekri":6417,"ishop":6418,"ĠProberb":6419,"Ġtyngab":6420,"Ġkhrum":6421,"Ġkhnangba":6422,"jective":6423,"sawphra":6424,"Ġtriem":6425,"Ġpansngiat":6426,"ĠBAM":6427,"ĠNongkit":6428,"ĠKynthei":6429,"Ġbangne":6430,"Ġspar":6431,"Phil":6432,".âĢĻ*":6433,"ĠAhom":6434,"ĠBunsien":6435,"ĠEdom":6436,"ĠKutshari":6437,"pdung":6438,"ĠSotti":6439,"Ġsakma":6440,"ĠPdia":6441,"ĠKyllalyngkot":6442,"Ġappeal":6443,"ĠChristian":6444,"Ġclause":6445,"ĠTheodore":6446,"Jaintia":6447,"ĠPhilemon":6448,")*":6449,"63":6450,"88":6451,"99":6452,"KHA":6453,"Nov":6454,"Un":6455,"YL":6456,"bo":6457,"byndi":6458,"donkam":6459,"fore":6460,"jl":6461,"jr":6462,"ker":6463,"kieh":6464,"krem":6465,"kyntang":6466,"mrad":6467,"pool":6468,"Ġeng":6469,"Ġlep":6470,"Ġlynt":6471,"Ġkiaw":6472,"iapher":6473,"Ġsut":6474,"Ġsynn":6475,"Ġsynrai":6476,"Ġjb":6477,"Ġpba":6478,"Ġpet":6479,"Ġpelt":6480,"Ġpcit":6481,"Ġden":6482,"Ġdiat":6483,"ief":6484,"iene":6485,"Ġnba":6486,"Ġnom":6487,"Ġhali":6488,"Ġhateng":6489,"Ġbthei":6490,"Ġbishni":6491,"taw":6492,"Ġrec":6493,"Ġmore":6494,"ĠSp":6495,"onath":6496,"Ġirat":6497,"Ġngiah":6498,"Ġjongphi":6499,"Ġpynit":6500,"yrnai":6501,"ĠNailar":6502,"Ġnaei":6503,"Ġnawei":6504,"emon":6505,"ĠMam":6506,"ĠMet":6507,"ĠLI":6508,"ĠLyngk":6509,"ĠLord":6510,"ĠLymp":6511,"ĠTong":6512,"ĠTynrai":6513,"itt":6514,"Ġwow":6515,"ĠIT":6516,"Ġshibnai":6517,"Ġhos":6518,"khiah":6519,"Ġkyndiang":6520,"ukhad":6521,"Ġnongshah":6522,"sharai":6523,"apher":6524,"ĠAt":6525,"udi":6526,"she":6527,"Ġsngewtbuh":6528,"ĠNonglait":6529,"ĠNongpeit":6530,"nabas":6531,"Ġlehrain":6532,"yllad":6533,"Ġjingiatip":6534,"toin":6535,"ĠJinglait":6536,"risi":6537,"Ġmihpat":6538,"Ġfing":6539,"ĠShiliang":6540,"ĠShathie":6541,"ĠShynr":6542,"Ġmark":6543,"Ġparom":6544,"Ġhangnc":6545,"Ġ^^":6546,"Ġ^âĢĺ":6547,"Ġcan":6548,"Ġsnier":6549,"Ġ92":6550,"Ġriewblei":6551,"Ġbaheh":6552,"kiwei":6553,"ĠMawsiang":6554,"ĠBars":6555,"ĠBarnabas":6556,"Ġkden":6557,"Ġ110":6558,"Ġsande":6559,"ĠProf":6560,"Ġpynkhiah":6561,"jek":6562,"Ġbikai":6563,"Ġjingkhuslai":6564,"Ġtrud":6565,"ĠTheological":6566,"Ġjingsheptieng":6567,"Ġpangnud":6568,"Ġrynsan":6569,"phabet":6570,"ĠRobert":6571,"ĠAnne":6572,"ĠCher":6573,"ĠMeikha":6574,"Ġjingkynthoh":6575,"Ġlyndang":6576,"Ġkawang":6577,"LANG":6578,"Ġlewduh":6579,"Ġnarud":6580,"pten":6581,"Ġxv":6582,"ĠKhongwir":6583,"Ġthapba":6584,"Ġsalt":6585,"Ġkfii":6586,"Ġ1981":6587,"Ġpynphong":6588,"ĠConfederacy":6589,"ĠMikah":6590,"ĠBethel":6591,"Ġlaisien":6592,"ĠNohprah":6593,"ĠBakra":6594,"ĠChina":6595,"Ġdusmon":6596,"ĠNinebe":6597,"59":6598,"77":6599,"78":6600,"AM":6601,"Don":6602,"EL":6603,"KYN":6604,"Mei":6605,"Mynta":6606,"^*":6607,"bin":6608,"fai":6609,"hg":6610,"hia":6611,"jngai":6612,"mt":6613,"mib":6614,"niap":6615,"pieng":6616,"pham":6617,"Ġes":6618,"bari":6619,"Ġswai":6620,"Ġsup":6621,"Ġsier":6622,"Ġua":6623,"Ġujuh":6624,"Ġjri":6625,"ĠKui":6626,"Ġnik":6627,"Ġtok":6628,"Ġboh":6629,"Ġjingartatien":6630,"Ġrus":6631,"Ġmian":6632,"ĠSong":6633,"ĠSpar":6634,"Ġngai":6635,"Ġjongka":6636,"Ġshlem":6637,"Ġshould":6638,"ĠBeh":6639,"Ġsham":6640,"Ġlongkmie":6641,"Ġkumjub":6642,"ĠThi":6643,"Ġwieh":6644,"ĠIw":6645,"ĠIoh":6646,"ĠDen":6647,"Ġhynnin":6648,"ĠRob":6649,"kho":6650,"khnam":6651,"Ġkynsai":6652,"ĠHap":6653,"kane":6654,"ulop":6655,"ĠAs":6656,"Ġmynbarim":6657,"âĢĻ;":6658,"udy":6659,"ĠKhlieh":6660,"Ġphone":6661,"phu":6662,"opg":6663,"ĠYathuh":6664,"Ġjingker":6665,"Ġ400":6666,"Ġmau":6667,"ĠJingthoh":6668,"Ġjaitby":6669,"Ġfliew":6670,"Ġklat":6671,"ĠShe":6672,"ĠShutia":6673,"ĠThlen":6674,"Ġbymhok":6675,"Ġche":6676,"edic":6677,"Ġ83":6678,"ĠBale":6679,"Ġriewhadem":6680,"Ġ105":6681,"Ġkbyndew":6682,"strak":6683,"Ġpashat":6684,"Ġ112":6685,"ĠKatkum":6686,"cture":6687,"ĠPryse":6688,"Ġiaryngkat":6689,"Ġ141":6690,"Ġpynbor":6691,"Ġbakut":6692,"Ġkhriang":6693,"Ġiakut":6694,"Ġthiiew":6695,"Ġraiot":6696,"ĠMynth":6697,"berb":6698,"ksiar":6699,"osophy":6700,"verpool":6701,"Ġ1841":6702,"Ġ1849":6703,"ĠKano":6704,"Ġjemnud":6705,"ĠBilad":6706,"Ġpynsngewthuh":6707,"ĠKitei":6708,"1967":6709,"Ġamgut":6710,"Ġpynshoi":6711,"Ġtyllep":6712,"ious":6713,"ĠSephana":6714,"Ġiabud":6715,"ĠTamor":6716,"pdeh":6717,"ĠReade":6718,"ĠAleks":6719,"ĠLatin":6720,"1982":6721,"Ġshilynter":6722,"ĠMawsynram":6723,"Ġdngiem":6724,"ĠKhyrim":6725,"Ġkyrsoi":6726,"Ġshorn":6727,"ĠReport":6728,"ĠBIci":6729,"ĠRungu":6730,"ĠJitlakhai":6731,"irector":6732,"Ġbynnud":6733,"ĠNebukhad":6734,"64":6735,"De":6736,"IH":6737,"Jones":6738,"Mr":6739,"Ne":6740,"Ning":6741,"ST":6742,"VI":6743,"WEI":6744,"few":6745,"gin":6746,"kok":6747,"kylli":6748,"kni":6749,"kular":6750,"lom":6751,"lpa":6752,"leb":6753,"ms":6754,"que":6755,"rar":6756,"sieng":6757,"âĸł":6758,"Ġkg":6759,"ngin":6760,"Ġkap":6761,"Ġbakhat":6762,"Ġpbang":6763,"Ġpile":6764,"Ġialang":6765,"Ġdet":6766,"ĠKti":6767,"Ġnyngk":6768,"Ġtynr":6769,"Ġtulop":6770,"Ġbf":6771,"Ġrymm":6772,"Ġmastieh":6773,"Ġicw":6774,"anai":6775,"Ġkhung":6776,"Ġkheih":6777,"orah":6778,"ĠBel":6779,"Ġpynlang":6780,"ĠNur":6781,"ĠJA":6782,"ĠMali":6783,"ĠMiss":6784,"eri":6785,"ĠTb":6786,"ĠToi":6787,"ĠPAT":6788,"Ġthn":6789,"Ġthen":6790,"ĠIhuh":6791,"ĠDk":6792,"ĠDing":6793,"Ġhooid":6794,"khlem":6795,"inot":6796,"Ġbred":6797,"Ġuban":6798,"Ġpyrto":6799,"Ġhill":6800,"eleb":6801,"shynrang":6802,"ĠKhrang":6803,"Ġkhlcm":6804,"raid":6805,"ĠEvan":6806,"fig":6807,"mau":6808,"may":6809,"ĠJinghikai":6810,"ĠShis":6811,"ĠShukor":6812,"Ġlyngng":6813,"Ġdiengbah":6814,"icit":6815,"Ġ180":6816,"ĠVa":6817,"Ġinter":6818,"shisngi":6819,"Ġmawlynnai":6820,"Ġ114":6821,"ents":6822,"babel":6823,"ward":6824,"Ġpynbit":6825,"Ġpynkhlad":6826,"rangbiria":6827,"Ġpyniasuk":6828,"Ġpyniakhlad":6829,"ĠBAN":6830,"Ġsynrop":6831,"Ġjingkyrpad":6832,"Ġjinglehniam":6833,"ĠLaitum":6834,"ĠLaithat":6835,"Ġjinglut":6836,"Ġwaitlam":6837,"Ġ1931":6838,"Ġbabe":6839,"Ġdewlor":6840,"Ġniewkor":6841,"ĠGenesis":6842,"ĠSalin":6843,"ĠBatiton":6844,"ĠPankwah":6845,"Ġnongtem":6846,"ĠLiverpool":6847,"Ġpukir":6848,"ĠKompeni":6849,"ĠJenkin":6850,"Â®.":6851,"RANG":6852,"ĠJingiathuh":6853,"March":6854,"ĠForeign":6855,"Ġjingitynnad":6856,"ĠHughes":6857,"ĠMangring":6858,"Ġjingisynei":6859,"Ġnusib":6860,"Ġkyntoit":6861,"Ġmissionary":6862,"ĠDinonath":6863,"ĠHeadmaster":6864,"Hi":6865,"Jer":6866,"Leb":6867,"MM":6868,"Po":6869,"Ta":6870,"Ti":6871,"ata":6872,"fei":6873,"giene":6874,"heng":6875,"luh":6876,"lien":6877,"mo":6878,"mad":6879,"np":6880,"oth":6881,"ryng":6882,"res":6883,"ting":6884,"tew":6885,"tok":6886,"weng":6887,"zine":6888,"Â§":6889,"Ġkwab":6890,"Ġliter":6891,"Ġllaka":6892,"Ġkijong":6893,"Ġkibym":6894,"iathuh":6895,"Ġsna":6896,"Ġsmat":6897,"Ġsii":6898,"Ġus":6899,"Ġjf":6900,"Ġjyngk":6901,"Ġjlang":6902,"Ġpam":6903,"Ġpyng":6904,"Ġpuid":6905,"Ġpdang":6906,"Ġladei":6907,"Ġdat":6908,"Ġdoa":6909,"ĠKOT":6910,"Ġnn":6911,"Ġtuk":6912,"Ġtwo":6913,"neri":6914,"ĠUN":6915,"ĠUT":6916,"ĠUs":6917,"ĠSC":6918,"ĠSd":6919,"ĠSyntiew":6920,"Ġkhynnab":6921,"Ġshe":6922,"Ġshno":6923,"ĠBom":6924,"ĠBiang":6925,"ĠBap":6926,"Ġpynthikna":6927,"Ġshak":6928,"Ġshajan":6929,"ĠHu":6930,"Ġlongkur":6931,"ĠNaitung":6932,"ĠJU":6933,"ĠJmg":6934,"emak":6935,"ĠMills":6936,"ĠTai":6937,"ĠTuh":6938,"ĠTngaw":6939,"ĠPe":6940,"ĠPoitri":6941,"Ġword":6942,"ĠIh":6943,"ĠDirector":6944,"Ġhiang":6945,"Ġhoi":6946,"ĠRap":6947,"Ġkynhoi":6948,"Ġkynthah":6949,"Ġnongiap":6950,"Ġnongiarap":6951,"tib":6952,"ĠAes":6953,"Ġbarieh":6954,"Ġwanphai":6955,"Ġsngewthub":6956,"Ġsngewkmen":6957,"ĠNongai":6958,"Ġ*^":6959,"Ġjingkhih":6960,"Ġjingkulmar":6961,"Ġjingiatrei":6962,"ĠCent":6963,"Ġjaitbynr":6964,"ĠThma":6965,"Ġcol":6966,"Ġted":6967,"ĠBazar":6968,"Ġpynkoit":6969,"Ġpynkyllon":6970,"Ġsawphew":6971,"ĠMaka":6972,"ĠMaji":6973,"Ġ102":6974,"Ġ121":6975,"ĠLyngd":6976,"thap":6977,"ĠKato":6978,"Ġstait":6979,"jingmut":6980,"Ġ168":6981,"Ġpya":6982,"Ġtbeh":6983,"Ġsyrwet":6984,"Ġsyrpai":6985,"Ġnames":6986,"Ġtyrso":6987,"Ġiasyr":6988,"Ġmatti":6989,"Ġpro":6990,"Ġ***":6991,"Ġyo":6992,"Ġkynther":6993,"Ġdieog":6994,"Ġniuh":6995,"Ġ1840":6996,"Ġbyrngem":6997,"Ġpynmong":6998,"miner":6999,"Ġnongpyniaid":7000,"Ġjingialehkai":7001,"ĠGeography":7002,"Ġpynthiah":7003,"ĠWanswet":7004,"Ġtynjuh":7005,"ĠThohmut":7006,"Ġiateh":7007,"ĠWala":7008,"ĠHospital":7009,"Ġjynthung":7010,"kbana":7011,"ĠKhamtam":7012,"Ġkhlein":7013,"ĠMoab":7014,"Ġlasiat":7015,"issor":7016,"Ġshilliang":7017,"ĠRongbiria":7018,"eterminer":7019,"Ġbisbar":7020,"Ġawria":7021,"ĠBurma":7022,"ĠWeston":7023,"Ġhynthai":7024,"ĠOndromoney":7025,"ĠNebukhadnessar":7026,"Deut":7027,",'":7028,"Bab":7029,"Gal":7030,"Kha":7031,"Lamin":7032,"No":7033,"PYN":7034,"bem":7035,"bot":7036,"ces":7037,"dait":7038,"diaw":7039,"kynta":7040,"ln":7041,"lie":7042,"nk":7043,"ral":7044,"suh":7045,"sok":7046,"siat":7047,"tim":7048,"tynnat":7049,"vei":7050,"ngia":7051,"bada":7052,"Ġbale":7053,"Ġbajah":7054,"hab":7055,"Ġlup":7056,"Ġson":7057,"Ġsyl":7058,"Ġsoit":7059,"Ġut":7060,"Ġuwci":7061,"Ġjob":7062,"Ġjumai":7063,"Ġjihg":7064,"Ġpylla":7065,"Ġlalot":7066,"ynjur":7067,"Ġdc":7068,"ĠKR":7069,"iera":7070,"Ġtom":7071,"Ġtung":7072,"Ġtyndai":7073,"Ġtasam":7074,"Ġbec":7075,"Ġjingra":7076,"hiuh":7077,"tation":7078,"Ġrym":7079,"Ġmanga":7080,"ĠSak":7081,"Ġig":7082,"Ġngen":7083,"Ġkhus":7084,"Ġshngai":7085,"Ġpyneh":7086,"Ġdab":7087,"Ġshakhmat":7088,"ĠHai":7089,"ĠJuk":7090,"laog":7091,"ĠMoh":7092,"ĠMul":7093,"ĠMel":7094,"Ġthop":7095,"ising":7096,"ised":7097,"ĠIr":7098,"oti":7099,"otes":7100,"ĠDy":7101,"Ġhum":7102,"Ġkynh":7103,"Ġnongbikai":7104,"ĠAP":7105,"Ġmynne":7106,"âĢĻ'":7107,"shut":7108,"shet":7109,"ĠKhlaw":7110,"Ġphia":7111,"Ġphud":7112,"Ġkyrtong":7113,"ĠCourse":7114,"Ġkhambha":7115,"Ġjingpy":7116,"Ġmata":7117,"Ġother":7118,"ĠGau":7119,"ĠJingsuk":7120,"risa":7121,"Ġfew":7122,"rein":7123,"deog":7124,"ĠThied":7125,"mier":7126,"Ġpynsab":7127,"Ġmanang":7128,"Kaba":7129,"Ġpynkynriah":7130,"Ġsawngut":7131,"Ġ103":7132,"ĠMawp":7133,"ĠMawlai":7134,"ship":7135,"jakhlia":7136,"oduc":7137,"lamphrang":7138,"Ġkurn":7139,"Ġ135":7140,"Ġkynran":7141,"ĠJerkha":7142,"flia":7143,"Ġlohsngew":7144,"Ġkbana":7145,"Ġthit":7146,"Ġplied":7147,"ĠPharisi":7148,"Ġprah":7149,"Ġjingkhuid":7150,"Ġnongialeh":7151,"Ġtriang":7152,"Ġrongbiria":7153,"Ġread":7154,"Ġ260":7155,"ations":7156,"ĠKynmaw":7157,"Ġangel":7158,"Ġnongsngap":7159,"Ġjingmaian":7160,"Ġkawd":7161,"Ġ1977":7162,"ivil":7163,"Ġâĺ":7164,"sngcw":7165,"Ġluta":7166,"Ġ1897":7167,"yngnger":7168,"ĠAgrip":7169,"ĠSecond":7170,"surthiang":7171,"Ġcomp":7172,"Ġsyntiat":7173,"ĠCharles":7174,"ĠSangot":7175,"ĠDunbar":7176,"Ġshyllang":7177,"Ġsharud":7178,"ĠDeut":7179,"ative":7180,"ĠNatsurthiang":7181,"tynjang":7182,"ĠMalakhi":7183,"ĠFebruary":7184,"ĠBoira":7185,"ĠSynduk":7186,"ĠSidney":7187,"Ġhospital":7188,"*-":7189,"76":7190,"90":7191,"Ad":7192,"BOR":7193,"ET":7194,"Hang":7195,"Jon":7196,"Lang":7197,"Tang":7198,"WA":7199,"bna":7200,"blai":7201,"fn":7202,"fti":7203,"fid":7204,"hna":7205,"pdiang":7206,"riam":7207,"tu":7208,"Ġ00":7209,"Ġqu":7210,"Ġkv":7211,"Ġkon":7212,"ngu":7213,"ngot":7214,"Ġll":7215,"Ġlik":7216,"Ġjt":7217,"Ġprong":7218,"Ġdken":7219,"ĠKristan":7220,"Ġnt":7221,"Ġniar":7222,"Ġhala":7223,"Ġbadum":7224,"Ġbadno":7225,"Ġbaduk":7226,"Ġbeih":7227,"Ġjingman":7228,"Ġjingriew":7229,"Ġmil":7230,"Ġmuij":7231,"Ġibha":7232,"Ġkhem":7233,"Ġshri":7234,"Ġshop":7235,"Ġshriew":7236,"ame":7237,"ĠBiria":7238,"Ġpynwit":7239,"ĠNik":7240,"ĠNow":7241,"ĠJl":7242,"ĠMA":7243,"ĠMil":7244,"ĠTew":7245,"ĠTad":7246,"ĠThad":7247,"ĠTathuh":7248,"ĠPP":7249,"ĠPoi":7250,"ient":7251,"ynrih":7252,"khur":7253,"Ġkhait":7254,"sib":7255,"tii":7256,"Ġbrai":7257,"ĠACT":7258,"yndaw":7259,"ele":7260,"shkor":7261,"Ġsngewphylla":7262,"ĠKhyll":7263,"Ġkyrte":7264,"phieng":7265,"Ġricw":7266,"Ġumpohliew":7267,"Ġjingiasoh":7268,"ĠCeleb":7269,"ĠKumbur":7270,"Ġpyndam":7271,"ĠShapha":7272,"ĠShen":7273,"Ġksaw":7274,"Ġlynga":7275,"ĠBakh":7276,"say":7277,"ĠVic":7278,"ĠObada":7279,"Ġskong":7280,"Ġmawkordor":7281,"ĠPak":7282,"Ġryngkoh":7283,"tham":7284,"ĠKatei":7285,"agog":7286,"Ġlyog":7287,"Ġpyom":7288,"Ġktiea":7289,"bieij":7290,"Ġshynriah":7291,"tbit":7292,"Ġge":7293,"III":7294,"Ġjingkhia":7295,"ksuid":7296,"Ġkynting":7297,"Ġpynrit":7298,"ĠSamson":7299,"Ġbasuk":7300,"Ġsynrang":7301,"ĠJoel":7302,"ĠAron":7303,"Ġadv":7304,"Ġpuron":7305,"ĠLongshuwa":7306,"Ġrangli":7307,"ĠWarjri":7308,"Ġbapob":7309,"verb":7310,"kbot":7311,"Ġdewlynnong":7312,"ĠLamet":7313,"ĠNongsynshar":7314,"kles":7315,"Ġkulong":7316,"Ġkhongdong":7317,".*'":7318,".*âĢĻ":7319,"Ġramew":7320,"Ġramhah":7321,"Ġ1896":7322,"Ġtympan":7323,"Ġtynsat":7324,"ĠEmmanuel":7325,"Ġsuch":7326,"ĠLyog":7327,"ĠMailong":7328,"ĠDangsah":7329,"ight":7330,"skul":7331,"ĠSilas":7332,"Ġkarkhana":7333,"Ġiakhlad":7334,"Ġsyntu":7335,"mynsiem":7336,"ĠXXX":7337,"ĠTynger":7338,"ĠDuwan":7339,"esekaiah":7340,"ĠMinor":7341,"Ġrisai":7342,"ĠKhronikl":7343,"ĠTabemak":7344,"Ġwork":7345,"ĠKaisaria":7346,"ĠOffic":7347,"ĠMaphi":7348,"Ġsbisien":7349,"Ġnongtboh":7350,"Ġparabriew":7351,"kedonia":7352,"ĠTokin":7353,"ĠRopmay":7354,"ĠAlexander":7355,"ĠSephanaiah":7356,"ĠAesop":7357,"ĠTabemakl":7358,"/*":7359,"72":7360,"94":7361,"95":7362,"98":7363,"Dan":7364,"IR":7365,"MPH":7366,"Naduh":7367,"Phar":7368,"Wei":7369,"ane":7370,"bg":7371,"cular":7372,"dam":7373,"fm":7374,"jh":7375,"jit":7376,"loh":7377,"mong":7378,"nieh":7379,"pm":7380,"rung":7381,"sied":7382,"uog":7383,"vin":7384,"yiar":7385,"ypa":7386,"Â©":7387,"Ļ¦":7388,"Ġkaia":7389,"Ġkara":7390,"baog":7391,"bangeit":7392,"Ġbalieh":7393,"Ġbajur":7394,"hait":7395,"hajon":7396,"Ġler":7397,"Ġliam":7398,"Ġsti":7399,"Ġjlan":7400,"Ġjadu":7401,"Ġpers":7402,"yni":7403,"Ġiau":7404,"Ġiaph":7405,"Ġiawad":7406,"ĠKlas":7407,"Ġnng":7408,"Ġtduh":7409,"Ġhaog":7410,"aih":7411,"Ġbm":7412,"Ġbylla":7413,"Ġjinglah":7414,"Ġrkhiang":7415,"ĠSon":7416,"ĠSla":7417,"ĠSuki":7418,"Ġiei":7419,"Ġiig":7420,"Ġkhhiang":7421,"orge":7422,"ĠBrut":7423,"Ġpynjanai":7424,"Ġshal":7425,"Ġshalor":7426,"Ġlongshwa":7427,"ĠJc":7428,"ĠJub":7429,"thmu":7430,"ĠMn":7431,"ĠLukhi":7432,"ĠTib":7433,"ĠTHA":7434,"ĠTuta":7435,"urn":7436,"ĠPR":7437,"ĠPoit":7438,"Ġthombor":7439,"Ġwell":7440,"ĠIwai":7441,"Ġshijur":7442,"ĠDuh":7443,"ĠDul":7444,"ĠDkhot":7445,"ĠDustur":7446,"Ġhus":7447,"ĠRim":7448,"khol":7449,"Ġkyndon":7450,"Ġnongseng":7451,"tik":7452,"ĠAf":7453,"ĠAram":7454,"âĢĿ;":7455,"Ġsngewlem":7456,"ipal":7457,"Ġsaian":7458,"Ġjuban":7459,"ĠNongshong":7460,"Ġkyrwoh":7461,"ophi":7462,"Ġjingsah":7463,"Ġjingkynnoh":7464,"ĠEH":7465,"ĠKumari":7466,"Ġfr":7467,"ole":7468,"ĠTho":7469,"Ġpynsnoh":7470,"Ġjingtoh":7471,"Ġjingtboh":7472,"Ġbamja":7473,"Ġsbon":7474,"Ġpynkyr":7475,"Ġpynkmen":7476,"Ġiapom":7477,"ĠVi":7478,"ĠOne":7479,"stem":7480,"rek":7481,"Ġpynpyrkhat":7482,"Ġstew":7483,"Ġstru":7484,"Ġpyt":7485,"Ġapp":7486,"Ġkynriang":7487,"Ġ170":7488,"Ġpaidbab":7489,"Ġiasam":7490,"Ġtymmenbasan":7491,"khih":7492,"rough":7493,"Ġpynjem":7494,"ĠIndian":7495,"Ġjingkyrduh":7496,"ĠPharoah":7497,"Ġpynlait":7498,"ieid":7499,"ĠJudas":7500,"ock":7501,"ĠAnton":7502,"Ġ1847":7503,"Ġnongsumar":7504,"ĠJaintiapur":7505,"Ġbseifi":7506,"IAM":7507,"Ġ1936":7508,"Ġbabeit":7509,"Ġksaih":7510,"Ġsaindur":7511,"ĠSyiar":7512,"Nongbishar":7513,"Ġkynjang":7514,"Ġogam":7515,"Ġsiewspah":7516,"Ġbuhai":7517,"Ġthuhlypa":7518,"Ġ1966":7519,"Ġtylliat":7520,"Ġpukni":7521,"ĠHostel":7522,"pany":7523,"Kumta":7524,"Ġ79300":7525,"ĠHarry":7526,"Ġhyorei":7527,"ĠBooks":7528,"Ġnongkhrong":7529,"ĠMawsmai":7530,"ĠKhnst":7531,"Ġkhlaih":7532,"ĠPadsha":7533,"ĠFrank":7534,"ĠThawlang":7535,"Ġnongkhaii":7536,"Ġmynsicm":7537,"Ġtranslation":7538,"Ġkolej":7539,"Ġbujli":7540,"June":7541,"Ġbilor":7542,"Ġtarajur":7543,"ĠMynthna":7544,"Ġhills":7545,"ĠGauhati":7546,"ĠAgrippa":7547,"ĠBoiragi":7548,"71":7549,"Hei":7550,"Kam":7551,"Noh":7552,"POH":7553,"af":7554,"cd":7555,"cmg":7556,"ful":7557,"gr":7558,"jain":7559,"lun":7560,"lli":7561,"riah":7562,"sr":7563,"sbai":7564,"vt":7565,"vai":7566,"yg":7567,"yon":7568,"Ġkw":7569,"Ġkrang":7570,"Ġkft":7571,"Ġbakha":7572,"Ġbakordor":7573,"Ġlynn":7574,"Ġsc":7575,"Ġsew":7576,"Ġsun":7577,"Ġsyllok":7578,"Ġjuti":7579,"Ġiang":7580,"Ġiashim":7581,"Ġdia":7582,"Ġdain":7583,"ĠKni":7584,"iev":7585,"Ġtain":7586,"Ġbiar":7587,"Ġbiej":7588,"Ġrup":7589,"Ġmied":7590,"atn":7591,"ĠSw":7592,"ĠSap":7593,"Ġibit":7594,"Ġshot":7595,"Ġshngain":7596,"Ġshngiam":7597,"ĠBuit":7598,"ĠBishar":7599,"ĠBishop":7600,"ĠHong":7601,"ĠHesekaiah":7602,"yrtap":7603,"yrpad":7604,"Ġlongpun":7605,"ĠJes":7606,"Ġnajrong":7607,"thli":7608,"thyndaw":7609,"ĠMir":7610,"ĠTyngnger":7611,"Ġthnam":7612,"Ġthese":7613,"Ġwet":7614,"ade":7615,"Ġhuh":7616,"Ġkynsh":7617,"Ġkynshi":7618,"Ġkyntb":7619,"Ġkharai":7620,"Ġphirat":7621,"ĠAct":7622,"Ġtangnah":7623,"Ġaid":7624,"shuh":7625,"Ġsngewsarong":7626,"rith":7627,"ogy":7628,"ĠWeb":7629,"Ġjingspel":7630,"ĠEkles":7631,"asa":7632,"ĠGa":7633,"ĠJingshisha":7634,"Ġtipbriew":7635,"irn":7636,"Ġfci":7637,"able":7638,"ĠShakri":7639,"ĠShynrang":7640,"Ġksih":7641,"Ġpart":7642,"Ġparum":7643,"Ġciei":7644,"ĠBaal":7645,"Kata":7646,"thab":7647,"Ġ115":7648,"lement":7649,"Ġniamra":7650,"Ġjingdih":7651,"Ġ138":7652,"Ġwahduid":7653,"Ġvillages":7654,"Ġjingsngewrit":7655,"ever":7656,"Ġsyrdoh":7657,"Ġiasyriem":7658,"Ġprat":7659,"Ġprew":7660,"Ġbiiew":7661,"ection":7662,"araar":7663,"Ġkhmihlynti":7664,"Ġjingshoh":7665,"kynmaw":7666,"Ġsangsot":7667,"Ġadberb":7668,"Ġknot":7669,"Ġsynsbar":7670,"ĠLaitkroh":7671,"Ġialehkai":7672,"ieij":7673,"Ġbapaw":7674,"Ġanna":7675,"Ġjingmap":7676,"Ġahem":7677,"Ġjingkynshew":7678,"Ġkmic":7679,"ĠPhilosophy":7680,"Ġ1902":7681,"Ġ1903":7682,"Ġ1905":7683,"Ġjhoh":7684,"Nongkrem":7685,"ĠGeorge":7686,"Ġsalit":7687,"Ġdobnud":7688,"Ġ606":7689,"snge":7690,"ĠNGA":7691,"Ġtyllun":7692,"ĠSerub":7693,"Ġpdot":7694,"Ġdkoh":7695,"metic":7696,"Ġarsap":7697,"Kumno":7698,"Ġsdie":7699,"samla":7700,"1981":7701,"ĠPomreng":7702,"haract":7703,"ĠHygiene":7704,"ĠJangpuh":7705,"ĠBerry":7706,"Ġsuidtynjang":7707,"Ġjingisnei":7708,"Ġsyngkien":7709,"Ġpoiman":7710,"Ġartikl":7711,"ĠPahambir":7712,"Ġnikom":7713,"Ġcheque":7714,"ĠEvans":7715,"ĠWanswett":7716,"ĠAntony":7717,"'âĢĻ":7718,")^":7719,"-.":7720,"Kan":7721,"Kor":7722,"Men":7723,"ND":7724,"OI":7725,"OP":7726,"PA":7727,"WAI":7728,"aba":7729,"bng":7730,"braw":7731,"con":7732,"duk":7733,"fin":7734,"ffl":7735,"iit":7736,"iih":7737,"ikho":7738,"jap":7739,"jaid":7740,"jynjar":7741,"kynt":7742,"oud":7743,"rukom":7744,"seh":7745,"ser":7746,"sut":7747,"toi":7748,"xt":7749,"yc":7750,"Ġkbat":7751,"Ġbamut":7752,"Ġbatip":7753,"Ġbasngew":7754,"ĠlO":7755,"Ġlyr":7756,"Ġliew":7757,"iaka":7758,"ialap":7759,"iastis":7760,"Ġsieng":7761,"Ġstat":7762,"Ġpri":7763,"Ġpdem":7764,"Ġlal":7765,"Ġiait":7766,"Ġiabuh":7767,"Ġiashad":7768,"Ġtu":7769,"Ġtli":7770,"Ġtup":7771,"Ġtrad":7772,"Ġhain":7773,"hii":7774,"Ġrob":7775,"Ġmeh":7776,"Ġmill":7777,"ĠSymp":7778,"Ġij":7779,"Ġkhynn":7780,"Ġshoog":7781,"Ġshrah":7782,"Ġshuti":7783,"Ġ(^":7784,"ĠBlang":7785,"ĠpynY":7786,"ĠHum":7787,"ĠHep":7788,"Ġlongp":7789,"thia":7790,"eme":7791,"ĠME":7792,"ĠMug":7793,"ĠLyngkot":7794,"endar":7795,"ĠPla":7796,"ĠPent":7797,"ĠPynter":7798,"Ġwab":7799,"Ġwak":7800,"ĠIC":7801,"ynriam":7802,"ĠDal":7803,"ĠDel":7804,"Ġhch":7805,"ĠRh":7806,"nol":7807,"Ġnongdie":7808,"Ġkhak":7809,"Ġ216":7810,"Ġ2000":7811,"ull":7812,"ulor":7813,"etn":7814,"ĠAni":7815,"Ġpyrt":7816,"ĠKhan":7817,"Ġtangmuri":7818,"Ġhit":7819,"shia":7820,"shlei":7821,"shyrkhei":7822,"ĠKhr":7823,"ĠKhein":7824,"Ġsatang":7825,"osition":7826,"rib":7827,"mation":7828,"Ġkhlir":7829,"ĠWor":7830,"ĠWad":7831,"Ġjingsiew":7832,"Ġjingsarong":7833,"Ġthaba":7834,"Ġjingkiew":7835,"ĠElaka":7836,"ĠCi":7837,"ĠCan":7838,"ĠCas":7839,"Ġkhambun":7840,"Ġjingpyllait":7841,"Ġoong":7842,"ĠGar":7843,"ĠJingkyr":7844,"Ġtipsngi":7845,"ĠShah":7846,"ĠShem":7847,"ĠRibok":7848,"Ġlynthem":7849,"Ġbymdon":7850,"ikor":7851,"Ġjingtngen":7852,"Ġsbynrang":7853,"ĠOn":7854,"Ġlingsyiem":7855,"ster":7856,"Ġ123":7857,"Ġ127":7858,"Ġpahai":7859,"Ġpajih":7860,"ymmiew":7861,"Ġjingjylliew":7862,"Ġjingjanai":7863,"ĠUmtong":7864,"ĠSingb":7865,"ĠMethod":7866,"Ġiarkhie":7867,"ndi":7868,"Ġvery":7869,"Ġkhlawait":7870,"ĠJerikho":7871,"own":7872,"Ġtaog":7873,"Ġpynkhein":7874,"Ġjiogmut":7875,"ĠTangba":7876,"Ġnongpang":7877,"Ġpyniadei":7878,"Kine":7879,"kara":7880,"Ġjail":7881,"Ġjaifl":7882,"Ġhiarthma":7883,"ĠSawthyndaw":7884,"Ġjari":7885,"ĠUnited":7886,"Ġadjektib":7887,"Ġkajingim":7888,"ĠNongkroh":7889,"Ġsynjat":7890,"Ġkroh":7891,"ĠLaitstep":7892,"Ġpynlyngkot":7893,"ĠJane":7894,"eace":7895,"phawar":7896,"Ġsymph":7897,"ĠChed":7898,"Ġ1845":7899,"Ġale":7900,"Ġartet":7901,"Ġarted":7902,"Ġ1930":7903,"Ġbabiang":7904,"Ġsuhsieng":7905,"Ġslew":7906,"ĠAdjektib":7907,"ĠKhongsit":7908,"Khie":7909,"Ġjliah":7910,"cript":7911,"ĠRaja":7912,"ĠNGI":7913,"ĠMorkha":7914,"Ġpynphuh":7915,"inted":7916,"ĠMairang":7917,"Ġkiwd":7918,"daija":7919,"ĠNailur":7920,"ĠNaiwieng":7921,"Ġtyrpait":7922,"ĠJapan":7923,"Ġpubon":7924,"Ġpublished":7925,"Ġpadiah":7926,"ĠShadap":7927,"Ġnongleitkurim":7928,"ĠMuong":7929,"ĠRadhon":7930,"Ekle":7931,"April":7932,"Ġjingiaroh":7933,"ĠAuthors":7934,"Ġjingtbob":7935,"ĠScott":7936,"ĠRubimai":7937,"ĠKatholik":7938,"ĠPbareng":7939,"Ġthapbalieh":7940,"ĠJenkins":7941,"ĠCelebration":7942,"ĠVictor":7943,"MPHRANG":7944,"ĠBrutus":7945,"Ġhusiar":7946,"Ġjingtohkit":7947,"--":7948,".:":7949,"65":7950,"Feb":7951,"Jan":7952,"MS":7953,"Oct":7954,"PHA":7955,"Riew":7956,"Si":7957,"TIEN":7958,"bh":7959,"biah":7960,"bod":7961,"cca":7962,"fo":7963,"kos":7964,"mynta":7965,"med":7966,"nih":7967,"po":7968,"ps":7969,"red":7970,"synshar":7971,"td":7972,"tit":7973,"ves":7974,"yor":7975,"Ġkc":7976,"Ġkvn":7977,"ngiem":7978,"Ġkain":7979,"Ġkada":7980,"Ġbath":7981,"hain":7982,"Ġslang":7983,"Ġsome":7984,"Ġspab":7985,"Ġpnat":7986,"Ġiathong":7987,"Ġdkhat":7988,"ĠKait":7989,"iep":7990,"Ġnu":7991,"Ġnem":7992,"Ġnier":7993,"Ġtik":7994,"Ġtngit":7995,"Ġbui":7996,"Ġjingbat":7997,"Ġrel":7998,"Ġrab":7999,"Ġmm":8000,"nel":8001,"ĠSj":8002,"ĠSna":8003,"ĠSil":8004,"ont":8005,"Ġica":8006,"Ġicng":8007,"Ġieid":8008,"Ġngm":8009,"Ġngt":8010,"Ġkhdn":8011,"Ġshla":8012,"Ġshut":8013,"ĠBet":8014,"ĠBlah":8015,"ĠpynT":8016,"Ġshall":8017,"Ġlongkha":8018,"ĠJop":8019,"ĠJlng":8020,"lada":8021,"then":8022,"ĠMiat":8023,"ĠLo":8024,"ĠLeit":8025,"ered":8026,"ĠThan":8027,"ĠTRAI":8028,"itn":8029,"itor":8030,"ency":8031,"ĠPi":8032,"ĠPu":8033,"ĠPuk":8034,"ĠPilgrim":8035,"Ġthiew":8036,"Ġwhat":8037,"Ġwhen":8038,"isb":8039,"ĠIk":8040,"ĠIl":8041,"ĠIing":8042,"ienshonhi":8043,"Ġshibynta":8044,"ĠDar":8045,"ĠDeng":8046,"ĠDIENG":8047,"oma":8048,"Ġhymmen":8049,"ĠRum":8050,"ĠRel":8051,"ale":8052,"khoi":8053,"Ġkyndang":8054,"Ġkhara":8055,"Ġkatn":8056,"kaei":8057,"ĠAk":8058,"ĠKhaw":8059,"shing":8060,"ĠKhla":8061,"ĠKhmer":8062,"Ġphiang":8063,"Ġak":8064,"oga":8065,"Ġphasi":8066,"ĠLaban":8067,"Ġjingkdew":8068,"iik":8069,"iiia":8070,"ĠEll":8071,"Ġhapd":8072,"iate":8073,"Ġmaj":8074,"rishna":8075,"irman":8076,"Ġfch":8077,"Ġ1910":8078,"ĠShaw":8079,"ĠShakes":8080,"Ġpynkyndit":8081,"Ġ1835":8082,"ĠMarban":8083,"ĠMakai":8084,"Ġjingpynmih":8085,"Ġjingpynjot":8086,"ĠMawbynna":8087,"ĠMawrie":8088,"Ġjinglongmraw":8089,"Ġkdiah":8090,"mawbah":8091,"ĠUmmat":8092,"Ġkyllan":8093,"Ġ162":8094,"Ġ143":8095,"evv":8096,"Ġpalei":8097,"Ġkhrew":8098,"Ngin":8099,"Ġsyier":8100,"Ġgreat":8101,"Ġbabang":8102,"ĠXL":8103,"YND":8104,"ĠPynhun":8105,"ĠBaible":8106,"Ġpynjaw":8107,"Ġyour":8108,"Ġjingshlei":8109,"kynti":8110,"Ġsepsngi":8111,"Ġ270":8112,"ield":8113,"ocal":8114,"Ġnongknia":8115,"Ġsymbol":8116,"lyngngem":8117,"Ġturn":8118,"IAH":8119,"ĠAbstrak":8120,"Ġdewmet":8121,"ĠNongstoin":8122,"ĠKbristan":8123,"Ġxi":8124,"ĠSyrngi":8125,"Ġ1891":8126,"ĠParad":8127,"ĠJosaiah":8128,"Kumba":8129,"sotti":8130,"ĠNongpynlong":8131,"Ġjingpyndep":8132,"ĠMinot":8133,"ĠBoas":8134,"ĠBoard":8135,"ĠKnii":8136,"ĠXIV":8137,"chari":8138,"ĠPublic":8139,"Ġpynkhamti":8140,"ĠKapkap":8141,"ĠLebi":8142,"ĠKhadduh":8143,"Ġsngeuthuh":8144,"ĠSNGI":8145,"ĠKolosai":8146,"ĠKupli":8147,"YLLA":8148,"ĠCherra":8149,"Ġbakhatduh":8150,"Ġlike":8151,"ĠShaphano":8152,"ĠObadaiah":8153,"ĠJangpuhding":8154,"*âĢĻ.":8155,"73":8156,"83":8157,"?.":8158,"Bi":8159,"Ch":8160,"Kot":8161,"LE":8162,"RI":8163,"Sl":8164,"Sad":8165,"Tong":8166,"WAR":8167,"cb":8168,"cs":8169,"dat":8170,"den":8171,"flang":8172,"got":8173,"kei":8174,"kait":8175,"lih":8176,"mur":8177,"map":8178,"osi":8179,"pit":8180,"rh":8181,"rhem":8182,"ryntieh":8183,"tle":8184,"xi":8185,"ĠkU":8186,"Ġball":8187,"Ġskai":8188,"Ġjym":8189,"Ġjub":8190,"Ġpain":8191,"Ġpoit":8192,"Ġpvr":8193,"Ġlate":8194,"Ġiala":8195,"Ġiais":8196,"Ġdn":8197,"Ġdkh":8198,"Ġdwai":8199,"Ġdiaw":8200,"Ġdkbot":8201,"ĠKun":8202,"ĠKok":8203,"ieog":8204,"Ġtia":8205,"Ġtla":8206,"Ġtiang":8207,"Ġtir":8208,"Ġtmier":8209,"Ġbd":8210,"Ġbel":8211,"Ġbed":8212,"Ġbyndai":8213,"Ġjingng":8214,"Ġjinghun":8215,"tak":8216,"Ġret":8217,"ĠSYN":8218,"ĠSkum":8219,"ona":8220,"Ġshei":8221,"lal":8222,"ĠMot":8223,"ĠMynn":8224,"ĠMod":8225,"ĠLieng":8226,"ĠLano":8227,"ĠTet":8228,"ĠPong":8229,"ĠPul":8230,"Ġwer":8231,"ĠDom":8232,"ĠRiah":8233,"ĠRus":8234,"ĠKino":8235,"aliar":8236,"ihuh":8237,"Ġpatsha":8238,"Ġnongm":8239,"yllai":8240,"yllun":8241,"ĠHaei":8242,"Ġkhala":8243,"Ġkhain":8244,"Ġkhalai":8245,"oikha":8246,"kajing":8247,"idi":8248,"Ġbrisoh":8249,"ĠAH":8250,"ĠAnai":8251,"ĠArab":8252,"Ġmynleh":8253,"ĠKhasia":8254,"ĠKhasl":8255,"yndah":8256,"âĢĻ^":8257,"ubon":8258,"ĠKhraw":8259,"ĠKhnam":8260,"ĠKhlur":8261,"Ġjubap":8262,"yngkang":8263,"oskular":8264,"obor":8265,"daog":8266,"ĠNongb":8267,"ĠNongpoh":8268,"ĠNonghukum":8269,"Ġkyrshut":8270,"phla":8271,"Ġnangroi":8272,"Ġkhlich":8273,"ĠWang":8274,"Ġthah":8275,"Ġjingky":8276,"ĠEk":8277,"Ġjingialong":8278,"Ġjingiakynduh":8279,"ĠCO":8280,"ĠCam":8281,"ĠClass":8282,"iamra":8283,"iamtra":8284,"Ġover":8285,"Ġfia":8286,"Ġfar":8287,"Ġfli":8288,"Ġ1928":8289,"Ġmardor":8290,"miej":8291,"Ġ^'":8292,"Ġpynsy":8293,"Ġpynslem":8294,"Ġsbur":8295,"Ġsbip":8296,"Ġsbib":8297,"ĠVerb":8298,"ĠMahad":8299,"ĠKABA":8300,"Ġkbynnab":8301,"Ġjingpynkut":8302,"Ġjingpynkhreh":8303,"ĠMawphu":8304,"lect":8305,"stra":8306,"Ġmawlong":8307,"Ġ125":8308,"brary":8309,"Ġparabangeit":8310,"uig":8311,"ĠSohrar":8312,"ynshai":8313,"Ġpynpra":8314,"ĠUmkieh":8315,"Ġyni":8316,"Ġ167":8317,"ĠPro":8318,"ĠPrinc":8319,"ĠFather":8320,"wards":8321,"Ġpawkhmat":8322,"Ġ132":8323,"sngewthuh":8324,"Ġvii":8325,"Ġkynroi":8326,"terian":8327,"laifi":8328,"Ġkyieng":8329,"Ġkpieng":8330,"Ġsyrti":8331,"Ġdujok":8332,"ĠThomasjones":8333,"Ġpyllup":8334,"Ġjmglong":8335,"Ġjmgmut":8336,"Ġtrait":8337,"ĠAssistan":8338,"Ġpanpoh":8339,"faa":8340,"ĠBaieit":8341,"Ġlymb":8342,"ĠPhet":8343,"ĠPhrun":8344,"Ġ280":8345,"ĠNongkynrih":8346,"Ġsynia":8347,"Ġkrih":8348,"Ġpynlyngngoh":8349,"Ġfiiang":8350,"ĠKynpham":8351,"Ġ290":8352,"Ġangi":8353,"kumba":8354,"ĠAiu":8355,"yila":8356,"Ġbsuh":8357,"Phim":8358,"Ġ1978":8359,"Ġkjap":8360,"ĠNongsaid":8361,"saida":8362,"Khubor":8363,"Ġjingriam":8364,"tnat":8365,"Ġjhep":8366,"ronath":8367,"Ġkhyrdep":8368,"Ġ1982":8369,"isteri":8370,"Ġdkbar":8371,"Ġway":8372,"ĠPrimary":8373,"Ġplace":8374,"Ġbynrieu":8375,"ĠLawbah":8376,"ulab":8377,"ĠDewsaw":8378,"Ġdngong":8379,"Ġnumber":8380,"formation":8381,"ference":8382,"ĠShyrten":8383,"ĠSeion":8384,"Ġbyllai":8385,"Ġhinrei":8386,"Ġsbitom":8387,"ĠLurshai":8388,"Ġjinglalot":8389,"Ġgood":8390,"ĠWilson":8391,"ĠJabieng":8392,"Babilon":8393,"sokpen":8394,"Ġstructure":8395,"rithmetic":8396,"ĠPentek":8397,"ĠSohrarim":8398,"ĠUmkiehun":8399,",-":8400,".;":8401,"/'":8402,"586":8403,"DUH":8404,"Ei":8405,"Hukum":8406,"Hato":8407,"In":8408,"Jong":8409,"Long":8410,"Oo":8411,"Peit":8412,"Rang":8413,"SL":8414,"TO":8415,"Ting":8416,"Ul":8417,"Uta":8418,"UNG":8419,"bt":8420,"bew":8421,"boi":8422,"cai":8423,"dng":8424,"dan":8425,"eo":8426,"eak":8427,"fS":8428,"gia":8429,"jd":8430,"kynr":8431,"kra":8432,"mot":8433,"nta":8434,"nal":8435,"nyngkong":8436,"rot":8437,"rih":8438,"sep":8439,"star":8440,"ux":8441,"||":8442,"ngur":8443,"ngiah":8444,"Ġkaha":8445,"Ġkashari":8446,"Ġkajaka":8447,"basa":8448,"Ġbais":8449,"Ġluk":8450,"Ġloi":8451,"Ġlog":8452,"Ġlynnai":8453,"Ġkilo":8454,"Ġsit":8455,"Ġstan":8456,"Ġsbab":8457,"Ġuw":8458,"Ġlakam":8459,"Ġlaki":8460,"Ġlatom":8461,"Ġiakha":8462,"Ġdes":8463,"ĠKS":8464,"ĠKe":8465,"ĠKj":8466,"ĠKlia":8467,"ĠKrist":8468,"Ġnth":8469,"Ġtait":8470,"Ġtda":8471,"Ġtram":8472,"Ġtwad":8473,"Ġtyndep":8474,"Ġhab":8475,"aios":8476,"Ġbta":8477,"Ġbla":8478,"Ġben":8479,"Ġbdn":8480,"Ġjinghi":8481,"Ġjingtap":8482,"Ġjinghap":8483,"tao":8484,"Ġrul":8485,"Ġriej":8486,"Ġrnai":8487,"Ġrnh":8488,"Ġrwiang":8489,"Ġmuid":8490,"Ġment":8491,"ĠUBA":8492,"ĠSA":8493,"ĠSI":8494,"Ġici":8495,"Ġiphieng":8496,"Ġkhnong":8497,"Ġsht":8498,"ĠKaper":8499,"Ġpynbang":8500,"Ġpynshah":8501,"Ġday":8502,"Ġshab":8503,"ĠHall":8504,"ĠNom":8505,"ĠNero":8506,"ĠJum":8507,"ĠJaw":8508,"ĠJylla":8509,"the":8510,"thep":8511,"thup":8512,"Ġkumtei":8513,"ewthuh":8514,"ĠLiter":8515,"ersion":8516,"uno":8517,"ĠTy":8518,"ĠPai":8519,"ĠPoh":8520,"ĠPang":8521,"ĠPilat":8522,"ĠPYR":8523,"Ġthy":8524,"Ġthyll":8525,"ision":8526,"ylU":8527,"ĠIbong":8528,"ĠDer":8529,"ĠDui":8530,"ĠRin":8531,"ĠRes":8532,"ĠRynn":8533,"ĠRil":8534,"ĠRAM":8535,"Ġsngaid":8536,"Ġpathaw":8537,"khyll":8538,"Ġkynum":8539,"Ġkynoi":8540,"Ġnongthaw":8541,"kaia":8542,"Ġbriw":8543,"Ġpyrem":8544,"elf":8545,"shoi":8546,"Ġsngewbba":8547,"Ġphreit":8548,"ĠNongp":8549,"Ġaah":8550,"Ġanem":8551,"phur":8552,"phnow":8553,"ogeit":8554,"Ġnangpyn":8555,"ĠWab":8556,"ĠWadar":8557,"Ġjingsuh":8558,"Ġjingsan":8559,"raifi":8560,"wain":8561,"Ġjingiai":8562,"Ġjingiaishah":8563,"tone":8564,"ĠSyiemlieh":8565,"Ġjingpan":8566,"Ġbhah":8567,"ĠoOo":8568,"ĠGer":8569,"ĠJingai":8570,"ĠJingsngew":8571,"Ġunc":8572,"Ġfit":8573,"ĠShit":8574,"ĠShapoh":8575,"ĠShy":8576,"Ġpareh":8577,"baroh":8578,"Ġcoun":8579,"Ġtoo":8580,"Ġpynsngap":8581,"Ġduriap":8582,"Ġsbisha":8583,"Ġ1850":8584,"ĠMag":8585,"ĠOF":8586,"ĠOH":8587,"Ġbahok":8588,"andria":8589,"ĠIdi":8590,"brip":8591,"Ġkdor":8592,"ietn":8593,"Ġjingjied":8594,"reement":8595,"Ġ166":8596,"age":8597,"batemon":8598,"Ġ142":8599,"Ġ148":8600,"Ġ136":8601,"ĠâĢ¢âĢ¢":8602,"Ġtyngam":8603,"Ġtyngkhap":8604,"Ġkynrong":8605,"Ġkyan":8606,"Ġtbymmai":8607,"Ġjingbeh":8608,"Ġjingbishni":8609,"ympang":8610,"Ġpluh":8611,"Ġiasuk":8612,"Ġjmgim":8613,"Ġmadei":8614,"Ġpres":8615,"Ġbiin":8616,"Ġjaipdeh":8617,"ĠSamu":8618,"ritik":8619,"ĠLummawbah":8620,"Ġringmraw":8621,"Ġline":8622,"Ġknor":8623,"ĠLongpun":8624,"Ġrangbab":8625,"**.":8626,"katta":8627,"ĠAifi":8628,"1976":8629,"1977":8630,"Ġalu":8631,"Ġpynmyntoi":8632,"Ġpynmynsaw":8633,"Ġahnong":8634,"Ġspeh":8635,"Ġjingphuh":8636,"ourth":8637,"ĠImlang":8638,"Ġdewiong":8639,"Ġ1904":8640,"ĠKhongdong":8641,"Ġkajih":8642,"ĠjoDg":8643,"crip":8644,"ĠNangno":8645,"hisba":8646,"ĠPanaliar":8647,"Ġnongtied":8648,"ĠAgency":8649,"ĠKhatsawphra":8650,"Ġmotor":8651,"Ġmotto":8652,"ĠLawei":8653,"mlien":8654,"Ġlarkam":8655,"ĠAntipas":8656,"kmei":8657,"Ġpyikhat":8658,"ultural":8659,"ĠMadan":8660,"ĠPerea":8661,"Ġsngeub":8662,"ĠNongshli":8663,"ĠLadew":8664,"Ġnusip":8665,"Katba":8666,"kulin":8667,"Ġjyndat":8668,"ĠKHUBOR":8669,"Pyrthei":8670,"ernacular":8671,"ĠNonglwai":8672,"ĠNongkharai":8673,"Ġjingiatiplem":8674,"ĠLaitumkhrah":8675,"Ġsylem":8676,"ĠDyko":8677,"Ġpynsabut":8678,"Ġkyrteog":8679,"ĠMughal":8680,"ĠEllen":8681,"ĠMarbaniang":8682,",^":8683,"58":8684,"Bah":8685,"Eh":8686,"He":8687,"LONG":8688,"NE":8689,"Une":8690,"av":8691,"akor":8692,"cep":8693,"dia":8694,"kain":8695,"ldi":8696,"mta":8697,"meng":8698,"oji":8699,"sein":8700,"skor":8701,"spong":8702,"spab":8703,"tiah":8704,"tlang":8705,"vat":8706,"Ġz":8707,"Ġent":8708,"Ġkram":8709,"ngor":8710,"ngab":8711,"Ġkabi":8712,"Ġbaiap":8713,"Ġbajar":8714,"Ġkir":8715,"Ġui":8716,"Ġjew":8717,"Ġjoi":8718,"Ġjoiig":8719,"Ġpih":8720,"Ġpeij":8721,"Ġlaei":8722,"yna":8723,"Ġian":8724,"Ġiash":8725,"Ġdok":8726,"Ġdkhoh":8727,"Ġdown":8728,"ĠKshaid":8729,"Ġnaraar":8730,"Ġtie":8731,"Ġtit":8732,"Ġrh":8733,"Ġrak":8734,"Ġrieu":8735,"arn":8736,"Ġmust":8737,"angeh":8738,"ĠUeh":8739,"ĠSY":8740,"ĠSat":8741,"Ġich":8742,"Ġill":8743,"Ġicit":8744,"Ġieij":8745,"Ġilng":8746,"antic":8747,"Ġngon":8748,"Ġkhw":8749,"Ġkhiem":8750,"Ġshcm":8751,"ĠKapten":8752,"ami":8753,"ĠBot":8754,"ĠBronath":8755,"Ġpynbam":8756,"Ġpynbakla":8757,"Ġdays":8758,"Ġshato":8759,"Ġshabi":8760,"ĠHis":8761,"ĠHari":8762,"ĠNO":8763,"ĠNig":8764,"ĠNote":8765,"ĠJot":8766,"ĠMaid":8767,"ĠMaster":8768,"ĠLt":8769,"ĠLut":8770,"ĠTO":8771,"ĠTin":8772,"ĠTIEW":8773,"ĠThir":8774,"ĠPy":8775,"ĠPhai":8776,"Ġthlieh":8777,"Ġthlen":8778,"Ġwi":8779,"ĠIq":8780,"Ġshib":8781,"ĠDeb":8782,"ĠDgi":8783,"ĠDngiem":8784,"ĠRyntieh":8785,"alat":8786,"khor":8787,"khom":8788,"Ġkynk":8789,"nok":8790,"Ġnongwad":8791,"Ġkhali":8792,"tine":8793,"ĠArithmetic":8794,"ĠKhatar":8795,"shei":8796,"Ġwanpoi":8797,"ipg":8798,"ipen":8799,"rack":8800,"ĠNongbri":8801,"Ġkyrang":8802,"Ġass":8803,"Ġarjait":8804,"Ġkhluit":8805,"ĠWoh":8806,"Ġjingshi":8807,"Ġpham":8808,"ester":8809,"ession":8810,"ĠLabor":8811,"ĠYou":8812,"Ġshongsuk":8813,"iiig":8814,"ĠEp":8815,"ĠEaster":8816,"Ġjingiada":8817,"ĠCo":8818,"ĠCar":8819,"ĠCivil":8820,"Ġjingpyntngen":8821,"lir":8822,"Ġmahajon":8823,"ĠGhat":8824,"ĠJingiap":8825,"ĠJingpyr":8826,"Ġtipblei":8827,"Ġff":8828,"ĠShipai":8829,"ĠShon":8830,"ĠShrieh":8831,"ĠThem":8832,"Ġdohlieh":8833,"Ġmany":8834,"Ġmanshuwa":8835,"Ġborbah":8836,"Ġsbwa":8837,"1937":8838,"Ġriewsniew":8839,"Ġskill":8840,"Ġskbem":8841,"kiw":8842,"Ġkbeit":8843,"Ġjingpynbaptis":8844,"Ġmutdur":8845,"Ġlinguistics":8846,"Ġsamthiah":8847,"Ġlaiwat":8848,"ĠDonkam":8849,"lek":8850,"stru":8851,"Ġshitrhem":8852,"ĠIdt":8853,"Ġpages":8854,"ĠPala":8855,"ĠPaiem":8856,"ĠSohiong":8857,"thau":8858,"Ġjingjah":8859,"Â«Â«":8860,"Ġshympr":8861,"Ġsohpet":8862,"ĠUmtis":8863,"Ġmetiap":8864,"jari":8865,"Ġ161":8866,"Ġ163":8867,"Ġktin":8868,"Ġ133":8869,"Ġ137":8870,"Ġkypa":8871,"omasJones":8872,"Ġjingbthah":8873,"ĠMynno":8874,"Ġsying":8875,"Ġgrow":8876,"Ġiasah":8877,"Ġiasyllok":8878,"ĠKbasl":8879,"Ġpynias":8880,"Ġpynjynjar":8881,"Ġyin":8882,"ĠJoint":8883,"Ġjinglyngngoh":8884,"ĠKoina":8885,"ĠBasaw":8886,"ĠInstitution":8887,"Ġjingmudui":8888,"kumta":8889,"Ġ1848":8890,"1974":8891,"Ġalphabet":8892,"kbuid":8893,"Ġ1973":8894,"ĠNongsei":8895,"raph":8896,"Khmih":8897,"Khublei":8898,"ulio":8899,"Ġjhia":8900,"athuhlypa":8901,"Ġkorbar":8902,"troduc":8903,"ĠLariam":8904,"ĠSocial":8905,"utive":8906,"ĠNONGTHOH":8907,"Ġkeift":8908,"ĠJendar":8909,"ĠRisang":8910,"Ġjingiasiat":8911,"ĠTipsngi":8912,"Ġ597":8913,"ĠMylliemngap":8914,"Ġjingitynnat":8915,"ĠLatympang":8916,"Ġjorg":8917,"ĠSngewbha":8918,"knii":8919,"ĠBethsaida":8920,"ĠHughlet":8921,"ĠMaskulin":8922,"Ġworks":8923,"ĠGiulio":8924,"ĠSynran":8925,"Ġmuka":8926,"ĠKyndit":8927,"Ġshlip":8928,"ĠHindi":8929,"Ġjaitbynnew":8930,"Sohra":8931,"Ġjngum":8932,"ĠSohpetbneng":8933,"ĠJyrngam":8934,"Ġyears":8935,"Ġkreo":8936,"Ġmyllen":8937,"Ġmohkhiew":8938,"Manik":8939,"ĠOliver":8940,"ĠMYNS":8941,"Ġsynnia":8942,"ĠLympung":8943,"edicate":8944,"Ġshyllangmat":8945,"ĠEklesiastis":8946,"ĠShakespe":8947,"ĠAssistant":8948,"ĠPentekost":8949,"'*.":8950,"-*":8951,"-,":8952,"82":8953,"87":8954,"AD":8955,"Ar":8956,"Dei":8957,"Esek":8958,"Jia":8959,"Khun":8960,"Pyn":8961,"RS":8962,"RIEW":8963,"Sept":8964,"Trep":8965,"Ut":8966,"aja":8967,"cle":8968,"cre":8969,"fd":8970,"fter":8971,"gl":8972,"hynrei":8973,"hyndai":8974,"iba":8975,"ive":8976,"jup":8977,"kpoh":8978,"led":8979,"mew":8980,"mal":8981,"miat":8982,"nb":8983,"nng":8984,"oot":8985,"other":8986,"pos":8987,"sba":8988,"syn":8989,"suid":8990,"sain":8991,"uw":8992,"uia":8993,"ving":8994,"Ġieb":8995,"Ġksi":8996,"Ġkui":8997,"Ġkthaw":8998,"Ġbasaw":8999,"haka":9000,"hawar":9001,"Ġliem":9002,"Ġkiuh":9003,"iaki":9004,"Ġsih":9005,"Ġsui":9006,"Ġsara":9007,"Ġsail":9008,"Ġuse":9009,"Ġjm":9010,"Ġjjng":9011,"Ġpv":9012,"Ġpeh":9013,"Ġland":9014,"Ġdr":9015,"Ġdot":9016,"Ġdano":9017,"ĠKm":9018,"ievv":9019,"Ġnin":9020,"Ġtra":9021,"Ġtynnad":9022,"Ġhaki":9023,"air":9024,"Ġjingf":9025,"hib":9026,"Ġrl":9027,"Ġrnong":9028,"Ġmvn":9029,"ĠUM":9030,"ĠSD":9031,"ĠSop":9032,"ĠSara":9033,"onal":9034,"Ġiol":9035,"Ġiphuh":9036,"ance":9037,"Ġngiew":9038,"Ġngcit":9039,"Ġkher":9040,"Ġkhlong":9041,"Ġshyngk":9042,"ĠBih":9043,"ĠBil":9044,"ĠBle":9045,"ĠBui":9046,"ĠBYN":9047,"ĠBran":9048,"Ġpynngat":9049,"ĠHon":9050,"ĠHen":9051,"ĠHed":9052,"Ġlongshai":9053,"ĠNising":9054,"ĠNIAM":9055,"ĠJd":9056,"thci":9057,"ĠMishoneri":9058,"unat":9059,"ĠTieh":9060,"ĠThis":9061,"ite":9062,"ĠPdang":9063,"Ġthet":9064,"Ġwh":9065,"isation":9066,"ĠIM":9067,"adan":9068,"Ġshiwat":9069,"ĠDath":9070,"ĠRy":9071,"ĠRwai":9072,"khel":9073,"khos":9074,"noog":9075,"Ġnongsharai":9076,"sili":9077,"ulang":9078,"ulman":9079,"ĠAli":9080,"ĠAust":9081,"ĠAngl":9082,"khad":9083,"khas":9084,"Ġiohpdiang":9085,"ĠKhyndiat":9086,"Ġphniang":9087,"Ġphria":9088,"ĠNongpah":9089,"ĠNongdie":9090,"Ġauthor":9091,"Ġ316":9092,"iary":9093,"Ġnangtai":9094,"Ġartic":9095,"ĠWait":9096,"opy":9097,"opment":9098,"Ġjingsei":9099,"raih":9100,"ĠLak":9101,"ĠLasar":9102,"ĠYule":9103,"Ġthab":9104,"Ġthar":9105,"Ġjingkyllon":9106,"asur":9107,"Ġumjer":9108,"Ġumbiah":9109,"Ġjingiathub":9110,"Ġjingpdiang":9111,"Ġoang":9112,"makaw":9113,"ĠGen":9114,"ĠGol":9115,"ĠJingngeit":9116,"Ġfound":9117,"ĠShata":9118,"ĠShken":9119,"Ġbuhkhoh":9120,"Ġparad":9121,"Ġlynsher":9122,"Ġsahnud":9123,"Ġcar":9124,"Ġcit":9125,"Ġtea":9126,"ikir":9127,"Ġpynshi":9128,"ĠBaiang":9129,"Ġjingtr":9130,"Ġjingtha":9131,"Ġjingtieng":9132,"Ġjingtyrwa":9133,"ics":9134,"sau":9135,"Ġbamsap":9136,"Ġsbynrong":9137,"Ġpynkiew":9138,"Ġpynkloi":9139,"Ġpynkulmar":9140,"1900":9141,"Ġbniab":9142,"ĠMaha":9143,"ĠOi":9144,"Ġskaw":9145,"tant":9146,"Ġ1000":9147,"Ġkbmih":9148,"Ġjingpynshlur":9149,"andi":9150,"Ġmawshun":9151,"ĠNaomi":9152,"Ġ122":9153,"Ġ129":9154,"ĠKatta":9155,"Ġsohpdung":9156,"ĠUmtr":9157,"Ġ165":9158,"ĠProb":9159,"Ġjingdie":9160,"ĠFourth":9161,"Ġ144":9162,"Ġ147":9163,"Ġpyok":9164,"Ġpyiar":9165,"Ġ131":9166,"biin":9167,"Ġpynbyr":9168,"Ġbakyn":9169,"Ġbakhih":9170,"Ġlamphrang":9171,"Ġkhrup":9172,"Ġkyoh":9173,"Ġpaidlang":9174,"ĠMynmiet":9175,"Ġjiogk":9176,"Ġjmgthoh":9177,"Ġmade":9178,"manir":9179,"manik":9180,"Ġpronoun":9181,"ksang":9182,"Ġnoli":9183,"Ġnoag":9184,"Ġtrci":9185,"Ġpynrangbah":9186,"Ġpynryntih":9187,"ĠApnl":9188,"Ġlyngkien":9189,"ĠSawang":9190,"Ġsangam":9191,"Ġhadnh":9192,"Ġkajinglong":9193,"ĠNongkyndong":9194,"ktor":9195,"ĠKynshe":9196,"Ġbangla":9197,"jury":9198,"rupa":9199,"ĠSanirang":9200,"Ġjingmong":9201,"ĠAnth":9202,"Ġbefore":9203,"ĠJINGR":9204,"ĠKynrem":9205,"ĠAmwi":9206,"yilong":9207,"1971":9208,"ĠSahlang":9209,"ount":9210,"Ġkawel":9211,"Phin":9212,"Ġ1974":9213,"Ġkmang":9214,"Ġjingphla":9215,"Ġbabba":9216,"suka":9217,"ĠSaitso":9218,"Ġnongpynjot":9219,"ĠSynagog":9220,"Ġkajub":9221,"pyrthei":9222,"Ġmaphi":9223,"essor":9224,"1962":9225,"1963":9226,"1968":9227,"ĠSymbai":9228,"simos":9229,"phin":9230,"Ġjyrmie":9231,"Ġbajem":9232,"pongdeng":9233,"Ġpaisa":9234,"Ġ1964":9235,"ĠThohpan":9236,"ĠNamblang":9237,"ĠNambru":9238,"ĠEmma":9239,"lyngkniap":9240,"Ġbaioh":9241,"ĠPoim":9242,"Ġjingiasyllok":9243,"ĠPrimer":9244,"Ġjynhaw":9245,"ENE":9246,"ĠLeilong":9247,"mynken":9248,"ĠHaman":9249,"1955":9250,"1957":9251,"ĠHikai":9252,"ĠDewi":9253,"ĠKhangweng":9254,"Ġtempi":9255,"Ġjyllop":9256,"Ġurlong":9257,"ĠBonai":9258,"isioner":9259,"ĠSeiros":9260,"ollow":9261,"Ġnongiathuhkhana":9262,"ĠKalbari":9263,"Ġkymat":9264,"Ġmynhyndai":9265,"ĠKHRIST":9266,"fitia":9267,"Ġobject":9268,"Ġrngad":9269,"ĠSumer":9270,"ĠJaidbynriew":9271,"ĠShisyndon":9272,"ĠMohon":9273,"ĠSerubbabel":9274,"Ġiaisah":9275,"ĠKokkok":9276,"ĠKapernam":9277,"ĠSYIEM":9278,"ĠNigel":9279,"ĠMaiduli":9280,"ĠUmtisong":9281,"ĠMYNSIEM":9282,"ĠDathew":9283,"ĠLasaros":9284,"ĠUmtrew":9285,"!!":9286,"/,":9287,":^":9288,"BL":9289,"Dienshonhi":9290,"Kong":9291,"LI":9292,"Local":9293,"OB":9294,"Rangbah":9295,"SU":9296,"Sai":9297,"Sah":9298,"Saw":9299,"TIEW":9300,"aka":9301,"bic":9302,"dap":9303,"go":9304,"ita":9305,"iin":9306,"jad":9307,"kia":9308,"king":9309,"kiew":9310,"koi":9311,"kieng":9312,"knia":9313,"lop":9314,"luit":9315,"lieb":9316,"pia":9317,"pop":9318,"rod":9319,"sor":9320,"spe":9321,"tc":9322,"toh":9323,"tieng":9324,"uih":9325,"vang":9326,"vii":9327,"vir":9328,"vice":9329,"wt":9330,"Ĥ¬":9331,"ĠkS":9332,"Ġkrong":9333,"ngeh":9334,"ngah":9335,"Ġbaka":9336,"hali":9337,"Ġkien":9338,"iasi":9339,"Ġuong":9340,"Ġpied":9341,"Ġlalap":9342,"Ġlalade":9343,"Ġlakren":9344,"Ġiaim":9345,"Ġiaphet":9346,"Ġdm":9347,"Ġdid":9348,"ĠKUM":9349,"Ġtii":9350,"Ġtill":9351,"Ġtyllong":9352,"Ġtuta":9353,"inga":9354,"Ġbiah":9355,"Ġbima":9356,"Ġjingrep":9357,"tag":9358,"Ġrew":9359,"Ġroit":9360,"Ġmeng":9361,"ateh":9362,"ĠUto":9363,"ĠSiam":9364,"ĠStar":9365,"ĠSyi":9366,"ĠSuri":9367,"ĠSmit":9368,"ono":9369,"Ġino":9370,"oriew":9371,"amei":9372,"Ġpynum":9373,"Ġpynpoh":9374,"Ġpynbat":9375,"Ġshain":9376,"ĠHan":9377,"ĠHal":9378,"ĠHil":9379,"Ġlongrynieng":9380,"ĠNob":9381,"ĠNasar":9382,"ĠJca":9383,"lane":9384,"Ġkumah":9385,"emin":9386,"ĠMAW":9387,"ĠLing":9388,"ĠLan":9389,"eron":9390,"unds":9391,"ĠTk":9392,"ĠTra":9393,"ĠTrei":9394,"iteng":9395,"ĠPeace":9396,"ymai":9397,"Ġthl":9398,"Ġthoin":9399,"ĠIong":9400,"ĠIci":9401,"Ġshikur":9402,"Ġshihajar":9403,"Ġshitaiew":9404,"ĠDUR":9405,"Ġht":9406,"Ġhel":9407,"Ġhow":9408,"ĠRiat":9409,"yngka":9410,"alth":9411,"ihei":9412,"Ġpathar":9413,"Ġpatiaw":9414,"khum":9415,"khen":9416,"khleh":9417,"khmah":9418,"imen":9419,"Ġkynnob":9420,"uka":9421,"Ġnonglam":9422,"Ġnongthob":9423,"ĠHajar":9424,"ĠHajan":9425,"sicn":9426,"oifi":9427,"tive":9428,"Ġ210":9429,"Ġ217":9430,"Ġphira":9431,"apa":9432,"idien":9433,"Ġbru":9434,"ĠAward":9435,"Ġmynthi":9436,"Ġmynsb":9437,"Ġmynder":9438,"yndeh":9439,"yndet":9440,"yndonkam":9441,"Ġtangon":9442,"elist":9443,"shynr":9444,"shyieng":9445,"Ġsngewrem":9446,"Ġsngewtbub":9447,"ipat":9448,"ĠKhmat":9449,"ĠKhynriam":9450,"Ġphyll":9451,"rau":9452,"Ġsatar":9453,"ĠNongth":9454,"Ġala":9455,"Ġagi":9456,"ĠâĢĺâĢ¢":9457,"Ġjingsma":9458,"Ġjingsiewspah":9459,"Ġjakar":9460,"Ġtham":9461,"Ġjingkah":9462,"Ġjingiatylli":9463,"ĠCor":9464,"ĠJingkren":9465,"ĠJingduwai":9466,"ĠfC":9467,"Ġfollow":9468,"Ġ500":9469,"Ġ536":9470,"deu":9471,"Ġ1929":9472,"Ġ1926":9473,"Ġ1925":9474,"Ġ1941":9475,"Ġklew":9476,"Ġpynduna":9477,"ĠThiar":9478,"Ġksain":9479,"Ġsahmiet":9480,"Ġdohthli":9481,"Ġlyngkhuh":9482,"Ġcould":9483,"Ġcharact":9484,"lehem":9485,"Ġbatb":9486,"ĠMary":9487,"Ġriewlum":9488,"Ġriewshlur":9489,"Ġriewkynthei":9490,"Ġriewtymmen":9491,"Ġkbia":9492,"Ġkbyn":9493,"Ġjingpynia":9494,"Ġlingmane":9495,"Ġlingbyndi":9496,"ĠMawsaw":9497,"Ġmawbah":9498,"ĠIdwei":9499,"Ġpahara":9500,"ĠBarak":9501,"ĠPhida":9502,"....":9503,"Ġkmiekha":9504,"ĠSohlyngngem":9505,"Ġkyllut":9506,"agi":9507,"Ġjingdom":9508,"Ġpyoi":9509,"Ġktlen":9510,"Ġshaiong":9511,"Ġ139":9512,"Ġiiba":9513,"Ġpali":9514,"Ġmonjur":9515,"ters":9516,"ords":9517,"ĠPyrda":9518,"Ġtbma":9519,"Ġpynkhuslai":9520,"Ġraikhoh":9521,"Ġnamlang":9522,"baios":9523,"Ġga":9524,"Ġplaid":9525,"Ġdorkhas":9526,"Ġnongput":9527,"ĠKamra":9528,"kariang":9529,"Ġ220":9530,"Ġjingkhwan":9531,"Ġjingkhublei":9532,"Ġjingkhriat":9533,"Ġjingpyrta":9534,"ĠnoDg":9535,"Ġisnei":9536,"Ġlyngki":9537,"Ġ240":9538,"Ġphuhmut":9539,"IEJ":9540,"ĠPhreit":9541,"ational":9542,"ladesh":9543,"Ġbyota":9544,"ĠKhunlangbrot":9545,"ĠInter":9546,"lyngngoh":9547,"ĠKynram":9548,"Ġkhawpud":9549,"ĠAmor":9550,"ĠAmmon":9551,"TAN":9552,"Ġturoi":9553,"Ġnongshoh":9554,"Ġalso":9555,"ĠKsing":9556,"ĠKsuid":9557,"ĠEdition":9558,"ĠCompany":9559,"Ġ08":9560,"Ġ1933":9561,"Ġ1934":9562,"Ġ1938":9563,"ĠBamon":9564,"Ġnongpyniap":9565,"Ġslii":9566,"ĠLangbrot":9567,"Ġxxx":9568,"Ġ1906":9569,"Ġ1907":9570,"ĠAssamese":9571,"Ġsarang":9572,"Ġjlih":9573,"1965":9574,"Ġpohjait":9575,"ĠSymboh":9576,"Ġjoug":9577,"BAH":9578,"Ġtiot":9579,"Ġjyrhoh":9580,"Ġthuhkhana":9581,"Ġpynthymmai":9582,"Ġsaih":9583,"here":9584,"Ġbriu":9585,"ĠNamlang":9586,"ĠAgreement":9587,"Ġbtep":9588,"Ġsniehdoh":9589,"Ġsukher":9590,"ĠSarnia":9591,"ĠLystra":9592,"ĠCalvin":9593,"vvei":9594,"Ġmibngi":9595,"Ġlakait":9596,"amination":9597,"Ġryngkhat":9598,"Ġcome":9599,"Ġbooks":9600,"Ġ1956":9601,"Ġjingkitkhlieh":9602,"pbew":9603,"ĠNaphang":9604,"Ġseason":9605,"ĠBangladesh":9606,"ĠXXI":9607,"1956":9608,"Ġtmain":9609,"Ġpyithei":9610,"Ġlobi":9611,"kani":9612,"ĠSadusi":9613,"Ġrisaw":9614,"ĠExec":9615,"ĠByrsaw":9616,"EHU":9617,"Ġjyllei":9618,"Ġeriong":9619,"ĠChand":9620,"ĠChairman":9621,"Ġmukotduma":9622,"ĠSHILL":9623,"ĠXVI":9624,"Ġkyrtcng":9625,"Ġkhmib":9626,"ĠLymda":9627,"ĠBosco":9628,"ĠHormu":9629,"Amwi":9630,"Ġorder":9631,"Ġshyngoid":9632,"Lyngdoh":9633,"Ġmorph":9634,"Ġregister":9635,"ĠNabon":9636,"ĠGilbert":9637,"Ġpbawar":9638,"Poetry":9639,"Ġjyngkieng":9640,"ĠBakhus":9641,"ĠPakistan":9642,"Ġshynriahti":9643,"ĠBuittuh":9644,"Ġkyntbup":9645,"ĠPrincipal":9646,"ĠRAMEW":9647,"ĠThird":9648,"ĠDeborah":9649,"Ġshympriah":9650,"(^":9651,"<>":9652,">.":9653,"BLEI":9654,"Col":9655,"DOH":9656,"EK":9657,"GG":9658,"Myn":9659,"Tiew":9660,"Uang":9661,"asi":9662,"but":9663,"bii":9664,"bisha":9665,"cer":9666,"db":9667,"esi":9668,"fong":9669,"fat":9670,"feng":9671,"iid":9672,"ikai":9673,"jf":9674,"jj":9675,"jun":9676,"koh":9677,"kah":9678,"kli":9679,"klia":9680,"kohnguh":9681,"mos":9682,"pait":9683,"paid":9684,"rob":9685,"tur":9686,"tyngk":9687,"tymp":9688,"uaid":9689,"xn":9690,"|^":9691,"Ġew":9692,"ĠkA":9693,"ĠkJ":9694,"Ġkew":9695,"Ġklang":9696,"Ġktha":9697,"Ġkritik":9698,"ngiang":9699,"Ġkana":9700,"bawa":9701,"Ġbalai":9702,"Ġliar":9703,"Ġliap":9704,"Ġkie":9705,"Ġkiha":9706,"Ġkiet":9707,"Ġsied":9708,"Ġsci":9709,"Ġsriem":9710,"Ġjali":9711,"Ġpn":9712,"Ġpda":9713,"eiii":9714,"Ġiathoh":9715,"Ġialum":9716,"Ġiaher":9717,"Ġdun":9718,"Ġduid":9719,"Ġdkhai":9720,"Ġdyngkhong":9721,"Ġdicng":9722,"ĠKei":9723,"ĠKing":9724,"ĠKen":9725,"ĠKis":9726,"ĠKbr":9727,"ĠKyntiew":9728,"Ġnei":9729,"Ġtv":9730,"Ġtop":9731,"Ġtbai":9732,"Ġtiei":9733,"Ġtrab":9734,"Ġhaman":9735,"Ġhajir":9736,"aik":9737,"Ġbadei":9738,"Ġbon":9739,"Ġbthat":9740,"Ġjingieh":9741,"Ġjingbang":9742,"Ġjinglamphrang":9743,"Ġmis":9744,"Ġmaloi":9745,"Ġmula":9746,"athan":9747,"ĠUi":9748,"ĠUla":9749,"ĠSn":9750,"ĠSv":9751,"onjin":9752,"Ġithaw":9753,"Ġngop":9754,"Ġngiam":9755,"Ġkhiaw":9756,"Ġkhui":9757,"Ġkhuri":9758,"ĠBieit":9759,"ĠBhu":9760,"ĠBrow":9761,"Ġpyntam":9762,"Ġpyntbit":9763,"Ġshanam":9764,"Ġshalyng":9765,"Ġsharing":9766,"ĠHeh":9767,"ĠHir":9768,"Ġlongshua":9769,"ĠNissor":9770,"ĠJt":9771,"ĠJha":9772,"ĠJci":9773,"ĠJrong":9774,"ĠJail":9775,"ĠJunom":9776,"ĠJirang":9777,"ths":9778,"Ġkumoo":9779,"ĠLor":9780,"ĠLet":9781,"ĠTyn":9782,"ĠTen":9783,"ĠTien":9784,"ĠTmar":9785,"ĠThap":9786,"ĠThat":9787,"ĠPdeng":9788,"Ġthyr":9789,"Ġthud":9790,"ĠIp":9791,"ieni":9792,"ĠDD":9793,"ĠDg":9794,"ĠDwar":9795,"ĠDari":9796,"omlong":9797,"Ġheit":9798,"Ġhuk":9799,"ĠRow":9800,"yngkhuh":9801,"alek":9802,"khyndai":9803,"img":9804,"imel":9805,"yllep":9806,"oil":9807,"tid":9808,"tific":9809,"Ġ211":9810,"Ġ213":9811,"aph":9812,"Ġpyrdai":9813,"Ġhiut":9814,"âĢĻ)":9815,"âĢĻâĢĻ.":9816,"Ġaili":9817,"shna":9818,"Ġsngewleh":9819,"amarjan":9820,"ĠKhmut":9821,"raa":9822,"rag":9823,"rata":9824,"osa":9825,"osit":9826,"osiem":9827,"obi":9828,"ĠNongkyn":9829,"Ġkyreit":9830,"Ġkyrdon":9831,"Ġac":9832,"Ġafter":9833,"phum":9834,"phut":9835,"Ġ312":9836,"ĠWe":9837,"Ġjingsam":9838,"Ġright":9839,"ĠEa":9840,"ĠEnt":9841,"fix":9842,"lion":9843,"Ġmakna":9844,"Ġox":9845,"Ġunder":9846,"Ġfob":9847,"olis":9848,"usa":9849,"dek":9850,"Ġ1919":9851,"Ġ1911":9852,"Ġ1946":9853,"ĠThor":9854,"Ġmyntan":9855,"Ġlyngdob":9856,"Ġcase":9857,"Ġkiein":9858,"Ġpynshit":9859,"Ġpynstet":9860,"Ġsnur":9861,"Kaei":9862,"Ġsbuwa":9863,"Ġkhniot":9864,"Ġpynkyntiew":9865,"Ġshahshkor":9866,"Ġiingmane":9867,"Ġ1853":9868,"Ġbatbit":9869,"ĠMaram":9870,"ĠMartyr":9871,"ĠMakedonia":9872,"ĠKAWEI":9873,"Ġkber":9874,"Ġkbynnah":9875,"sting":9876,"ĠIdne":9877,"Ġpaj":9878,"ĠBarber":9879,"ĠSohmanir":9880,"Ġsuron":9881,"reen":9882,"shaifi":9883,"Ġpynithuh":9884,"Ġ169":9885,"aga":9886,"batri":9887,"Ġpyos":9888,"Ġpyod":9889,"Ġktim":9890,"Ġktung":9891,"Ġsbad":9892,"Ġleilieh":9893,"Ġbakyr":9894,"Ġjingsngewlem":9895,"Ġtbew":9896,"Ġpynkhraw":9897,"Ġniad":9898,"ĠMynshwa":9899,"Ġjioglong":9900,"ceae":9901,"Ġsyiang":9902,"ftg":9903,"Ġpliah":9904,"Ġjmgpyn":9905,"Ġbili":9906,"Ġjingkhlad":9907,"mula":9908,"ĠStud":9909,"Ġdingphnow":9910,"Ġpynjulor":9911,"Ġeff":9912,"ĠPhra":9913,"Ġsepei":9914,"Ġliim":9915,"Ġrynsied":9916,"ĠRambrai":9917,"ĠJISU":9918,"Ġonly":9919,"Ġjingmynsaw":9920,"Ġangew":9921,"Ġsyndet":9922,"ĠChief":9923,"ĠMatti":9924,"Ġbyrtap":9925,"Ġbsut":9926,"Ġahong":9927,"IAR":9928,"Ġbyni":9929,"ĠComp":9930,"Ġ1976":9931,".âĢĻ'":9932,"Ġpynsngewsih":9933,"ĠLamin":9934,"ĠKyrshan":9935,"Ġxiv":9936,"ĠSkot":9937,"Ġihoh":9938,"sonant":9939,"Ġhear":9940,"niamtra":9941,"1969":9942,"ĠKharsuka":9943,"ĠEden":9944,"Ġminit":9945,"kyrkhu":9946,"Ġ1960":9947,"Ġ1963":9948,"Ġkhappud":9949,"Ġkhapbrip":9950,"ĠPariat":9951,"ĠCommisioner":9952,"THEI":9953,"bricw":9954,"Ġtynneng":9955,"Ġlebse":9956,"ĠLikai":9957,"Ġiatur":9958,"ĠSarang":9959,"Ġkiwel":9960,"Ġranei":9961,"Ġarsnem":9962,"ĠKutchari":9963,"ĠTyrna":9964,"earch":9965,"Ġlakynduh":9966,"ĠNongpynbaptis":9967,"kongor":9968,"syiar":9969,"ĠPersonal":9970,"bynnew":9971,"Ġialeb":9972,"ĠHarud":9973,"ĠTyngab":9974,"ĠPomblang":9975,"ĠAntio":9976,"Shaphang":9977,"ĠBethlehem":9978,"Ġnaniar":9979,"Ġtbaw":9980,"ĠTHOH":9981,"ĠKhnap":9982,"ĠSubject":9983,"ĠPdah":9984,"khawiah":9985,"Ġwriting":9986,"YNGK":9987,"Ġhorkit":9988,"Ġpyrsbang":9989,"ĠDawiing":9990,"Ġromantic":9991,"ĠNandoh":9992,"ĠTIP":9993,"Ġiapyrshah":9994,"Ġjingsyaid":9995,"MENT":9996,"ĠSuper":9997,"Ġthyllieij":9998,"Ġnongpeitkai":9999,"Ġschool":10000,"ĠAleksandria":10001,"Ġjingrakhe":10002,"ĠMelkhi":10003,"Pharshi":10004,"Ġlynniar":10005,"ĠWebster":10006,"Ġnemsniew":10007,"ĠPulit":10008,"Ġsngeubha":10009,"ĠEastern":10010,"ĠLariammon":10011,"ĠShakespeare":10012,"ĠAnglo":10013,"ĠExecutive":10014,"\"'":10015,"'-":10016,")>":10017,"200":10018,"<Â»":10019,"ABA":10020,"August":10021,"Bar":10022,"Dec":10023,"DEW":10024,"District":10025,"Er":10026,"Fl":10027,"IL":10028,"Ing":10029,"Jak":10030,"MAT":10031,"Ni":10032,"Nangta":10033,"Siew":10034,"ULA":10035,"].":10036,"buid":10037,"bieit":10038,"cu":10039,"dot":10040,"dud":10041,"dkhot":10042,"hor":10043,"iia":10044,"iom":10045,"jylliew":10046,"kew":10047,"kwai":10048,"kulab":10049,"lc":10050,"lk":10051,"lok":10052,"laid":10053,"lui":10054,"lupa":10055,"mly":10056,"nan":10057,"nid":10058,"niah":10059,"pj":10060,"pon":10061,"rf":10062,"reb":10063,"sal":10064,"sait":10065,"sti":10066,"ses":10067,"sdang":10068,"soit":10069,"sbang":10070,"tw":10071,"tiar":10072,"tli":10073,"ual":10074,"wand":10075,"yU":10076,"yin":10077,"ze":10078,"Ġiem":10079,"Ġawa":10080,"Ġkoid":10081,"Ġkfa":10082,"nguid":10083,"Ġkari":10084,"Ġkaci":10085,"bait":10086,"baid":10087,"Ġbapa":10088,"Ġlook":10089,"Ġlelt":10090,"Ġkiun":10091,"Ġsom":10092,"Ġska":10093,"Ġsoskular":10094,"Ġub":10095,"Ġuh":10096,"Ġjiar":10097,"Ġjngut":10098,"Ġjynduh":10099,"Ġpum":10100,"Ġlan":10101,"Ġlaroh":10102,"Ġiarong":10103,"Ġiatbub":10104,"Ġdii":10105,"Ġdara":10106,"ĠKdor":10107,"ĠKiad":10108,"Ġnd":10109,"Ġnj":10110,"Ġtis":10111,"Ġtynn":10112,"Ġtci":10113,"Ġtiap":10114,"Ġtre":10115,"Ġhalade":10116,"Ġhajrong":10117,"aifl":10118,"Ġbg":10119,"Ġbne":10120,"Ġbim":10121,"Ġbuid":10122,"Ġblad":10123,"Ġjingat":10124,"Ġjingeb":10125,"Ġjingban":10126,"Ġjinglap":10127,"âĢŀ":10128,"Ġrie":10129,"Ġrip":10130,"Ġruid":10131,"arp":10132,"arad":10133,"arsap":10134,"Ġmah":10135,"Ġmuri":10136,"ĠSN":10137,"ĠSen":10138,"ĠSet":10139,"ĠStad":10140,"ĠSbai":10141,"ĠSTA":10142,"ĠSOH":10143,"ĠSyllad":10144,"Ġior":10145,"Ġiyng":10146,"Ġkhyllong":10147,"Ġkhek":10148,"Ġkhfiiang":10149,"Ġkhrek":10150,"oram":10151,"orial":10152,"Ġ(âĢĺ":10153,"ĠBr":10154,"ĠBeit":10155,"ĠBrah":10156,"ĠHit":10157,"ĠHel":10158,"ĠHist":10159,"Ġlongjait":10160,"ĠNuksa":10161,"ĠJur":10162,"ĠJust":10163,"ĠJuli":10164,"ĠJumai":10165,"tho":10166,"thut":10167,"thnh":10168,"ĠMah":10169,"ĠMiet":10170,"ĠLY":10171,"ĠLngam":10172,"ĠTaid":10173,"ĠTran":10174,"ĠPb":10175,"ĠPung":10176,"awei":10177,"Ġthyn":10178,"Ġwain":10179,"isu":10180,"utn":10181,"ĠIca":10182,"ynrap":10183,"ynrop":10184,"Ġshii":10185,"ĠDieh":10186,"ĠDuwai":10187,"Ġheb":10188,"ĠRas":10189,"khuit":10190,"khlain":10191,"ime":10192,"imos":10193,"inal":10194,"Ġnongmane":10195,"yllang":10196,"Ġkhani":10197,"sicm":10198,"Ġkate":10199,"Ġ212":10200,"Ġ218":10201,"ulai":10202,"ĠAR":10203,"ĠAc":10204,"Ġmynla":10205,"Ġwandur":10206,"Ġsngewrit":10207,"Ġsngewbit":10208,"Ġsngewburom":10209,"ipur":10210,"ĠKhynd":10211,"Ġphon":10212,"Ġphot":10213,"Ġphrah":10214,"Ġphylliew":10215,"Ġsagew":10216,"Ġjung":10217,"ĠNongta":10218,"ĠNongkh":10219,"riw":10220,"Ġay":10221,"phiang":10222,"ogai":10223,"opia":10224,"Ġjingsep":10225,"Ġphak":10226,"ĠYai":10227,"ĠEar":10228,"ĠEksod":10229,"asnoh":10230,"Ġumsaw":10231,"Ġjingiateh":10232,"Ġjingpyndon":10233,"Ġmao":10234,"masi":10235,"ĠJingtrei":10236,"iliary":10237,"ols":10238,"uses":10239,"Ġ1920":10240,"Ġklba":10241,"Ġmartyr":10242,"ĠThong":10243,"ĠThymmai":10244,"ĠThere":10245,"Ġksam":10246,"Ġtheory":10247,"Ġcor":10248,"Ġcall":10249,"Ġpynsangeh":10250,"Ġjingtim":10251,"Ġjingthala":10252,"1933":10253,"Ġiaphi":10254,"Ġiapait":10255,"Ġiapber":10256,"ĠVersion":10257,"Ġbatoh":10258,"ĠMaj":10259,"ĠMaur":10260,"ĠOrig":10261,"kino":10262,"Ġkbum":10263,"ĠDonrai":10264,"Ġpashait":10265,"Ġkdait":10266,"ĠLyngka":10267,"Ġslajat":10268,"ĠSohkha":10269,"lamwir":10270,"than":10271,"Ġdawbah":10272,"Â«*":10273,"Ġsohphan":10274,"Ġsohmynken":10275,"Ġmetor":10276,"pynim":10277,"ign":10278,"Ġ164":10279,"ager":10280,"Ġ145":10281,"dari":10282,"Ġpyii":10283,"ndia":10284,"Ġktt":10285,"Ġview":10286,"Ġviii":10287,"Ġiiog":10288,"Ġbakbraw":10289,"Ġkynruh":10290,"Ġkhring":10291,"Ġiakyr":10292,"flg":10293,"omasjones":10294,"Ġtbikna":10295,"Ġpynkhyll":10296,"Ġpynkhleh":10297,"Ġpynkheifi":10298,"ĠKIBA":10299,"Ġjingburom":10300,"Ġsyrwa":10301,"Ġsyrpud":10302,"Ġsyicm":10303,"Ġgiv":10304,"Ġtyrut":10305,"mareh":10306,"Ġpyllon":10307,"Ġpruid":10308,"Ġkyntem":10309,"ecial":10310,"Ġbasngur":10311,"Ġrequ":10312,"roin":10313,"Ġpynjrong":10314,"kynhun":10315,"kynsai":10316,"ĠPhemin":10317,"Ġsynsar":10318,"Ġsynlar":10319,"Ġkruin":10320,"Ġkhieshoh":10321,"Ġrangsan":10322,"Ġbapber":10323,"Ġbangta":10324,"Ġsympa":10325,"Ġjingminot":10326,"ĠJINGPYN":10327,"ĠMatrik":10328,"Ġbyrni":10329,"yili":10330,"1972":10331,"1975":10332,"Ġlawbah":10333,"Ġbsah":10334,"ĠRangli":10335,"sarang":10336,"Ġ1971":10337,"Ġ1975":10338,"rance":10339,"Ġjingphet":10340,"Ġ1932":10341,"ourt":10342,"beifl":10343,"ĠSaitsokpen":10344,"ĠâĻ¦":10345,"klin":10346,"Ġpyntieng":10347,"Ġjingring":10348,"1966":10349,"Ġamong":10350,"ĠHAPOH":10351,"ĠSympa":10352,"ĠSchools":10353,"gazine":10354,"ĠLAMPHRANG":10355,"Ġbajylliew":10356,"ĠSyrna":10357,"Ġdokhol":10358,"Ġsaifl":10359,"ĠCachar":10360,"Ġpynphieng":10361,"Ġtympang":10362,"ĠSermon":10363,"ĠJaih":10364,"ĠConstitution":10365,"ĠLyoh":10366,"Ġthaifl":10367,"ĠCalendar":10368,"ĠtyUi":10369,"Ġpbin":10370,"Ġabo":10371,"ĠTiplut":10372,"ĠAngell":10373,"Ġkarta":10374,"Ġpyrthew":10375,"Ġfiiewkor":10376,"Ġsmall":10377,"Ġtlieng":10378,"ĠLalung":10379,"ĠMalar":10380,"Ġedn":10381,"Ġedition":10382,"ĠExamination":10383,"Ġnongkhwai":10384,"Ġagin":10385,"ĠKylleng":10386,"Ġbluit":10387,"Mawlong":10388,"Ġmuch":10389,"ĠMiz":10390,"Ġshikatta":10391,"Ġjnit":10392,"Ġappear":10393,"ĠXIII":10394,"TIP":10395,"Ġnongtbob":10396,"Saitsohpen":10397,"puraw":10398,"ĠMusiang":10399,"ĠStephan":10400,"pyllieng":10401,"Ġjirg":10402,"ĠDaioi":10403,"sical":10404,"Ġpoetri":10405,"ĠRobin":10406,"ĠDkbar":10407,"ĠSCENE":10408,"ĠTuhhok":10409,"ĠâĺĨ":10410,"Jonah":10411,"ĠSwami":10412,"Ġtupia":10413,"ĠChedrack":10414,"ĠMakaifl":10415,"ĠRussia":10416,"ĠKliasi":10417,"ĠRynniaw":10418,"ĠAnthony":10419,"ĠSHILLONG":10420,"Colour":10421,"ĠBhuyan":10422,"ĠDiehshonhi":10423,"ĠPheminin":10424,"74":10425,"<^":10426,"Bhoi":10427,"CM":10428,"Dieng":10429,"Hima":10430,"July":10431,"Kyn":10432,"Kei":10433,"Leh":10434,"Lym":10435,"Mg":10436,"Oi":10437,"Ong":10438,"Ph":10439,"SH":10440,"US":10441,"YA":10442,"ainguh":10443,"cg":10444,"cj":10445,"daw":10446,"fg":10447,"fia":10448,"far":10449,"gy":10450,"gong":10451,"geit":10452,"gal":10453,"ij":10454,"iieh":10455,"iohi":10456,"jyr":10457,"jen":10458,"jamin":10459,"kang":10460,"kem":10461,"kim":10462,"lr":10463,"lit":10464,"lii":10465,"lymb":10466,"mm":10467,"my":10468,"ny":10469,"ncm":10470,"oug":10471,"pros":10472,"pnah":10473,"rs":10474,"ress":10475,"soi":10476,"sab":10477,"sbun":10478,"syndah":10479,"tynrai":10480,"ued":10481,"val":10482,"wen":10483,"yog":10484,"Ġom":10485,"Ġkordit":10486,"ngei":10487,"ngad":10488,"Ġkao":10489,"Ġkaiph":10490,"Ġkaae":10491,"bao":10492,"Ġbain":10493,"Ġbaph":10494,"Ġbaiar":10495,"Ġbajan":10496,"halang":10497,"Ġlud":10498,"Ġlil":10499,"Ġled":10500,"iana":10501,"Ġsw":10502,"Ġsik":10503,"Ġsein":10504,"Ġsent":10505,"Ġsec":10506,"Ġsoc":10507,"Ġsee":10508,"Ġujor":10509,"Ġjhad":10510,"Ġjyndong":10511,"Ġpin":10512,"Ġpulom":10513,"Ġlashem":10514,"Ġdp":10515,"Ġdone":10516,"Ġdeterminer":10517,"ĠKd":10518,"ĠKiang":10519,"ĠKynt":10520,"ĠKrem":10521,"ĠKyntang":10522,"ĠKyilong":10523,"Ġnub":10524,"Ġnain":10525,"Ġnow":10526,"Ġtun":10527,"Ġtlor":10528,"Ġtiong":10529,"Ġtula":10530,"Ġhak":10531,"Ġhal":10532,"Ġbeb":10533,"Ġbynda":10534,"Ġbistor":10535,"Ġbvn":10536,"Ġbthing":10537,"Ġjingn":10538,"Ġjingbikai":10539,"hima":10540,"taa":10541,"Ġruli":10542,"ariew":10543,"Ġmd":10544,"Ġmit":10545,"Ġmyl":10546,"Ġmaster":10547,"Ġmgai":10548,"Ġmost":10549,"Ġmict":10550,"Ġbank":10551,"ateng":10552,"ĠSta":10553,"ĠSuid":10554,"ĠSpain":10555,"onsar":10556,"Ġik":10557,"Ġion":10558,"Ġidi":10559,"Ġithiang":10560,"anc":10561,"Ġngoh":10562,"Ġngor":10563,"umta":10564,"Ġkhur":10565,"Ġkhub":10566,"Ġkhna":10567,"Ġshr":10568,"Ġshrong":10569,"Ġshfiiuh":10570,"amis":10571,"Ġ(/":10572,"ĠBut":10573,"ĠBod":10574,"ĠBtei":10575,"ĠBro":10576,"ĠBura":10577,"ĠBboi":10578,"ĠBRIEW":10579,"Ġpynngeit":10580,"Ġpynnang":10581,"ĠHem":10582,"ĠHynn":10583,"Ġlongknii":10584,"ĠNE":10585,"ĠNot":10586,"ĠNal":10587,"ĠNoi":10588,"ĠNos":10589,"ĠNEHU":10590,"ĠJoit":10591,"ĠJngai":10592,"Ġnajan":10593,"thet":10594,"Ġkuman":10595,"ĠMong":10596,"ĠMynd":10597,"ĠMuri":10598,"ĠMAR":10599,"ĠMokotduma":10600,"ĠLot":10601,"ĠLMS":10602,"ern":10603,"ĠTan":10604,"ĠTylli":10605,"ĠTig":10606,"ito":10607,"ĠPynd":10608,"eiti":10609,"isan":10610,"ĠIv":10611,"ĠIeh":10612,"adong":10613,"ynraw":10614,"Ġshik":10615,"Ġshijam":10616,"ĠDO":10617,"ĠDut":10618,"Ġhong":10619,"ĠRE":10620,"ĠRympei":10621,"khroh":10622,"Ġkynbun":10623,"Ġkynkiw":10624,"Ġnonglum":10625,"ĠHata":10626,"Ġkhasaw":10627,"aituh":10628,"sham":10629,"Ġ214":10630,"idt":10631,"ĠAB":10632,"ĠAa":10633,"ĠArist":10634,"Ġpyrda":10635,"Ġpyrtb":10636,"ĠKhai":10637,"ĠKhaldi":10638,"ipa":10639,"ĠKhnong":10640,"ĠKhonjin":10641,"Ġphm":10642,"Ġphymai":10643,"raft":10644,"Ġsay":10645,"ĠNgeit":10646,"ĠNonglyngk":10647,"ĠNongphlang":10648,"Ġkyrda":10649,"Ġkyrngah":10650,"rica":10651,"Ġ318":10652,"Ġ320":10653,"Ġarshah":10654,"rench":10655,"Ġjingsn":10656,"Ġriwar":10657,"Ġkhunkha":10658,"Ġshongkun":10659,"ĠES":10660,"ĠEr":10661,"ĠEthi":10662,"ĠEvang":10663,"Ġumdih":10664,"Ġjingiaieit":10665,"Ġjingiashong":10666,"Ġjingiatbub":10667,"ĠChap":10668,"ĠCart":10669,"ĠCulture":10670,"fiiaw":10671,"maian":10672,"ĠGO":10673,"ĠGur":10674,"ĠGaios":10675,"ĠJingkh":10676,"ĠJingsneng":10677,"Ġfh":10678,"Ġfong":10679,"Ġfai":10680,"Ġ586":10681,"oloji":10682,"dekaiah":10683,"Ġ600":10684,"Ġ1940":10685,"Ġkliam":10686,"Ġpyndum":10687,"Ġpyndkut":10688,"ĠShane":10689,"ĠShaphrang":10690,"ĠShoh":10691,"ĠThu":10692,"Ġksoh":10693,"Ġksiang":10694,"Ġparo":10695,"Ġparamarjan":10696,"dohnud":10697,"Ġimiang":10698,"Ġ^*":10699,"ĠâĢĻâĢĻ":10700,"Ġlyngd":10701,"Ġcame":10702,"Ġpynsaja":10703,"Ġsnar":10704,"ĠBakbuid":10705,"Ġdiengiap":10706,"Ġjingteh":10707,"Ġjingtwa":10708,"Ġjingtuid":10709,"Ġjingtied":10710,"eds":10711,"saia":10712,"Ġpynkit":10713,"Ġiapra":10714,"Ġiapyrkhat":10715,"Ġ1838":10716,"ĠVice":10717,"onel":10718,"Ġriewdon":10719,"Ġlapngar":10720,"cifi":10721,"Ġkhyndcw":10722,"ĠKAS":10723,"Ġind":10724,"ĠMawthoh":10725,"ĠMawiong":10726,"andhi":10727,"Ġpaju":10728,"Ġkitbok":10729,"Ġlaitylli":10730,"ĠLyngskor":10731,"ĠSohbar":10732,"sedek":10733,"ream":10734,"Ġpynper":10735,"Â».":10736,"Ġstud":10737,"ĠjiDg":10738,"ĠUmngot":10739,"akren":10740,"Ġjingduk":10741,"Ġjingdup":10742,"ĠManipur":10743,"Ġ146":10744,"Ġ149":10745,"Ġpyor":10746,"Ġktba":10747,"Ġ134":10748,"Ġsbane":10749,"ssue":10750,"ĠDay":10751,"Ġleil":10752,"Ġval":10753,"Ġtyngier":10754,"Ġbakong":10755,"evel":10756,"Ġpalong":10757,"ĠHadem":10758,"Ġ151":10759,"Ġ156":10760,"Ġ158":10761,"Ġkyot":10762,"Ġ178":10763,"Ġraibi":10764,"Ġsyrdeng":10765,"Ġsyrdep":10766,"Ġjiogpyn":10767,"Ġgro":10768,"ĠSav":10769,"Ġnongpynroi":10770,"Ġprop":10771,"Ġbiih":10772,"Ġjingkheifi":10773,"Ġjingkheih":10774,"ĠXa":10775,"ĠApoll":10776,"Ġlyngkor":10777,"ĠStudy":10778,"IEIT":10779,"erson":10780,"Ġlymbiang":10781,"Ġjingshet":10782,"Ġpharia":10783,"Ġadjective":10784,"geon":10785,"Ġknii":10786,"Ġryni":10787,"Ġkrat":10788,"Ġpurew":10789,"bitom":10790,"phat":10791,"ĠSanniew":10792,"ĠJINGIA":10793,"ught":10794,"1970":10795,"hadur":10796,"ekah":10797,"Ġahor":10798,"IAT":10799,"ookam":10800,"Ġnongbuh":10801,"Ġkhohruh":10802,"Ġiobsngew":10803,"Ġsabeb":10804,"Ġsuhsat":10805,"ĠLama":10806,"Ġslat":10807,"ĠLangrin":10808,"Ġxa":10809,"Ġpynshongnia":10810,"AIN":10811,"iakren":10812,".'*":10813,"Ġkhyrwait":10814,"Ġkyndat":10815,"BAR":10816,"ĠHynfliew":10817,"Ġmyota":10818,"Ġcons":10819,"Ġlentil":10820,"Ġbriow":10821,"ĠNongiathuh":10822,"ĠPani":10823,"ĠMorlan":10824,"THUH":10825,"Ġnongtong":10826,"Ġperi":10827,"ĠJaifitia":10828,"Ġshyrti":10829,"ĠkeiS":10830,"ĠHerodia":10831,"Ġphrase":10832,"uagint":10833,"ĠSHONG":10834,"ĠDohkha":10835,"skrit":10836,"ĠSedekaiah":10837,"Ġjingbhabriew":10838,"syep":10839,"ĠPolo":10840,"ISTAN":10841,"KAM":10842,"ĠNapoh":10843,"ĠMyrsiang":10844,"ĠSeptuagint":10845,"ĠJingkieng":10846,"ĠDewlynnong":10847,"ĠReg":10848,"Ġsoitan":10849,"Ġdanda":10850,"Ġrisang":10851,"ĠGreen":10852,"Ġnongkhein":10853,"ĠNepal":10854,"ĠMaskut":10855,"ĠKyllang":10856,"ĠSouth":10857,"ĠByrlieh":10858,"ĠMadur":10859,"Ġjakoid":10860,"Ġkyila":10861,"ĠJatinga":10862,"ĠFranklin":10863,"YMM":10864,"YMP":10865,"Ġiawbei":10866,"ĠNongshun":10867,"Ġknmba":10868,"âĢ¢âĢ¢âĢ¢âĢ¢":10869,"Ġkhraat":10870,"ĠRadio":10871,"Ġkuniba":10872,"ĠBising":10873,"Ġjyndei":10874,"ĠBenjamin":10875,"ĠBudd":10876,"owering":10877,"ĠPHAWAR":10878,"Ġlehraifi":10879,"ĠIawbei":10880,"ĠIawdaija":10881,"ĠClub":10882,"ĠHynrci":10883,"Ġjingsngcw":10884,"Ġsaphret":10885,"ĠOlib":10886,"ĠNurim":10887,"Ġthnum":10888,"ĠJingiathuhkhana":10889,"ĠLyngdkhur":10890,"ĠDeuteron":10891,"ĠOnesimos":10892,"ygen":10893,"ĠHongma":10894,"nology":10895,"ĠMynnor":10896,"ĠLiengmakaw":10897,"ĠArabia":10898,"uxiliary":10899,"troduction":10900,"ĠBYNTA":10901,"spector":10902,"Ġjakarieh":10903,"ĠDDT":10904,"Flowering":10905,"wandur":10906,"Ġaway":10907,"Ġkaiphot":10908,"ĠEthiopia":10909,"ĠCartel":10910,"ĠApollos":10911,"*!":10912,"->":10913,";âĢĶ":10914,"<*":10915,"Bynta":10916,"Dr":10917,"El":10918,"Jeh":10919,"Mn":10920,"Mt":10921,"Mig":10922,"OO":10923,"Of":10924,"October":10925,"PEL":10926,"Rung":10927,"Seng":10928,"Shisha":10929,"UP":10930,"]^":10931,"aj":10932,"bib":10933,"chi":10934,"dro":10935,"field":10936,"gem":10937,"ger":10938,"hl":10939,"hed":10940,"iu":10941,"jom":10942,"jal":10943,"jli":10944,"jod":10945,"jnh":10946,"kj":10947,"ksha":10948,"kii":10949,"knor":10950,"lip":10951,"md":10952,"mh":10953,"mn":10954,"mel":10955,"myntoi":10956,"nin":10957,"niat":10958,"oy":10959,"pra":10960,"rng":10961,"rngiew":10962,"su":10963,"tti":10964,"timai":10965,"vate":10966,"xide":10967,"Ġend":10968,"Ġklass":10969,"ngub":10970,"Ġkaa":10971,"Ġkaid":10972,"Ġkaoo":10973,"Ġkaji":10974,"bais":10975,"Ġbaki":10976,"Ġbakhia":10977,"Ġlih":10978,"Ġlir":10979,"Ġkina":10980,"iation":10981,"Ġsug":10982,"Ġswet":10983,"Ġsiig":10984,"Ġsjc":10985,"Ġsmiej":10986,"Ġuo":10987,"Ġjj":10988,"Ġjp":10989,"Ġjid":10990,"Ġjnat":10991,"Ġpf":10992,"Ġpel":10993,"Ġputa":10994,"Ġladuh":10995,"Ġlali":10996,"Ġlater":10997,"Ġlapher":10998,"Ġlashisngi":10999,"Ġiaong":11000,"Ġiaip":11001,"Ġiabat":11002,"Ġianga":11003,"Ġiashah":11004,"Ġiawer":11005,"Ġiashoh":11006,"Ġiaishah":11007,"Ġiarisa":11008,"Ġdop":11009,"Ġdied":11010,"Ġdou":11011,"ĠKf":11012,"ĠKk":11013,"ĠKoh":11014,"ĠKka":11015,"ĠKynta":11016,"ĠKiel":11017,"ĠKsiang":11018,"ĠKYR":11019,"ĠKordit":11020,"ieut":11021,"Ġnir":11022,"Ġtid":11023,"Ġtel":11024,"Ġtwa":11025,"Ġhah":11026,"Ġhadiih":11027,"ais":11028,"Ġbj":11029,"Ġbk":11030,"Ġbia":11031,"Ġbol":11032,"Ġbus":11033,"Ġbill":11034,"Ġbdd":11035,"Ġjingot":11036,"Ġjingap":11037,"Ġjingrit":11038,"hiw":11039,"hira":11040,"taog":11041,"Ġraw":11042,"Ġrot":11043,"Ġriaw":11044,"Ġrymp":11045,"Ġmuin":11046,"Ġmaifi":11047,"Ġmdw":11048,"ĠUjuh":11049,"ĠSiew":11050,"ĠSiem":11051,"ĠSyngk":11052,"ĠSynn":11053,"ĠSuna":11054,"ĠSalem":11055,"ĠSkit":11056,"ĠSumar":11057,"ĠSIEJ":11058,"Ġihi":11059,"Ġiiang":11060,"Ġira":11061,"Ġifa":11062,"Ġijot":11063,"Ġissue":11064,"Ġngdt":11065,"Ġkhri":11066,"Ġshia":11067,"Ġshew":11068,"Ġshep":11069,"Ġshwar":11070,"Ġshnh":11071,"Ġshhiuh":11072,"ĠKash":11073,"amit":11074,"ĠBu":11075,"Ġpynbitar":11076,"ĠHop":11077,"ĠHoid":11078,"ĠHIM":11079,"ĠHynnin":11080,"ĠNel":11081,"ĠNich":11082,"ĠJneng":11083,"ĠJYND":11084,"thlen":11085,"Ġkumnc":11086,"ĠMie":11087,"ĠMember":11088,"ĠLf":11089,"ertain":11090,"ĠTJ":11091,"ĠTc":11092,"ĠTt":11093,"ĠTri":11094,"ĠTung":11095,"ĠTfi":11096,"ĠTre":11097,"ĠTynrong":11098,"ens":11099,"ĠPU":11100,"ĠPba":11101,"ĠPun":11102,"ĠPra":11103,"ĠPhang":11104,"ĠPri":11105,"ĠPlur":11106,"ymbai":11107,"Ġthwet":11108,"Ġthree":11109,"Ġthough":11110,"Ġwid":11111,"ylon":11112,"ĠIQ":11113,"ĠIsh":11114,"ĠIwar":11115,"ĠIwait":11116,"ĠICa":11117,"Ġshish":11118,"ĠDis":11119,"ĠDih":11120,"ĠDuk":11121,"ĠDet":11122,"ĠDik":11123,"ĠDuma":11124,"ĠDOH":11125,"Ġhh":11126,"Ġhew":11127,"ĠRec":11128,"ĠRngiew":11129,"ĠRIEW":11130,"ĠRishot":11131,"Ġsngou":11132,"along":11133,"Ġngak":11134,"khmut":11135,"khlai":11136,"imta":11137,"imat":11138,"Ġnongtei":11139,"Ġnongkyn":11140,"Ġnongioh":11141,"ĠHaog":11142,"epngi":11143,"apt":11144,"apoh":11145,"idia":11146,"ĠAhas":11147,"khain":11148,"Ġmynsien":11149,"Ġmynnyngkong":11150,"Ġbarhem":11151,"âĢĻ\\":11152,"âĢĻâĢĶ":11153,"âĢĻâĢĻ,":11154,"âĢĻ*.":11155,"Ġaim":11156,"Ġaibam":11157,"uben":11158,"Ġsngewskhem":11159,"ipaw":11160,"Ġphn":11161,"Ġphng":11162,"Ġsaja":11163,"ĠNongtrei":11164,"ĠNongpule":11165,"ĠNongjri":11166,"phob":11167,"Ġ310":11168,"Ġjingsmai":11169,"Ġjingshim":11170,"Ġjingshisba":11171,"Ġphab":11172,"Ġphal":11173,"Ġriih":11174,"Ġjaum":11175,"Ġkhunbynriew":11176,"Ġjingkem":11177,"Ġjingktah":11178,"Ġjingklet":11179,"ĠEse":11180,"Ġkanun":11181,"Ġ4000":11182,"asy":11183,"Ġumshit":11184,"Ġdangrit":11185,"Ġdangstep":11186,"ĠCQ":11187,"Ġjingpynr":11188,"Ġjingpynt":11189,"yntri":11190,"Ġown":11191,"Ġkotkhubor":11192,"ĠGOS":11193,"ĠGandhi":11194,"Ġuni":11195,"ire":11196,"ily":11197,"iliang":11198,"ilee":11199,"Ġbunjait":11200,"Ġkliang":11201,"ĠShabong":11202,"ĠShort":11203,"ĠThum":11204,"Ġhangthie":11205,"Ġcl":11206,"Ġculture":11207,"ĠBahadur":11208,"Ġsbna":11209,"Ġkhnium":11210,"Ġpynkiang":11211,"Ġiingkur":11212,"Ġ1829":11213,"ĠVm":11214,"Ġbatch":11215,"ĠMane":11216,"ĠMahat":11217,"Ġriewbha":11218,"Ġriewniam":11219,"ĠOct":11220,"Ġkby":11221,"Ġkbnang":11222,"Ġini":11223,"Ġjingpynksan":11224,"Ġsame":11225,"ĠMawbah":11226,"ĠMawrap":11227,"ĠMawryngk":11228,"stet":11229,"stieh":11230,"bria":11231,"ĠBareb":11232,"Ġryngkuh":11233,"ĠLyngkhom":11234,"ĠSohphan":11235,"ymman":11236,"thain":11237,"Ġpynproh":11238,"ĠKatne":11239,"Ġsohiong":11240,"Ġsohniamtra":11241,"pyni":11242,"igion":11243,"ĠSingular":11244,"ĠFS":11245,"thic":11246,"thiih":11247,"Ġpyh":11248,"Ġpawang":11249,"Ġsbak":11250,"Ġsbabar":11251,"Ġwahbah":11252,"Ġapil":11253,"iwtar":11254,"Ġshynreh":11255,"Ġtyngheng":11256,"tboh":11257,"tbob":11258,"ĠkyU":11259,"Ġkyip":11260,"Ġtbung":11261,"ĠShilot":11262,"Ġpynkhlain":11263,"Ġkbang":11264,"Ġjingbyr":11265,"Ġjingbieit":11266,"Ġjinp":11267,"Ġsyrngi":11268,"Ġjiogs":11269,"Ġjiogim":11270,"ceed":11271,"Ġduwar":11272,"ĠKotbah":11273,"Ġkhatwai":11274,"Ġkyntieo":11275,"Ġlyngkat":11276,"ĠRoom":11277,"ĠBAI":11278,"IET":11279,"Ġpynjlih":11280,"ladc":11281,"kynjah":11282,"Ġsynreit":11283,"Ġjinglyng":11284,"Ġjingloog":11285,"Ġsordar":11286,"ĠSanskrit":11287,"kumno":11288,"Ġ1843":11289,"Ġbyrthen":11290,"Ġlawsan":11291,"ratis":11292,"Ġahu":11293,"Ġspeak":11294,"Ġdienjat":11295,"ĠAbel":11296,"Ġithuhpaw":11297,"kbmat":11298,"Ġ1970":11299,"rant":11300,"Ġjingphoh":11301,"Ġpynhei":11302,"Ġbabu":11303,"Ġbabieit":11304,"suki":11305,"Ġpyntud":11306,"ĠAdjective":11307,"Ġxx":11308,"itive":11309,"Ġkajait":11310,"singh":11311,"1960":11312,"pect":11313,"Ġpynshoh":11314,"ĠMihsnge":11315,"Ġkyndiah":11316,"ĠKharngap":11317,"Ġnotis":11318,"Ġkhadwei":11319,"Ġbajngai":11320,"kyrteng":11321,"Ġramia":11322,"Ġ1961":11323,"thubpaw":11324,"Ġkhynsoit":11325,"ĠPansngiat":11326,"ioxide":11327,"ARY":11328,"ĠPoli":11329,"ĠSarah":11330,"Ġiadih":11331,"Ġjingiasaid":11332,"RAW":11333,"Ġloag":11334,"endent":11335,"ĠJingiaseng":11336,"Ġ1958":11337,"Ġhynrd":11338,"Ġhynrel":11339,"ĠPuriskam":11340,"UNK":11341,"Ġiakhleh":11342,"Ġiakhublei":11343,"ĠMyriaw":11344,"Ġ1871":11345,"Ġ1876":11346,"ĠJingkylli":11347,"Ġplic":11348,"lution":11349,"Ġsngcwbha":11350,"ĠDavies":11351,"ĠTirol":11352,"ĠJapang":11353,"aeus":11354,"Ġagain":11355,"Ġelect":11356,"ĠTral":11357,"Ġmuktiar":11358,"Ġ1889":11359,"Ġkyrtoh":11360,"Ġupon":11361,"Ġbyllien":11362,"ĠKhiistan":11363,"Ġdiksb":11364,"ĠJINGKDEW":11365,"Ġkopi":11366,"Ekie":11367,"Ġjalt":11368,"ĠBuhsing":11369,"ĠLebit":11370,"Ġmusla":11371,"ĠSubasing":11372,"iday":11373,"ĠKHRISTAN":11374,"pylleng":11375,"Ġshaphaog":11376,"ĠTroas":11377,"Ġthiep":11378,"ĠItaly":11379,"Ġyra":11380,"Ġpynitynnad":11381,"Ġpynitynnat":11382,"Ġmarkylliang":11383,"ĠJAIT":11384,"Ġjfng":11385,"Ġtuklar":11386,"Ġshakiar":11387,"ĠCentral":11388,"ĠMilton":11389,"Ġgeneral":11390,"ĠJubilee":11391,"Ġfrien":11392,"Korinth":11393,"February":11394,"PHANG":11395,"bodia":11396,"ĠPYRTHEI":11397,"Ġpresent":11398,"struction":11399,"ĠPalaung":11400,"ĠHenry":11401,"Ġarticle":11402,"ĠSawangka":11403,"shynrut":11404,"Ġnongshohnoh":11405,"ĠEntrance":11406,"Ġoxygen":11407,"ĠNongtalang":11408,"ĠBurakhia":11409,"ĠNonglyngkien":11410,"ĠJYNDEM":11411,"ĠPlural":11412,"!âĢĻ":11413,"*;":11414,"*âĢĶ":11415,",âĢĻâĢĻ":11416,";^":11417,"Ale":11418,"Ani":11419,"Ass":11420,"AIAH":11421,"Bai":11422,"Balang":11423,"Com":11424,"GHA":11425,"Had":11426,"IJ":11427,"Israel":11428,"JER":11429,"LYNG":11430,"MA":11431,"Mai":11432,"Map":11433,"Niam":11434,"NAI":11435,"OD":11436,"On":11437,"Se":11438,"Sn":11439,"So":11440,"Sba":11441,"San":11442,"Scene":11443,"TR":11444,"Tip":11445,"Ug":11446,"Uei":11447,"UID":11448,"Vi":11449,"Vol":11450,"Yn":11451,"^)":11452,"^âĢĻ":11453,"act":11454,"ause":11455,"bm":11456,"bim":11457,"cf":11458,"cal":11459,"cul":11460,"dg":11461,"dl":11462,"fan":11463,"fca":11464,"ged":11465,"hh":11466,"hyn":11467,"hum":11468,"ior":11469,"iiem":11470,"iung":11471,"ithuh":11472,"ius":11473,"jei":11474,"jipt":11475,"kw":11476,"kiang":11477,"koit":11478,"lg":11479,"liah":11480,"min":11481,"ns":11482,"naw":11483,"nim":11484,"nuid":11485,"oj":11486,"ooh":11487,"oda":11488,"pba":11489,"pynd":11490,"pri":11491,"phar":11492,"pro":11493,"rel":11494,"ryngkat":11495,"sob":11496,"slem":11497,"sniang":11498,"self":11499,"tta":11500,"tth":11501,"tait":11502,"uai":11503,"uah":11504,"uir":11505,"vine":11506,"wg":11507,"wor":11508,"Ġien":11509,"Ġkri":11510,"Ġkcin":11511,"nget":11512,"Ġkalong":11513,"Ġkadei":11514,"bali":11515,"Ġbau":11516,"Ġbashi":11517,"Ġbaji":11518,"Ġbahir":11519,"Ġbaieid":11520,"Ġlb":11521,"Ġlun":11522,"Ġlied":11523,"Ġliak":11524,"Ġkiang":11525,"Ġkiin":11526,"Ġkilom":11527,"ialam":11528,"Ġsol":11529,"Ġsurom":11530,"Ġsban":11531,"Ġsion":11532,"Ġsdaog":11533,"Ġjd":11534,"Ġjun":11535,"Ġjiang":11536,"Ġjcng":11537,"Ġjipg":11538,"Ġpii":11539,"Ġple":11540,"Ġpui":11541,"Ġprep":11542,"Ġpdeog":11543,"Ġlaba":11544,"Ġlakh":11545,"Ġlaip":11546,"Ġlalong":11547,"Ġlaog":11548,"Ġlawar":11549,"Ġlathai":11550,"ynsur":11551,"eil":11552,"Ġiajuh":11553,"Ġiakhana":11554,"Ġiathab":11555,"Ġder":11556,"Ġdraw":11557,"Ġdro":11558,"ĠKang":11559,"ĠKeng":11560,"ĠKlong":11561,"ĠKain":11562,"ĠKsaw":11563,"ĠKrishna":11564,"Ġnp":11565,"Ġniah":11566,"Ġniat":11567,"Ġtj":11568,"Ġtna":11569,"Ġtiaw":11570,"Ġtcng":11571,"Ġtoga":11572,"Ġhand":11573,"Ġhate":11574,"Ġboit":11575,"Ġbuin":11576,"Ġbuij":11577,"ohsngew":11578,"Ġjingba":11579,"hipa":11580,"tact":11581,"Ġrj":11582,"Ġrw":11583,"Ġrna":11584,"Ġrwieng":11585,"Ġmur":11586,"Ġmid":11587,"Ġmember":11588,"Ġmkom":11589,"Ġmisteri":11590,"Ġbanang":11591,"atew":11592,"ĠUa":11593,"ĠSit":11594,"ĠSeb":11595,"ĠSEM":11596,"ĠiT":11597,"Ġiyn":11598,"Ġiim":11599,"Ġngaifi":11600,"Ġkhyl":11601,"Ġkhuin":11602,"Ġshrip":11603,"ĠKajang":11604,"aman":11605,"amot":11606,"ĠBong":11607,"ĠBes":11608,"ĠBesli":11609,"Ġpynjakhlia":11610,"Ġdau":11611,"Ġdaog":11612,"Ġshakor":11613,"ĠHip":11614,"yrlong":11615,"Ġlongman":11616,"Ġlongsyiem":11617,"ĠJom":11618,"ĠJiang":11619,"Ġnadiih":11620,"thn":11621,"thias":11622,"ĠMun":11623,"ĠMain":11624,"ĠMib":11625,"ĠLJ":11626,"ĠLuk":11627,"ĠLUM":11628,"ĠLower":11629,"ĠTE":11630,"ĠTon":11631,"ĠTur":11632,"ĠTep":11633,"ĠPeng":11634,"ĠPisa":11635,"ĠPHI":11636,"ĠPlat":11637,"Ġdonhok":11638,"Ġthret":11639,"Ġthrough":11640,"Ġwhere":11641,"isba":11642,"utra":11643,"ĠIG":11644,"ĠIL":11645,"ĠIai":11646,"ĠIda":11647,"ĠIren":11648,"ĠICi":11649,"ynran":11650,"ynrum":11651,"ĠDpei":11652,"Ġhon":11653,"ĠRan":11654,"ĠRem":11655,"ĠRah":11656,"ĠRUK":11657,"Ġsngl":11658,"Ġsngem":11659,"ald":11660,"ihoh":11661,"khynnah":11662,"nos":11663,"ylluid":11664,"ĠHakhmih":11665,"sir":11666,"shakri":11667,"shalai":11668,"Ġkatnc":11669,"apur":11670,"Ġbrlew":11671,"etch":11672,"ĠAU":11673,"Ġmynshisngi":11674,"Ġbaro":11675,"Ġbaron":11676,"Ġbarben":11677,"Ġaifl":11678,"shen":11679,"shlia":11680,"ubei":11681,"Ġphei":11682,"Ġphoh":11683,"Ġsala":11684,"Ġjusti":11685,"ĠNguh":11686,"ĠNongum":11687,"ĠNongkhyr":11688,"ĠNongkhrah":11689,"Ġkyrthep":11690,"Ġaga":11691,"phratis":11692,"Ġnangsan":11693,"Ġarspah":11694,"Ġarsngi":11695,"ĠWol":11696,"Ġshua":11697,"Ġphaidien":11698,"ĠLakhon":11699,"Ġjasong":11700,"Ġthaid":11701,"Ġthamula":11702,"Ġshongnia":11703,"Ġshongblei":11704,"Ġshongneh":11705,"Ġjingkohnguh":11706,"iib":11707,"ĠEsau":11708,"ashi":11709,"asuk":11710,"askos":11711,"Ġjingiak":11712,"Ġjingiabeh":11713,"ĠCath":11714,"fiei":11715,"fice":11716,"lig":11717,"lioh":11718,"Ġooh":11719,"ĠGos":11720,"ĠJingthaw":11721,"ĠJingkhei":11722,"Ġjaitb":11723,"Ġjaituh":11724,"Ġfind":11725,"Ġ5000":11726,"olk":11727,"Ġ'(":11728,"deb":11729,"ĠShip":11730,"ĠShiphew":11731,"ĠShipor":11732,"Ġ1914":11733,"Ġ1921":11734,"Ġklun":11735,"Ġklur":11736,"Ġpyndcp":11737,"ĠShaba":11738,"ĠShaei":11739,"ĠShakhoi":11740,"ĠShylla":11741,"ĠShyntur":11742,"ĠShynrong":11743,"Ġmarpa":11744,"Ġmarble":11745,"ĠThymmei":11746,"ĠThrough":11747,"Ġhangamei":11748,"Ġsahuh":11749,"Ġlyngkhuid":11750,"Ġlyngkhuit":11751,"Ġbymdei":11752,"Ġcf":11753,"Ġcent":11754,"Ġcourse":11755,"Ġpynsng":11756,"Ġpynsyr":11757,"ĠBaiap":11758,"Ġjingtyng":11759,"Ġjingtlot":11760,"edi":11761,"icl":11762,"Ġbamar":11763,"1928":11764,"1930":11765,"1931":11766,"1936":11767,"Ġoffic":11768,"Ġshahe":11769,"Ġshahmudui":11770,"Ġ1832":11771,"ĠOa":11772,"ĠOb":11773,"ĠOp":11774,"Ġlape":11775,"Ġpeitkai":11776,"Ġkbie":11777,"Ġjingpyniap":11778,"Ġjingpynwit":11779,"Ġjingpynthymmai":11780,"Ġlaifi":11781,"ĠMawiang":11782,"ĠMawhat":11783,"ando":11784,"niu":11785,"ĠNaga":11786,"odi":11787,"ĠJongksha":11788,"Ġpakit":11789,"ĠBarshon":11790,"Ġ!âĢĻ":11791,"Ġdakaid":11792,"Ġkitkhia":11793,"ĠSohlang":11794,"ĠSohseng":11795,"iant":11796,"lyer":11797,"Ġstai":11798,"Ġsohkha":11799,"Ġsohsat":11800,"Ġkurup":11801,"babiang":11802,"akut":11803,"ĠManas":11804,"ĠManshuwa":11805,"Ġsuka":11806,"Ġvernacular":11807,"niai":11808,"Ġkynrem":11809,"ĠHadicn":11810,"ordon":11811,"Ġ152":11812,"Ġ153":11813,"Ġ155":11814,"Ġ159":11815,"ĠPyrth":11816,"ĠPyrsa":11817,"ĠPyrdei":11818,"ĠPyrtuh":11819,"Ġkyp":11820,"Ġtbiah":11821,"Ġ171":11822,"Ġkbad":11823,"Ġtraishnong":11824,"Ġjinj":11825,"Ġ203":11826,"Ġ206":11827,"Ġtyrjup":11828,"ftt":11829,"Ġiasngap":11830,"Ġjingiong":11831,"Ġmationg":11832,"Ġjmgleh":11833,"Ġjopg":11834,"Ġjingkhlain":11835,"Ġshipruh":11836,"Ġjingpyrkbat":11837,"Ġtroh":11838,"Ġtroin":11839,"Ġpynryngkang":11840,"jongu":11841,"Ġhiarpateng":11842,"bloi":11843,"ĠBALANG":11844,"piur":11845,"ĠRevised":11846,"Ġhyniei":11847,"Ġhynfliew":11848,"Ġsynrap":11849,"ĠPhone":11850,"ĠPhry":11851,"ĠPhoin":11852,"ĠArmen":11853,"Ġadkar":11854,"Ġ250":11855,"ĠLaitflang":11856,"ĠNalorkata":11857,"Ġpynliem":11858,"Ġpynlip":11859,"tions":11860,"ĠJac":11861,"Ġnongkfiia":11862,"Ġani":11863,"ĠSanhed":11864,"Ġsymg":11865,"Ġjingiapan":11866,"Ġniun":11867,"Ġniynta":11868,"Ġraieh":11869,"lanot":11870,"ĠLapatew":11871,"Ġiamynjur":11872,"Ġbyra":11873,"Ġbyrtong":11874,"Ġdukhi":11875,"ĠEngland":11876,"Ġpynmlien":11877,"Ġbsiat":11878,"Ġahuh":11879,"Ġjingkynud":11880,"Dgew":11881,"Ġbynnew":11882,"LAYA":11883,"tics":11884,"Ġform":11885,"kbu":11886,"kbem":11887,"Ġkmei":11888,"ĠKlew":11889,"Ġ<*":11890,"ĠNongsam":11891,"ĠKyrkhu":11892,"Ġpyntyr":11893,"pyrshah":11894,"Ġjingryntih":11895,"Ġjhieh":11896,"Ġkhyrdong":11897,"ĠKharkongor":11898,"Ġsalonsar":11899,"trhem":11900,"ĠBorabor":11901,"Ġconsonant":11902,"eeee":11903,"Ġluphratis":11904,"Ġ1967":11905,"ĠJehoiak":11906,"shemphang":11907,"Ġ1895":11908,"ĠMorde":11909,"Namjer":11910,"ĠGovt":11911,"Ġpdung":11912,"lood":11913,"Ġiadat":11914,"pression":11915,"ĠMaili":11916,"Ġkeiii":11917,"Ġidt":11918,"Ġjingiasyriem":11919,"Ġloamis":11920,"Ġ1955":11921,"Ġ1959":11922,"ĠSurgeon":11923,"ĠPuriang":11924,"Ġiakhmih":11925,"1983":11926,"Shano":11927,"ĠMinister":11928,"ĠMalngiang":11929,"Ġeducation":11930,"ĠTharai":11931,"ĠKnm":11932,"ĠTaberna":11933,"Ġkylia":11934,"Ġratbah":11935,"Ġkhorsha":11936,"snieu":11937,"Ġmynsiera":11938,"stitute":11939,"Ġrnkom":11940,"Ġpollution":11941,"ĠHamarbabiang":11942,"ĠFirmly":11943,"ĠStates":11944,"ĠMarifi":11945,"ĠPublish":11946,"Ġsyngkieng":11947,"Ġtyngkrein":11948,"Ġeven":11949,"Ġdiksh":11950,"Ġwritten":11951,"khyrwang":11952,"Ġhordang":11953,"ĠOrgan":11954,"Paiem":11955,"Ġmalu":11956,"Ġprek":11957,"ĠSunday":11958,"ĠJaly":11959,"ĠjingYap":11960,"ĠNongkhaii":11961,"Ġjohg":11962,"seisoh":11963,"Ġnomuna":11964,"ĠProfessor":11965,"Ġestab":11966,"Ġjaitbyoriew":11967,"ĠAleksander":11968,"Ġnyngkoog":11969,"Ġinterest":11970,"ĠBapt":11971,"Novel":11972,"Ġbecause":11973,"otestant":11974,"Ġâĺħ":11975,"Hangne":11976,"ĠNowgong":11977,"ĠKhyllew":11978,"ĠOfficer":11979,"ĠPoittri":11980,"ĠAramaik":11981,"Ġstate":11982,"Ġkhynniuh":11983,"ĠCassia":11984,"ĠJingkyrmen":11985,"ĠMethodist":11986,"Ġmajikor":11987,"Ġjymphong":11988,"ĠKunok":11989,"Ġpynsyaid":11990,"Ġiakhalai":11991,"asurer":11992,"ĠCalvinistic":11993,"ĠDarios":11994,"imelek":11995,"Ġbakyrpang":11996,"ĠMelkhisedek":11997,"Ġriphin":11998,"ĠJulius":11999,"Ġcalled":12000,"ĠMaurice":12001,"Ġnainar":12002,"Ġbvnta":12003,"Ġbakongsan":12004,"Ġperiod":12005,"ĠHongmakhroh":12006,"ĠHIMA":12007,"ĠNichols":12008,"ĠGOSPEL":12009,"ĠMahatma":12010,"ĠIrenaeus":12011,"ĠRUKOM":12012,"ĠNongkhyrlem":12013,"ĠSanhedrin":12014,"!\"":12015,"\"*":12016,"'(":12017,"'ll":12018,",)":12019,",**":12020,"/.":12021,"84":12022,"85":12023,"93":12024,";.":12025,"Act":12026,"Bam":12027,"Do":12028,"FM":12029,"Hum":12030,"IK":12031,"India":12032,"Kai":12033,"Kut":12034,"Khar":12035,"Neh":12036,"Nailar":12037,"NENG":12038,"Pud":12039,"Sy":12040,"Sing":12041,"Sam":12042,"Suk":12043,"UL":12044,"\\^":12045,"^>":12046,"aia":12047,"aag":12048,"bid":12049,"bung":12050,"cum":12051,"cih":12052,"cii":12053,"ced":12054,"dii":12055,"fh":12056,"fw":12057,"fem":12058,"ford":12059,"fea":12060,"fipen":12061,"gro":12062,"hn":12063,"kf":12064,"kali":12065,"lb":12066,"lup":12067,"lci":12068,"loog":12069,"loin":12070,"mung":12071,"musa":12072,"non":12073,"nub":12074,"naduh":12075,"oad":12076,"pp":12077,"pep":12078,"poitri":12079,"pnat":12080,"qi":12081,"rog":12082,"rthei":12083,"sol":12084,"sgr":12085,"tJ":12086,"tp":12087,"tie":12088,"tne":12089,"tied":12090,"uf":12091,"zn":12092,"Ġynnai":12093,"Ġoiig":12094,"Ġket":12095,"Ġkfi":12096,"Ġkma":12097,"Ġkrei":12098,"Ġkro":12099,"ngim":12100,"Ġkapten":12101,"baje":12102,"Ġbaia":12103,"Ġbawai":12104,"Ġbashai":12105,"Ġbangeit":12106,"Ġbaiapher":12107,"haduh":12108,"hari":12109,"hania":12110,"Ġkia":12111,"Ġkij":12112,"Ġkiel":12113,"Ġkiau":12114,"Ġkijaka":12115,"iag":12116,"iau":12117,"iano":12118,"iasoh":12119,"Ġsj":12120,"Ġsr":12121,"Ġsen":12122,"Ġsbah":12123,"Ġsymp":12124,"Ġsnob":12125,"Ġsieij":12126,"Ġul":12127,"Ġjc":12128,"Ġjrem":12129,"Ġpber":12130,"Ġpjm":12131,"Ġpilgrim":12132,"Ġlaha":12133,"Ġlaleit":12134,"eift":12135,"Ġiabha":12136,"Ġiamareh":12137,"Ġdiap":12138,"Ġdui":12139,"Ġdib":12140,"Ġdymmiew":12141,"Ġdookam":12142,"Ġdioxide":12143,"ĠKoi":12144,"ĠKein":12145,"ĠKular":12146,"ĠKpong":12147,"ĠKlass":12148,"Ġnf":12149,"Ġns":12150,"Ġnv":12151,"Ġteit":12152,"Ġtynd":12153,"Ġtieh":12154,"Ġtukom":12155,"Ġtraw":12156,"Ġtymm":12157,"Ġtlur":12158,"Ġtest":12159,"Ġtylh":12160,"aiig":12161,"Ġbob":12162,"Ġbinong":12163,"ĠjingV":12164,"Ġjingdeng":12165,"Ġjingogeit":12166,"hium":12167,"hiin":12168,"hikna":12169,"Ġrt":12170,"Ġrait":12171,"Ġrule":12172,"Ġrukor":12173,"aring":12174,"Ġmiar":12175,"Ġmir":12176,"Ġmya":12177,"Ġmga":12178,"Ġbaneng":12179,"ĠUt":12180,"ĠUTh":12181,"ĠSM":12182,"ĠST":12183,"ĠSf":12184,"ĠSyng":12185,"ĠSok":12186,"ĠSiar":12187,"ĠSylli":12188,"ĠStan":12189,"ĠSwet":12190,"ĠSbuh":12191,"ĠSpe":12192,"ĠSIM":12193,"Ġip":12194,"Ġiha":12195,"Ġima":12196,"anji":12197,"Ġngun":12198,"Ġkhv":12199,"Ġkhen":12200,"Ġkhiat":12201,"Ġkhieu":12202,"Ġkhrik":12203,"Ġkhura":12204,"ori":12205,"ors":12206,"Ġshort":12207,"Ġshrut":12208,"ĠKajuh":12209,"ĠKamar":12210,"Ġdaei":12211,"Ġshaph":12212,"Ġshathic":12213,"ĠHew":12214,"ĠHym":12215,"ĠHes":12216,"ĠHvn":12217,"yrta":12218,"ĠNiwtar":12219,"ĠJC":12220,"ĠJul":12221,"ĠJas":12222,"thiew":12223,"ĠMur":12224,"ĠMolar":12225,"ewell":12226,"ĠLba":12227,"ĠLem":12228,"ahem":12229,"unar":12230,"ĠTat":12231,"ĠTym":12232,"ĠTyngk":12233,"ĠTada":12234,"ĠTara":12235,"ĠTaleh":12236,"ĠPon":12237,"ĠPris":12238,"ĠPde":12239,"ĠPein":12240,"ĠPope":12241,"Ġdonkani":12242,"Ġthiem":12243,"Ġthiat":12244,"Ġthning":12245,"Ġwiaw":12246,"ĠIso":12247,"ientific":12248,"Ġshikh":12249,"ĠDum":12250,"ĠDas":12251,"ĠDated":12252,"Ġhj":12253,"Ġhn":12254,"Ġhng":12255,"Ġhyr":12256,"Ġhur":12257,"Ġhud":12258,"ĠRain":12259,"alt":12260,"Ġpator":12261,"Ġpateog":12262,"khlam":12263,"Ġnongth":12264,"Ġnongiat":12265,"Ġnongbatai":12266,"Ġnongshad":12267,"ĠHaka":12268,"sii":12269,"shaphat":12270,"tiei":12271,"Ġbrup":12272,"Ġbriaw":12273,"ett":12274,"ĠAoh":12275,"ĠAug":12276,"ĠAhab":12277,"Ġ:âĢĶ":12278,"Ġmyndai":12279,"Ġbara":12280,"Ġpyrthuh":12281,"Ġpyrwa":12282,"ĠKhaii":12283,"Ġlahduh":12284,"Ġaiwai":12285,"eln":12286,"ella":12287,"Ġ-),":12288,"Ġsngewb":12289,"Ġsngewsh":12290,"Ġsngewlyngngoh":12291,"ĠKhot":12292,"ĠKhub":12293,"ĠKhro":12294,"ĠKhyndew":12295,"Ġphy":12296,"Ġphyl":12297,"Ġphlan":12298,"Ġsaham":12299,"ĠNongrwai":12300,"Ġkyrsan":12301,"riong":12302,"ĠaT":12303,"Ġaong":12304,"Ġaoh":12305,"nas":12306,"Ġ314":12307,"Ġarbynta":12308,"Ġarpor":12309,"Ġkhlieb":12310,"ĠWai":12311,"ĠWhat":12312,"ĠYad":12313,"ĠYalam":12314,"Ġshongsah":12315,"Ġjingkyl":12316,"Ġjingkynrei":12317,"iio":12318,"ĠEbasi":12319,"asaid":12320,"Ġjingial":12321,"Ġjingiakut":12322,"Ġjingiatain":12323,"ĠCat":12324,"ĠCir":12325,"fil":12326,"fiiar":12327,"Ġjingpait":12328,"lich":12329,"Ġmaka":12330,"Ġmaunds":12331,"Ġoamar":12332,"Ġoag":12333,"ĠGom":12334,"ĠGod":12335,"ĠGrad":12336,"ĠJingsh":12337,"ĠJingiarap":12338,"ĠJingbishar":12339,"ĠJingkmen":12340,"Ġfam":12341,"ilem":12342,"ĠShispah":12343,"Ġ1950":12344,"Ġ1949":12345,"Ġklum":12346,"Ġpyndik":12347,"ĠShiah":12348,"ĠThes":12349,"Ġksaifi":12350,"Ġtheu":12351,"Ġ721":12352,"Ġlynghoh":12353,"Ġbymlah":12354,"Ġcur":12355,"Ġcle":12356,"Ġcre":12357,"Ġcrit":12358,"Ġchap":12359,"Ġlanghat":12360,"Ġteb":12361,"ikat":12362,"Ġpynsep":12363,"Ġmana":12364,"Ġborrow":12365,"Ġsnad":12366,"ĠBataw":12367,"Ġbamyn":12368,"Ġsbuti":12369,"Ġpynkbr":12370,"Ġiapler":12371,"Ġ1813":12372,"Ġ1824":12373,"Ġ1834":12374,"Ġ1839":12375,"chnology":12376,"ĠVoh":12377,"Ġbnrom":12378,"ĠMagazine":12379,"Ġriewshai":12380,"Ġlapmiet":12381,"Ġkbiem":12382,"Ġkblieh":12383,"Ġjingpynkhih":12384,"ĠMawjam":12385,"ĠMawsawa":12386,"Ġshisong":12387,"Ġshitylli":12388,"korom":12389,"iapduh":12390,"odom":12391,"odes":12392,"odimos":12393,"Ġryngkhi":12394,"Ġkdat":12395,"Ġkitai":12396,"uifl":12397,"ĠSohpieng":12398,"thala":12399,"Ġjingjai":12400,"Ġjingjaw":12401,"Ġjingjngai":12402,"Ġtreikam":12403,"rektor":12404,"ĠKatb":12405,"Ġstong":12406,"Ġsted":12407,"Ġstudy":12408,"ĠBanm":12409,"Ġsohkh":12410,"Ġjiw":12411,"Ġjirig":12412,"ĠUmsh":12413,"ĠUmtlang":12414,"ĠBahrit":12415,"ramew":12416,"ibng":12417,"ibor":12418,"ĠPros":12419,"Ġjingdiah":12420,"ĠFund":12421,"ĠManager":12422,"Ġktl":12423,"Ġktei":12424,"Ġsbap":12425,"Ġshynrai":12426,"ĠâĢ¢âĢĺ":12427,"Ġtyngkhuh":12428,"Ġiiwei":12429,"Ġlambic":12430,"ngaifi":12431,"Ġiakmen":12432,"laih":12433,"Ġ154":12434,"Ġ157":12435,"ĠPyrtbei":12436,"Ġkyt":12437,"Ġkyiteng":12438,"Ġ172":12439,"Ġ176":12440,"Ġjingbba":12441,"ĠMynstep":12442,"Ġiaiong":12443,"Ġiaioh":12444,"Ġname":12445,"Ġsyar":12446,"Ġgreen":12447,"Ġtyrnem":12448,"Ġplain":12449,"Ġiasei":12450,"ĠPhawer":12451,"ĠKbas":12452,"Ġjingthrang":12453,"Ġjmgshisha":12454,"HAI":12455,"HAR":12456,"Ġ230":12457,"Ġjingkhei":12458,"ĠTeach":12459,"lll":12460,"111":12461,"Ġpynroh":12462,"ĠNovel":12463,"Ġlyngkniap":12464,"diuh":12465,"blci":12466,"ĠBaib":12467,"Ġjingshun":12468,"Ġsynrum":12469,"Ġsynriah":12470,"ĠArphew":12471,"ĠArts":12472,"ĠAryan":12473,"Ġkynthci":12474,"Ġjingkyrshan":12475,"ĠBabha":12476,"ĠRamdat":12477,"ĠKynmau":12478,"oof":12479,"Ġfaa":12480,"Hakhmih":12481,"Ġana":12482,"ĠInjury":12483,"ĠIntroduction":12484,"Ġniynsiem":12485,"ĠAnt":12486,"Ġmeisan":12487,"lyngka":12488,"ĠKHONG":12489,"Ġbyrsieh":12490,"ĠAmir":12491,"Ġweibriew":12492,"Ġjingkynjah":12493,"Ġjainsem":12494,"IAW":12495,"Ġkatoe":12496,"ners":12497,"Ġ1972":12498,".âĢĻ^":12499,"Ġâĸ":12500,"ĠKyrdem":12501,"Ġkhyllip":12502,"Ġpyntyllun":12503,"Ġkune":12504,"Ġkuah":12505,"ĠKhongphai":12506,"Ġjlew":12507,"iakynduh":12508,"1961":12509,"1964":12510,"Ġpohrati":12511,"ĠHADUH":12512,"ĠTimoth":12513,"Ġputhi":12514,"Ġpynshet":12515,"Ġkyndub":12516,"Ġkyndung":12517,"Ġorang":12518,"Ġorig":12519,"ĠKharl":12520,"Ġnote":12521,"siastis":12522,"Ġmyosiem":12523,"Ġdobkba":12524,"kyrmen":12525,"ĠdoD":12526,"Ġdoub":12527,"Ġsaift":12528,"Ġ1965":12529,"Ġ1989":12530,"ORS":12531,"Ġsaitlah":12532,"Ġmaijan":12533,"ĠLibrary":12534,"Ġbtiar":12535,"Ġkbamtam":12536,"ĠKolej":12537,"Ġpdok":12538,"Ġsucc":12539,"Ġlathuhkhana":12540,"ĠSarma":12541,"Ġiadd":12542,"ĠNONGIA":12543,"Ġphyrngab":12544,"ĠIjip":12545,"Ġjingbymngeit":12546,"ĠJini":12547,"ĠJonathan":12548,"Ġjingiasyr":12549,"Ġpbet":12550,"Ġjynsur":12551,"ĠAlphabet":12552,"Ġsioner":12553,"ĠTariang":12554,"Ġsdieh":12555,"wila":12556,"ĠDamaskos":12557,"Ġkyrkait":12558,"ĠPolyc":12559,"jaih":12560,"ĠSnge":12561,"tractor":12562,"Ġsyntuid":12563,"Ġsmeh":12564,"ĠLushai":12565,"kmcn":12566,"ĠDuimon":12567,"tempt":12568,"Ġsoil":12569,"istance":12570,"ĠGreg":12571,"Ġkiimba":12572,"Ġpublic":12573,"Ġlaishah":12574,"Ġhaior":12575,"ĠUnion":12576,"Thei":12577,"bynricw":12578,"Ġpyrdung":12579,"ĠTheisotti":12580,"ĠFrance":12581,"Ġkyrtiang":12582,"ĠHinrei":12583,"Ġkhaila":12584,"ĠKYNTIEN":12585,"ĠJINGSHI":12586,"ĠBosan":12587,"Ġnongiathuhlpa":12588,"trib":12589,"ĠBiskorom":12590,"ĠJiag":12591,"byrsiew":12592,"Ġphrangsngi":12593,"bisba":12594,"ĠtylH":12595,"ĠtylU":12596,"Ġhyntei":12597,"ĠNadub":12598,"Ġtherefore":12599,"yliung":12600,"Ġprefix":12601,"ĠAllen":12602,"ĠMedical":12603,"Ġknown":12604,"ĠMarwein":12605,"Jingkheifi":12606,"ĠMidian":12607,"Ġaccount":12608,"Ġsynniang":12609,"Mrs":12610,"Ġthnom":12611,"ĠUNK":12612,"Ġiasyriim":12613,"Ġrymphum":12614,"Ġkhusnam":12615,"ĠThieddieng":12616,"fidur":12617,"ĠNikodimos":12618,"Ġpyomih":12619,"Ġhaogne":12620,"ĠAfrica":12621,"Ġtliw":12622,"Ġtradition":12623,"Ġlongpiah":12624,"Ġsymphiah":12625,"ĠNongbylla":12626,"ĠCambodia":12627,"SLC":12628,"ĠLiterary":12629,"ĠGerman":12630,"cripts":12631,"ĠJingpyrshang":12632,"ĠLinguistics":12633,"Ġmynsbwa":12634,"Ġmorpheme":12635,"Ġtbaifi":12636,"Ġtista":12637,"ĠEksodos":12638,"Ġabove":12639,"CMFM":12640,"Ġbistori":12641,"shamok":12642,"ĠEvangelist":12643,"ĠGurdon":12644,"ĠRegister":12645,"ĠHopewell":12646,"ĠTribal":12647,"Ġdiksbneri":12648,"ĠLebitik":12649,"Ġhonour":12650,"ĠArmenia":12651,"ĠJacob":12652,"ĠOrganisation":12653,"ĠBaptist":12654,"ĠPolycarp":12655,"'\"":12656,"'>":12657,"*âĢĻ,":12658,",âĢĶ":12659,",*âĢĻ":12660,"-âĢĶ":12661,"/^":12662,"BJ":12663,"Cf":12664,"December":12665,"Hig":12666,"Jm":12667,"Jar":12668,"Jud":12669,"Kur":12670,"Kbasi":12671,"Lai":12672,"Mat":12673,"Maga":12674,"Naituh":12675,"Og":12676,"Or":12677,"Pers":12678,"Sm":12679,"Tien":12680,"TIA":12681,"Tuta":12682,"UA":12683,"UD":12684,"Ue":12685,"Wow":12686,"aong":12687,"bp":12688,"bla":12689,"bul":12690,"beih":12691,"cri":12692,"cus":12693,"dis":12694,"dal":12695,"duit":12696,"doog":12697,"duna":12698,"ex":12699,"fb":12700,"foh":12701,"fla":12702,"fen":12703,"hiaw":12704,"iA":12705,"jra":12706,"jii":12707,"kng":12708,"ket":12709,"lS":12710,"lym":12711,"lud":12712,"liam":12713,"mor":12714,"moit":12715,"num":12716,"nien":12717,"oL":12718,"obah":12719,"pol":12720,"phaios":12721,"rok":12722,"rkhat":12723,"sw":12724,"sum":12725,"set":12726,"suit":12727,"sary":12728,"saifi":12729,"tun":12730,"uii":12731,"uence":12732,"vh":12733,"var":12734,"wiat":12735,"yiat":12736,"|>":12737,"âĻ¦":12738,"Ġklei":12739,"Ġkudi":12740,"Ġkau":12741,"Ġbaha":12742,"Ġbaim":12743,"Ġbato":12744,"Ġbail":12745,"Ġback":12746,"Ġbalyngkot":12747,"Ġbairn":12748,"hak":12749,"Ġlie":12750,"Ġliat":12751,"Ġlymm":12752,"Ġlian":12753,"Ġluin":12754,"Ġlieb":12755,"Ġkil":12756,"Ġkioi":12757,"iaf":12758,"iaag":12759,"iakhi":12760,"iathuhlypa":12761,"Ġskh":12762,"Ġsynrei":12763,"Ġsuwa":12764,"Ġscng":12765,"Ġsieb":12766,"Ġswait":12767,"Ġugi":12768,"ĠjO":12769,"Ġje":12770,"Ġjeng":12771,"Ġjynt":12772,"Ġjlam":12773,"Ġjian":12774,"Ġjrut":12775,"Ġpob":12776,"Ġpiah":12777,"Ġpiat":12778,"Ġpbab":12779,"Ġlata":12780,"Ġlast":12781,"ynthing":12782,"Ġiaieng":12783,"Ġiathiih":12784,"Ġdba":12785,"Ġdti":12786,"Ġdir":12787,"Ġdcm":12788,"Ġdiv":12789,"Ġdicn":12790,"ĠKyl":12791,"ĠKjat":12792,"ĠKya":12793,"ĠKOR":12794,"ĠKura":12795,"iern":12796,"Ġnta":12797,"Ġnano":12798,"Ġtynriew":12799,"Ġtian":12800,"Ġtmar":12801,"Ġture":12802,"Ġhadi":12803,"Ġhasem":12804,"Ġhakhmih":12805,"aiei":12806,"Ġbng":12807,"Ġbukum":12808,"Ġbua":12809,"Ġblood":12810,"ĠjingU":12811,"Ġjingmat":12812,"Ġjingib":12813,"Ġjingpher":12814,"Ġjingujor":12815,"Ġjingshad":12816,"hile":12817,"tabat":12818,"Ġral":12819,"Ġrynn":12820,"Ġrnga":12821,"uhor":12822,"arei":12823,"aram":12824,"Ġmynr":12825,"Ġmieng":12826,"Ġmein":12827,"Ġbaneh":12828,"atba":12829,"atha":12830,"ĠUBlei":12831,"ĠSP":12832,"ĠSS":12833,"ĠSiang":12834,"ĠSiat":12835,"ĠSik":12836,"ĠSdang":12837,"ĠSbi":12838,"ĠSnai":12839,"ĠiC":12840,"Ġiut":12841,"Ġiok":12842,"Ġito":12843,"Ġiynti":12844,"Ġishyrkhei":12845,"ans":12846,"Ġngu":12847,"Ġngub":12848,"Ġkhoi":12849,"Ġkhris":12850,"Ġkhua":12851,"Ġkhfii":12852,"Ġkhutia":12853,"Ġkhyllad":12854,"Ġkhomlong":12855,"orian":12856,"Ġshtah":12857,"Ġshera":12858,"Ġshrup":12859,"amai":12860,"ĠBOR":12861,"ĠBthong":12862,"Ġpynman":12863,"Ġpynshait":12864,"Ġshala":12865,"Ġshaih":12866,"ĠHynriew":12867,"yrthei":12868,"Ġlongjot":12869,"Ġlongkynthei":12870,"ĠNei":12871,"ĠNOH":12872,"ĠJb":12873,"ĠJn":12874,"ĠJyll":12875,"ĠJii":12876,"ĠJtng":12877,"Ġnaug":12878,"thl":12879,"thynriew":12880,"emam":12881,"ĠMyl":12882,"ĠMynr":12883,"ĠMok":12884,"ĠMAT":12885,"ehg":12886,"ĠLn":12887,"ĠLit":12888,"ĠLub":12889,"ĠLAI":12890,"ĠLvng":12891,"erend":12892,"erator":12893,"unction":12894,"ĠTieng":12895,"ĠTAR":12896,"itg":12897,"itw":12898,"ities":12899,"urther":12900,"ĠPis":12901,"ĠPto":12902,"ĠPynt":12903,"ĠPand":12904,"ĠPdit":12905,"Ġthing":12906,"Ġthose":12907,"Ġwiar":12908,"isynei":12909,"yle":12910,"ĠIon":12911,"ĠIra":12912,"ĠIts":12913,"ĠIvng":12914,"Ġngio":12915,"adem":12916,"adbah":12917,"Ġshiih":12918,"Ġshida":12919,"Ġshipa":12920,"Ġshiwa":12921,"Ġshini":12922,"Ġshiban":12923,"Ġshirynieng":12924,"Ġshibiin":12925,"ĠDem":12926,"ĠDes":12927,"ĠDiam":12928,"ĠDga":12929,"ĠDymmiew":12930,"Ġhd":12931,"Ġhynd":12932,"Ġhriew":12933,"Ġhost":12934,"Ġhome":12935,"ĠReng":12936,"ĠRup":12937,"ĠKinc":12938,"ĠKiimta":12939,"yngod":12940,"Ġsngt":12941,"Ġsngow":12942,"Ġpathi":12943,"khn":12944,"khr":12945,"khla":12946,"Ġkyni":12947,"Ġkynph":12948,"Ġkynian":12949,"Ġkynpha":12950,"inam":12951,"inik":12952,"Ġnongrit":12953,"Ġnonglut":12954,"Ġnongnm":12955,"yllut":12956,"sive":12957,"sicw":12958,"sider":12959,"oiy":12960,"shasar":12961,"Ġkatjuh":12962,"ticw":12963,"kajia":12964,"Ġphil":12965,"idoh":12966,"Ġbria":12967,"ulu":12968,"ulia":12969,"ulos":12970,"uller":12971,"ĠAI":12972,"ĠAT":12973,"ĠAph":12974,"ĠAsap":12975,"Ġiohsngcw":12976,"Ġmynwei":12977,"Ġmynshi":12978,"Ġbaroli":12979,"Ġbaranda":12980,"Ġpyrton":12981,"yndur":12982,"ude":12983,"elvine":12984,"Ġwanlam":12985,"Ġsngewlah":12986,"Ġsngewthiang":12987,"Ġsngewthait":12988,"ipi":12989,"ĠKhu":12990,"ĠKhyn":12991,"ĠKhor":12992,"ĠKher":12993,"Ġphe":12994,"Ġpht":12995,"Ġphngit":12996,"ras":12997,"Ġsaem":12998,"ĠNongwei":12999,"ĠNongdeng":13000,"ĠNongrep":13001,"ĠNongsharai":13002,"ĠNongpiur":13003,"ricw":13004,"Ġae":13005,"Ġao":13006,"Ġage":13007,"Ġahap":13008,"Ġauxiliary":13009,"Ġ3000":13010,"Ġnangp":13011,"Ġnangto":13012,"Ġarmet":13013,"mationg":13014,"Ġsnetn":13015,"ĠWith":13016,"Ġjingsbun":13017,"Ġjingsbai":13018,"Ġjingsbisha":13019,"Ġphadar":13020,"Ġlehkmen":13021,"Ġlehrukom":13022,"Ġribaibal":13023,"ĠLas":13024,"ĠLashai":13025,"ĠYear":13026,"Ġshongdor":13027,"Ġjingkynt":13028,"ĠEnd":13029,"ĠEhasi":13030,"ĠEpap":13031,"ĠEGG":13032,"Ġhaphang":13033,"was":13034,"Ġumbar":13035,"Ġdangsah":13036,"Ġjingialeb":13037,"ĠCf":13038,"ĠCap":13039,"ĠCbar":13040,"Ġjingpynduh":13041,"lio":13042,"liei":13043,"liuh":13044,"Ġmaia":13045,"Ġoo":13046,"Ġoad":13047,"ĠGad":13048,"ĠGordon":13049,"ĠJingma":13050,"ĠJingleh":13051,"ĠJingwan":13052,"ĠJingiaid":13053,"Ġtipkha":13054,"irei":13055,"iram":13056,"irit":13057,"ild":13058,"ilai":13059,"desh":13060,"deag":13061,"ĠShish":13062,"Ġ191":13063,"Ġ1900":13064,"Ġ1912":13065,"Ġ1927":13066,"Ġklep":13067,"Ġklct":13068,"ĠShar":13069,"ĠShat":13070,"ĠShaduh":13071,"ĠShyieng":13072,"Ġmarkhmat":13073,"Ġmaramot":13074,"ĠThiah":13075,"ĠThup":13076,"ĠRichar":13077,"ngiit":13078,"ngewthuh":13079,"Ġimp":13080,"Ġ700":13081,"Ġbymgem":13082,"Ġchi":13083,"Ġcat":13084,"Ġchang":13085,"Ġclass":13086,"Ġtoday":13087,"Ġteog":13088,"Ġpynstad":13089,"Ġpynsneng":13090,"Ġpynsawa":13091,"Ġborti":13092,"Ġsnieb":13093,"ĠBaa":13094,"Ġdiengph":13095,"Ġdiengpai":13096,"Ġdiengkhun":13097,"Ġdiengshat":13098,"icj":13099,"icraft":13100,"Ġ843":13101,"Ġpynkren":13102,"Ġpynklet":13103,"Ġiapah":13104,"Ġiapule":13105,"Ġshempap":13106,"Ġ1831":13107,"ĠVal":13108,"Ġbncng":13109,"ĠMak":13110,"ĠOQ":13111,"ĠOo":13112,"ĠOphi":13113,"ĠOld":13114,"ĠOaro":13115,"ĠObed":13116,"Ġskuin":13117,"ĠTraining":13118,"Ġkbiew":13119,"Ġkbwai":13120,"Ġkbyndai":13121,"Ġkblaw":13122,"Ġjingpyns":13123,"Ġjingpynshai":13124,"Ġjingpynshoi":13125,"ĠMawrong":13126,"ĠMawlieh":13127,"athoh":13128,"kordit":13129,"Ġmawlyngkniap":13130,"Ġmawbyrsiew":13131,"ĠNajir":13132,"odg":13133,"Ġpata":13134,"Ġpatar":13135,"ĠBarm":13136,"ĠSohm":13137,"ymmal":13138,"thari":13139,"Ġdeath":13140,"ians":13141,"rec":13142,"rey":13143,"Ġpynpur":13144,"Ġpynpeit":13145,"Ġste":13146,"Ġsohriew":13147,"Ġjine":13148,"Ġjibg":13149,"jingpyn":13150,"ĠUmeit":13151,"ĠUmling":13152,"cts":13153,"rament":13154,"igew":13155,"aging":13156,"ĠPrin":13157,"ĠPrinted":13158,"ĠPredicate":13159,"ĠFrom":13160,"ĠFuller":13161,"ĠMekedonia":13162,"Ġiarung":13163,"Ġpyrshab":13164,"Ġ1400":13165,"Ġlyoti":13166,"Ġpyil":13167,"Ġktiar":13168,"Ġsbaw":13169,"Ġsbaduh":13170,"Ġsbakri":13171,"Ġleii":13172,"Ġpynbieit":13173,"Ġvn":13174,"Ġvar":13175,"ngaih":13176,"Ġpalwan":13177,"Ġiakiew":13178,"Ġiaksaid":13179,"Ġtala":13180,"Ġtakor":13181,"order":13182,"Ġ1500":13183,"Ġkyh":13184,"Ġityn":13185,"Ġtbymmei":13186,"Ġ175":13187,"Ġ177":13188,"Ġ179":13189,"Ġraifi":13190,"Ġsyrngu":13191,"Ġjiogia":13192,"Ġjiogrwai":13193,"ĠTanghat":13194,"Ġnampliang":13195,"Ġgi":13196,"Ġ,.":13197,"Ġ207":13198,"Ġ2010":13199,"lapalang":13200,"Ġtyrpad":13201,"Ġnoble":13202,"Ġiasnoh":13203,"Ġjmghikai":13204,"Ġjmgsngew":13205,"Kiba":13206,"ĠKamrup":13207,"karo":13208,"Ġprov":13209,"Ġprinted":13210,"Ġkhatdub":13211,"Ġjingkhmih":13212,"Ġshiplin":13213,"Ġjingpyrsad":13214,"ksai":13215,"Ġtreng":13216,"Ġkyntur":13217,"ĠjaiS":13218,"Ġjaif":13219,"ustom":13220,"ĠAssoc":13221,"ĠNoag":13222,"jongka":13223,"Ġhere":13224,"ĠBAR":13225,"Ġbehmrad":13226,"Ġref":13227,"Ġyi":13228,"Ġjahburom":13229,"Ġlymph":13230,"ĠReverend":13231,"Ġpaitpuraw":13232,"Ġhynhiew":13233,"Ġhadicn":13234,"ĠArja":13235,"Ġkajingiadei":13236,"Ġkynthong":13237,"Ġlinen":13238,"Ġduman":13239,"Ġdumbuit":13240,"Ġmoina":13241,"Ġrynsieh":13242,"ktieh":13243,"ĠLaitlyngkot":13244,"Ġjingleb":13245,"ĠRamdait":13246,"Ġpynleng":13247,"ĠKyntien":13248,"ĠRoyal":13249,"Ġtapmoh":13250,"ĠJuda":13251,"Ġnongkylla":13252,"ĠTiewkulab":13253,"Ġiewbih":13254,"ĠRoberta":13255,"Ġrayn":13256,"ĠAny":13257,"lano":13258,"Ġbegin":13259,"Ġbesili":13260,"ellow":13261,"ĠJINGJ":13262,"estry":13263,"**,":13264,"ĠMathi":13265,"Ġthanda":13266,"lyngsk":13267,"ĠDiengdob":13268,"Ġbyrsaw":13269,"Ġbyrsit":13270,"Ġbyrngia":13271,"ĠAmjad":13272,"ĠAmalek":13273,"ttt":13274,"Ġnongshet":13275,"rate":13276,"ekshon":13277,"Ġsapra":13278,"Ġjainspong":13279,"Ġarty":13280,"Ġpapa":13281,"Ġpaper":13282,"kbie":13283,"ĠShaina":13284,"ĠMynteng":13285,"Ġkjor":13286,"Ġraidam":13287,"ĠDabor":13288,"Ġbabud":13289,"Ġsuhthied":13290,"Ġshangkhawiah":13291,"ĠSynjuk":13292,"ĠNongspung":13293,"Ġslip":13294,"Ġkhylliap":13295,"AID":13296,"Ġ/.":13297,"ffer":13298,"Ġlear":13299,"Ġlean":13300,"pej":13301,"ront":13302,"usiness":13303,"Ġkhyrmet":13304,"Ġkyndiap":13305,"Ġsuitwai":13306,"ĠHebron":13307,"BAD":13308,"Ġjyrsieh":13309,"ĠBatai":13310,"ĠSyrtap":13311,"ĠBorjod":13312,"Ġpynshaiong":13313,"Ġ608":13314,"Ġcontact":13315,"Ġahaphang":13316,"ĠsaiS":13317,"Ġsadhai":13318,"Ġ1962":13319,"ĠJehoiakhi":13320,"Ġkhapngiah":13321,"ĠRaj":13322,"ĠCommis":13323,"Nampliang":13324,"ĠService":13325,"ĠGoshen":13326,"ĠNamsarang":13327,"Ġiatylli":13328,"ĠHome":13329,"ĠHomi":13330,"ĠPoet":13331,"aaa":13332,"Ġsuih":13333,"ĠConstan":13334,"ĠConference":13335,"ĠNONGP":13336,"inting":13337,"Ġ444":13338,"Ġjingbymkohnguh":13339,"ĠNongtem":13340,"Ġmyrlem":13341,"Ġmyrlah":13342,"Ġmyrjah":13343,"meo":13344,"Ġkiwoi":13345,"ĠJingpynbynta":13346,"Ġ457":13347,"olic":13348,"ĠRymnong":13349,"ĠAlpha":13350,"ĠAlphaios":13351,"ĠSita":13352,"Ġsoda":13353,"Ġryngwiang":13354,"endro":13355,"Ġbeing":13356,"Ġbeifl":13357,"ĠKhambun":13358,"Ġlittle":13359,"rington":13360,"khaios":13361,"Ġnongaplangbrot":13362,"Ġpyrthd":13363,"ĠMyrlem":13364,"Ġ1870":13365,"mynsaw":13366,"samthiah":13367,"ĠRiewstad":13368,"ĠSangka":13369,"ĠSngewsynei":13370,"plied":13371,"ĠBirbah":13372,"ĠReuben":13373,"pujari":13374,"Ġsngcwthuh":13375,"Ġryog":13376,"tiehjer":13377,"ĠMalai":13378,"ymgah":13379,"Ġkheifl":13380,"Ġkheift":13381,"nlow":13382,"ĠMasulman":13383,"ĠRyngkoh":13384,"ĠJames":13385,"ĠKyllum":13386,"ĠHealth":13387,"Ġbadonburom":13388,"ĠMemorial":13389,"Ġpulpit":13390,"ĠKyndeh":13391,"ĠAndrew":13392,"Ġ1887":13393,"ĠOffice":13394,"Ġkurata":13395,"ĠZe":13396,"Ġmangi":13397,"ĠPamlat":13398,"ĠKurim":13399,"Ġkutnne":13400,"Ġmgiew":13401,"Ġpynthame":13402,"lhei":13403,"ween":13404,"Ġ1998":13405,"ĠBoss":13406,"Ġkunino":13407,"ĠDAK":13408,"ĠDoor":13409,"Sohseng":13410,"ĠBisei":13411,"unior":13412,"ĠBalaog":13413,"Ġsianti":13414,"khyrdop":13415,"Ephesos":13416,"Ġjittg":13417,"ĠKaleb":13418,"Ġsanium":13419,"ĠlUtab":13420,"olden":13421,"Ġshniah":13422,"Naiwieng":13423,"ĠKapemam":13424,"Ġmusul":13425,"Ġmynhynnin":13426,"ĠCitizens":13427,"ĠKharakor":13428,"wallam":13429,"ĠNadien":13430,"Ġkeep":13431,"Ġfiiuh":13432,"Ġiapyrshang":13433,"Ġnadnh":13434,"Ġlehraifl":13435,"Ġbalci":13436,"Ġjingsyier":13437,"ĠScotland":13438,"Ġnyog":13439,"ĠiQm":13440,"pasiaw":13441,"YLLI":13442,"ymbuin":13443,"ĠNgapkynta":13444,"ĠDenz":13445,"Ġmaubah":13446,"Ġjaitbyariew":13447,"Ġrymmiang":13448,"rynghep":13449,"ĠUssaiah":13450,"Ġshnoog":13451,"Ġjaitbynricw":13452,"Ġcollege":13453,"Ġsonnet":13454,"Ġpyomib":13455,"ĠSonnet":13456,"ĠMnken":13457,"Ġbapawnam":13458,"Kanaan":13459,"ĠMEGHA":13460,"ĠDelhi":13461,"ĠWorld":13462,"ĠSnakon":13463,"ĠPukri":13464,"ĠAkwila":13465,"gotha":13466,"Ġpoittri":13467,"Ġdkhew":13468,"Ġfiiangthoh":13469,"ĠSAJER":13470,"ĠJumla":13471,"Ġcounter":13472,"Ġrakom":13473,"Ġkynkiak":13474,"raphew":13475,"ĠSDB":13476,"ĠTiehpongdeng":13477,"Ġjingtrci":13478,"ĠJINGRWAI":13479,"ĠHilkaiah":13480,"ĠNasareth":13481,"ĠNongthyrlong":13482,"ĠChandra":13483,"EKT":13484,"ĠSviem":13485,"ĠBrownlow":13486,"ĠThapbawa":13487,"Ġsngewlehrain":13488,"ĠAntiokhos":13489,"Ġbapaka":13490,"ĠJustman":13491,"Ġpynkhyllem":13492,"Ġrequest":13493,"lymboit":13494,"ĠTigris":13495,"Ġriewdonburom":13496,"evelopment":13497,"ĠBuddha":13498,"ĠDeuteronomi":13499,"Ġbuskit":13500,"Ġrawon":13501,"Ġphnieng":13502,"ceeding":13503,"ĠBAIBL":13504,"ĠKengnap":13505,"Ġmembers":13506,"ĠPlato":13507,"Ġofficial":13508,"ĠPhrygia":13509,"Ġsymgiew":13510,"ĠMordekai":13511,"ĠJalyeit":13512,"Ġhostel":13513,"elvinell":13514,"ĠEpaph":13515,"lyngskaw":13516,"ĠBorjodhon":13517,"ĠMEGHALAYA":13518,"!.":13519,"'âĢĻ.":13520,")Â»":13521,"-~":13522,";,":13523,"Aw":13524,"Ang":13525,"BM":13526,"Bg":13527,"Biew":13528,"DE":13529,"Di":13530,"Dent":13531,"DON":13532,"EJ":13533,"IC":13534,"It":13535,"Jt":13536,"Jit":13537,"Jin":13538,"Kal":13539,"Kylla":13540,"Klas":13541,"Lum":13542,"Leit":13543,"Lait":13544,"Lber":13545,"LIA":13546,"MAW":13547,"Nang":13548,"Niang":13549,"Pleng":13550,"Prob":13551,"Res":13552,"RIA":13553,"REP":13554,"Sia":13555,"Sot":13556,"Shuh":13557,"Tam":13558,"UJ":13559,"Uh":13560,"Uai":13561,"Uon":13562,"^;":13563,"ac":13564,"aei":13565,"aai":13566,"ala":13567,"ash":13568,"aog":13569,"acy":13570,"bw":13571,"bil":13572,"bteng":13573,"bour":13574,"cong":13575,"cis":13576,"com":13577,"eag":13578,"gp":13579,"hV":13580,"hd":13581,"ix":13582,"ila":13583,"jy":13584,"jmg":13585,"jaifi":13586,"kik":13587,"kyllon":13588,"ming":13589,"mem":13590,"mir":13591,"nom":13592,"nieu":13593,"oD":13594,"oang":13595,"oiew":13596,"oih":13597,"pw":13598,"puk":13599,"ply":13600,"qh":13601,"qp":13602,"rd":13603,"rg":13604,"rl":13605,"rid":13606,"rop":13607,"ruid":13608,"ried":13609,"ruit":13610,"rcn":13611,"rymbai":13612,"syntiew":13613,"sngap":13614,"tla":13615,"uei":13616,"uing":13617,"uar":13618,"viii":13619,"vement":13620,"woi":13621,"ying":13622,"yang":13623,"yii":13624,"|.":13625,"âĤ¬":13626,"Ġ#":13627,"Ġos":13628,"Ġkla":13629,"Ġkoi":13630,"Ġkra":13631,"Ġkdong":13632,"Ġkylh":13633,"Ġkflia":13634,"Ġkymgah":13635,"Ġkaai":13636,"Ġkarn":13637,"Ġkapor":13638,"balei":13639,"basia":13640,"Ġbati":13641,"Ġbash":13642,"Ġbatal":13643,"Ġlii":13644,"Ġlev":13645,"Ġlow":13646,"iajer":13647,"iaiig":13648,"ĠsM":13649,"Ġsf":13650,"Ġsicn":13651,"Ġsuifi":13652,"Ġuha":13653,"Ġjic":13654,"Ġjawa":13655,"Ġjrain":13656,"Ġjpng":13657,"Ġpm":13658,"Ġpt":13659,"Ġpia":13660,"Ġprai":13661,"Ġpni":13662,"Ġprem":13663,"Ġpnar":13664,"Ġpjah":13665,"Ġpej":13666,"Ġlaia":13667,"Ġlanujor":13668,"ynsbar":13669,"Ġiatai":13670,"Ġdut":13671,"Ġdin":13672,"Ġdkai":13673,"Ġdkhi":13674,"Ġdiing":13675,"Ġdcp":13676,"Ġdpn":13677,"ĠKM":13678,"ĠKnia":13679,"ĠKfl":13680,"ĠKsih":13681,"ĠKUR":13682,"ĠKulai":13683,"Ġnyr":13684,"Ġnok":13685,"Ġnil":13686,"Ġnoiig":13687,"Ġts":13688,"Ġtri":13689,"Ġtas":13690,"Ġtil":13691,"Ġtch":13692,"Ġtlem":13693,"Ġtell":13694,"Ġtynrong":13695,"aiu":13696,"ained":13697,"Ġbadonkam":13698,"Ġbot":13699,"Ġbip":13700,"Ġbch":13701,"Ġbft":13702,"Ġbea":13703,"Ġblaw":13704,"Ġblab":13705,"Ġbull":13706,"Ġjingang":13707,"Ġjingii":13708,"Ġjinglam":13709,"Ġjingrem":13710,"Ġjingwit":13711,"Ġjingrisa":13712,"tack":13713,"Ġrut":13714,"Ġrynd":13715,"Ġrein":13716,"Ġred":13717,"Ġrui":13718,"Ġrian":13719,"Ġrhai":13720,"Ġrev":13721,"Ġrhah":13722,"Ġrngat":13723,"Ġrashi":13724,"arang":13725,"arding":13726,"Ġmod":13727,"Ġmish":13728,"Ġmig":13729,"Ġmss":13730,"Ġmiw":13731,"Ġbani":13732,"ater":13733,"atur":13734,"atip":13735,"atic":13736,"ĠUD":13737,"ĠUr":13738,"ĠSK":13739,"ĠSien":13740,"ĠSkai":13741,"ĠSLA":13742,"ĠSee":13743,"ĠScript":13744,"ĠSodom":13745,"ĠiJ":13746,"ĠiS":13747,"Ġiy":13748,"Ġiop":13749,"Ġishong":13750,"anah":13751,"Ġngia":13752,"Ġngar":13753,"Ġnguk":13754,"Ġkhe":13755,"Ġkhul":13756,"Ġkhmi":13757,"orts":13758,"ories":13759,"ĠKalat":13760,"Ġ('":13761,"Ġ(.":13762,"ĠBrai":13763,"Ġpynni":13764,"Ġpynjan":13765,"Ġpyntb":13766,"Ġpynpher":13767,"Ġpynngam":13768,"Ġpynlamwir":13769,"Ġdaka":13770,"Ġdalade":13771,"Ġsharat":13772,"ĠHun":13773,"ĠHic":13774,"ĠHill":13775,"yrshang":13776,"Ġlonging":13777,"Ġlongka":13778,"Ġlongsan":13779,"Ġlongrangbah":13780,"Ġlongryn":13781,"Ġlongrta":13782,"Ġlongbnew":13783,"ĠNeng":13784,"ĠNations":13785,"ĠJO":13786,"ĠJS":13787,"ĠJy":13788,"ĠJun":13789,"Ġnab":13790,"Ġnakra":13791,"thor":13792,"thrang":13793,"emat":13794,"ĠMvn":13795,"ĠLim":13796,"ĠLamar":13797,"ĠLand":13798,"ĠLine":13799,"ĠLEH":13800,"ĠLYNG":13801,"ĠLieut":13802,"ĠLidia":13803,"ert":13804,"ĠThar":13805,"ĠThai":13806,"itm":13807,"itynnat":13808,"ury":13809,"ĠPei":13810,"ĠPyng":13811,"ĠPab":13812,"ĠPeij":13813,"ĠPleng":13814,"awbei":13815,"Ġthlia":13816,"Ġwaifi":13817,"ĠIi":13818,"ĠIba":13819,"ĠIam":13820,"ĠIla":13821,"ĠImg":13822,"ĠIss":13823,"ĠIcm":13824,"ĠIcng":13825,"ĠIhoh":13826,"ott":13827,"adi":13828,"ĠDim":13829,"ĠDkhi":13830,"ĠDeterminer":13831,"ĠDhaka":13832,"omen":13833,"Ġhier":13834,"Ġhvn":13835,"ĠRing":13836,"ĠReh":13837,"ĠReb":13838,"ĠRngai":13839,"ĠRyndang":13840,"ĠRUH":13841,"aly":13842,"ally":13843,"ihia":13844,"ihun":13845,"Ġdein":13846,"khy":13847,"khien":13848,"khung":13849,"khriat":13850,"nod":13851,"Ġnonghi":13852,"Ġnongban":13853,"Ġnongthung":13854,"Ġnongdih":13855,"yllie":13856,"yllen":13857,"Ġkaneka":13858,"side":13859,"shab":13860,"shaw":13861,"shano":13862,"shara":13863,"Ġkatha":13864,"tice":13865,"kak":13866,"kas":13867,"idon":13868,"idan":13869,"Ġbrip":13870,"Ġbrik":13871,"ulong":13872,"ĠAde":13873,"ĠAson":13874,"ĠAcc":13875,"khaia":13876,"Ġnear":13877,"Ġmyna":13878,"Ġmyntor":13879,"Ġmynshem":13880,"Ġbarum":13881,"Ġpyra":13882,"ĠKhap":13883,"âĢĿ(":13884,"Ġhist":13885,"oki":13886,"Ġsngewl":13887,"Ġsngewkhia":13888,"Ġsngewsib":13889,"ĠKhriang":13890,"Ġphum":13891,"Ġphct":13892,"Ġphngain":13893,"osing":13894,"osed":13895,"ĠNongri":13896,"Ġkyrieng":13897,"Ġkyrbai":13898,"Ġkyrshah":13899,"rich":13900,"Ġata":13901,"phie":13902,"phiah":13903,"Ġ311":13904,"Ġ313":13905,"ogh":13906,"ogta":13907,"iarg":13908,"Ġnangjur":13909,"Ġarta":13910,"ĠWaw":13911,"ĠWet":13912,"ĠWAH":13913,"ĠWords":13914,"opi":13915,"opo":13916,"Ġjingsong":13917,"Ġjingseng":13918,"ĠYM":13919,"ĠYar":13920,"Ġthaia":13921,"Ġshonghok":13922,"Ġshongsbai":13923,"Ġjingkam":13924,"Ġjingkyndit":13925,"ĠEnok":13926,"way":13927,"asan":13928,"Ġjingiad":13929,"Ġjingiat":13930,"Ġjingiatbuh":13931,"Ġjingiakhleh":13932,"Ġjingiakajia":13933,"ĠCopy":13934,"Ġjingpynroi":13935,"Ġbhai":13936,"yntiat":13937,"lil":13938,"light":13939,"Ġmaki":13940,"ĠGid":13941,"ĠGide":13942,"ĠJingkyn":13943,"ĠJingkhein":13944,"Ġfo":13945,"Ġfoh":13946,"Ġfoot":13947,"ilang":13948,"Ġkumban":13949,"olin":13950,"reifi":13951,"Ġ'\"":13952,"Ġ'âĢ¢":13953,"ĠShibun":13954,"Ġ1948":13955,"Ġkliaw":13956,"abs":13957,"ĠShal":13958,"Ġmarsyndah":13959,"ĠThwei":13960,"ĠThung":13961,"Ġksbaid":13962,"Ġbuhnud":13963,"Ġtheology":13964,"Ġhangtei":13965,"Ġimpor":13966,"Ġ748":13967,"Ġdohoud":13968,"ĠâĢĻ*":13969,"Ġlyngngeit":13970,"Ġbymngeit":13971,"Ġcop":13972,"ikar":13973,"Ġpynsoh":13974,"Ġpynsuh":13975,"Ġpynsyriem":13976,"Ġpynsting":13977,"Ġmania":13978,"Ġborobor":13979,"ĠBaba":13980,"Ġdiengsan":13981,"Ġjingttei":13982,"lore":13983,"ick":13984,"saiab":13985,"ebion":13986,"Ġpynkohnguh":13987,"Ġpynkhib":13988,"1910":13989,"1941":13990,"1938":13991,"Ġoff":13992,"Ġsawar":13993,"NGI":13994,"Ġjingmutdur":13995,"Ġiaphai":13996,"Ġ1830":13997,"Ġ1854":13998,"chem":13999,"chee":14000,"ĠVL":14001,"ĠVillages":14002,"Ġbnoh":14003,"ĠMarang":14004,"ĠMartin":14005,"oned":14006,"ĠMaba":14007,"Ġriewthma":14008,"Ġriewsaid":14009,"ĠOm":14010,"ĠOme":14011,"ĠOwen":14012,"Ġsker":14013,"Ġlapyn":14014,"Ġlapbah":14015,"Ġbaher":14016,"kila":14017,"Ġkbl":14018,"Ġkbon":14019,"Ġkbein":14020,"Ġint":14021,"Ġinynsiem":14022,"Ġinfin":14023,"Ġsamr":14024,"Ġsamia":14025,"Ġsamhoi":14026,"ĠMawmih":14027,"stew":14028,"Ġshisur":14029,"nig":14030,"nium":14031,"Ġshitbi":14032,"iapom":14033,"ĠIdon":14034,"Ġpakha":14035,"Ġlaitlan":14036,"ĠSohkh":14037,"ietnam":14038,"Ġjingjur":14039,"ished":14040,"Â«.":14041,"Â«^":14042,"Ġpynpule":14043,"Ġthawlang":14044,"Ġstein":14045,"Ġstrong":14046,"Ġsohm":14047,"ently":14048,"ĠUmph":14049,"ĠUmbloi":14050,"ĠYalap":14051,"Ġmeter":14052,"ĠBahok":14053,"Ġkurano":14054,"agement":14055,"ĠPrep":14056,"ĠProv":14057,"ĠProtestant":14058,"mgdoh":14059,"ĠFOR":14060,"ions":14061,"ĠManai":14062,"ĠManang":14063,"Ġlyo":14064,"Ġpyap":14065,"ndep":14066,"Ġktn":14067,"Ġsbaba":14068,"Ġwahdiang":14069,"Ġwahrit":14070,"biw":14071,"ĠDacca":14072,"ĠâĢ¢âĢ¢âĢ¢":14073,"Ġvis":14074,"Ġvvat":14075,"Ġtyngshaifi":14076,"Ġiiiew":14077,"Ġiakylli":14078,"Ġiaknieh":14079,"ordin":14080,"fluence":14081,"Ġkyat":14082,"Ġtbe":14083,"sohmoh":14084,"Ġpynkheih":14085,"Ġ173":14086,"Ġ174":14087,"Ġraij":14088,"Ġrail":14089,"Ġkhinat":14090,"ĠMynsngi":14091,"Ngim":14092,"Ġjiogsngew":14093,"Ġjiogpyr":14094,"Ġsyor":14095,"Ġdubasia":14096,"Ġtyrsiang":14097,"ĠKbana":14098,"Ġkaiie":14099,"Ġjmgrwai":14100,"Ġnongpyntngen":14101,"Kitab":14102,"Ġingkhong":14103,"karn":14104,"Ġ222":14105,"Ġprie":14106,"Ġ\"'":14107,"Ġkhatsaw":14108,"Ġnoug":14109,"Ġpynran":14110,"Ġisait":14111,"Ġlyngkba":14112,"Ġbitor":14113,"ĠHati":14114,"ĠHates":14115,"ĠSte":14116,"ĠStory":14117,"diei":14118,"Ġjingtreikam":14119,"ĠBAH":14120,"ĠSawkur":14121,"IEU":14122,"Ġattempt":14123,"Ġpynjia":14124,"Ġpynjur":14125,"Ġpaitsan":14126,"Ġhynid":14127,"ĠArch":14128,"ĠAruna":14129,"Ġkynthet":14130,"ĠNongkyllep":14131,"Ġsynfiia":14132,"Ġsynfiiang":14133,"Ġmoo":14134,"Ġryniot":14135,"kthang":14136,"ĠLaitsoh":14137,"ĠLaitksan":14138,"ĠLaitlyngka":14139,"Ġjinglch":14140,"Ġbyin":14141,"Ġbyata":14142,"Ġbyterian":14143,"ĠRamak":14144,"ĠJINO":14145,"ĠKynsan":14146,"Ġrangsamla":14147,"ĠHynniewtrep":14148,"Ġnongkyr":14149,"ĠInformation":14150,"ĠInspector":14151,"phaog":14152,"Ġjingmynjur":14153,"Ġniih":14154,"Ġraynta":14155,"Ġraynsiem":14156,"Ġiamai":14157,"ĠJINGLA":14158,"ĠMatta":14159,"ĠMatbaios":14160,"katno":14161,"Ġnongsaid":14162,"ĠKHL":14163,"ĠKHYNN":14164,"ĠKHMAT":14165,"Ġbyrngut":14166,"Ġkhaweit":14167,"ttr":14168,"ĠSahn":14169,"Ġalhia":14170,"Ġlawdaija":14171,"Ġjainkup":14172,"Ġkawiat":14173,"ĠKana":14174,"Ġnongbeh":14175,"Ġnongbylla":14176,"Ġkhohram":14177,"Ġtamsneng":14178,"Ġtamasa":14179,"Ġbynmen":14180,"Ġbynshet":14181,"kbiew":14182,"Ġkmn":14183,"ĠMyntdu":14184,"Ġsince":14185,"ĠKliar":14186,".âĢĻâĢĻ":14187,"ĠSaitsoh":14188,"Ġlewrynghep":14189,"Ġphewse":14190,"eader":14191,"Ġlyngkhai":14192,"Ġshetja":14193,"ĠTawang":14194,"ialok":14195,"ĠSyic":14196,"ĠKite":14197,"Ġkhyllem":14198,"Ġpyntngit":14199,"EIN":14200,"Ġxii":14201,"ĠKhongpong":14202,"ĠAssamia":14203,"Ġpudka":14204,"Ġniewtang":14205,"Ġheart":14206,"Ġsaro":14207,"ffat":14208,"Ġogin":14209,"Lashai":14210,"phira":14211,"siewspah":14212,"Ġpasiang":14213,"ĠKharmih":14214,"erbih":14215,"Ġkunai":14216,"Ġkhadsan":14217,"Ġbajwat":14218,"Ġmind":14219,"Ġmining":14220,"Ġminister":14221,"ĠHynhiew":14222,"ĠWanphet":14223,"ĠWankhmah":14224,"ĠBormanik":14225,"Ġcontin":14226,"Ġconsider":14227,"riage":14228,"Ġ1968":14229,"Ġ1969":14230,"ĠJehoshaphat":14231,"Ġkhapnap":14232,"Ġ1892":14233,"ĠRash":14234,"ĠPalat":14235,"ĠPales":14236,"ĠCommission":14237,"yngngor":14238,"Ġiatyngkhuh":14239,"Ġbtiew":14240,"lyngknot":14241,"ĠPoem":14242,"Ġsuwar":14243,"ĠJosiah":14244,"Ġpeiphang":14245,"Ġshyra":14246,"ishan":14247,"Ġphyrngap":14248,"ĠMairom":14249,"Ġkeiil":14250,"ĠMyllep":14251,"Ġranap":14252,"Ġjingiasnoh":14253,"ERN":14254,"Ġjawdud":14255,"Ġabout":14256,"ĠBloi":14257,"Ġliaba":14258,"Ġbynrel":14259,"ĠTarap":14260,"Ġkalain":14261,"Ġsder":14262,"ĠJingiathuhlypa":14263,"Ġ1957":14264,"ISHAR":14265,"ĠLawkyntang":14266,"ĠPurim":14267,"pbra":14268,"pbob":14269,"ĠMyrmiet":14270,"ĠLatuba":14271,"ĠPassah":14272,"ĠMoffat":14273,"ĠRiewngeit":14274,"1987":14275,"ĠXXV":14276,"Sheila":14277,"ĠJingkoit":14278,"ĠSngewsih":14279,"Ġenc":14280,"Ġboth":14281,"Ġboeng":14282,"ĠLuther":14283,"ĠSHAPHANG":14284,"Ġryot":14285,"ĠSadhu":14286,"ĠSimpyllieng":14287,"ĠKyoh":14288,"Ġjyllicw":14289,"ĠNormal":14290,"Ġkiimne":14291,"Ġkheiii":14292,"Ġrudnong":14293,"ĠMass":14294,"Ġworld":14295,"Ġblci":14296,"illage":14297,"ĠXIX":14298,"ĠRynjah":14299,"ĠSynriang":14300,"Ġmynslem":14301,"Ġmushlia":14302,"79300":14303,"ĠNAM":14304,"ĠSbaphang":14305,"Ġkhlaiii":14306,"Ġkhlaifl":14307,"Lynnong":14308,"Ġkyrsban":14309,"ĠZein":14310,"Ġlorni":14311,"Ġtabla":14312,"ĠShyrtong":14313,"YMMEN":14314,"Ġkutnba":14315,"ĠHints":14316,"ĠOnderson":14317,"Ġbyllud":14318,"ĠJINGSNENG":14319,"Ġkhyod":14320,"ĠMalacca":14321,"Ġtransl":14322,"ESS":14323,"Ġevery":14324,"Ġkolshor":14325,"ĠHorkit":14326,"ĠRyngngi":14327,",âĢĻ'":14328,"Ġbrief":14329,"Ġbrievv":14330,"Saitsoh":14331,"Ġpymaid":14332,"heim":14333,"scar":14334,"ĠJingpyndonkam":14335,"wnom":14336,"ĠKonrai":14337,"Ġtens":14338,"Ġshyngiar":14339,"Ġcoom":14340,"Ġjingtbmu":14341,"plex":14342,"tyngang":14343,"ĠSOC":14344,"BRIEU":14345,"Ġnaogta":14346,"ĠDairektor":14347,"bedded":14348,"ĠMYNTA":14349,"Ġlyntl":14350,"Ġnombar":14351,"ĠMama":14352,"ĠLyngkien":14353,"ĠShiliangraid":14354,"ĠShynrit":14355,"ĠShynrono":14356,"Ġcannot":14357,"Ġxvii":14358,"Ġrusom":14359,"ĠSheba":14360,"Ġtynrah":14361,"Ġliterary":14362,"iathuhkhana":14363,"Ġtukra":14364,"Ġwords":14365,"Ġtungrymbai":14366,"ĠSakrament":14367,"Ġshngaifi":14368,"ĠMawproh":14369,"Ġjingmanbha":14370,"Ġmillion":14371,"eleg":14372,"ĠJubili":14373,"ĠTibet":14374,"ĠDulong":14375,"Ġpynkyrpang":14376,"Nohwet":14377,"ĠJeseph":14378,"Ġprice":14379,"ĠSymper":14380,"ĠMethodists":14381,"January":14382,"mediate":14383,"ĠpynTap":14384,"ĠReligion":14385,"Ġhapdcng":14386,"ĠModerator":14387,"Ġnongmuna":14388,"ĠEkie":14389,"ĠMahadci":14390,"Ġlymbub":14391,"ĠPhetmung":14392,"Ġbaisngi":14393,"ĠRilum":14394,"ĠShitbi":14395,"ĠMagog":14396,"Ġiashrut":14397,"ĠJotham":14398,"RSHI":14399,"ĠBranch":14400,"Ġjingseisoh":14401,"Ġpynbyrngia":14402,"Ġbakynja":14403,"Ġcharacter":14404,"ĠRowland":14405,"Ġpajwa":14406,"ULAR":14407,"ĠEarle":14408,"ĠJaihtia":14409,"Ġsociety":14410,"Ġmithai":14411,"ĠSuidnia":14412,"ĠABK":14413,"Ġkyotien":14414,"Ġjidg":14415,"ĠKkasi":14416,"ĠSynnei":14417,"ĠTreasurer":14418,"ĠMibngi":14419,"ĠCatholic":14420,"Ġjingiatainia":14421,"ĠCircle":14422,"ĠKatbolik":14423,"ĠLebitikos":14424,"Ġkynphad":14425,"Ġnonglute":14426,"ĠLasubon":14427,"Ġnyogkong":14428,"ĠKalatek":14429,"Ġbrikwai":14430,"ĠGideon":14431,"ĠOmega":14432,"ĠPhetmungor":14433,"':":14434,"*Â«":14435,",!":14436,"-<":14437,"721":14438,"850":14439,">,":14440,">-":14441,"?\"":14442,"?,":14443,"Ag":14444,"Al":14445,"AIT":14446,"Bia":14447,"Bun":14448,"Beth":14449,"Doh":14450,"DONG":14451,"Drama":14452,"Es":14453,"Esra":14454,"Ekl":14455,"Hu":14456,"Her":14457,"Ii":14458,"Imat":14459,"ION":14460,"Je":14461,"KS":14462,"KAI":14463,"KOR":14464,"KOT":14465,"KUT":14466,"Kmei":14467,"LU":14468,"LY":14469,"Li":14470,"Lam":14471,"LUM":14472,"LEH":14473,"Mf":14474,"MIH":14475,"NONG":14476,"PI":14477,"Pha":14478,"Pat":14479,"Pom":14480,"Ref":14481,"Roy":14482,"SA":14483,"Sim":14484,"Sngi":14485,"Synshar":14486,"Synrai":14487,"Samaria":14488,"Trai":14489,"Tlang":14490,"Thain":14491,"Uong":14492,"Vl":14493,"WW":14494,"Wai":14495,"Wang":14496,"Wah":14497,"\\\\":14498,"bs":14499,"buk":14500,"bub":14501,"bli":14502,"biej":14503,"boit":14504,"blah":14505,"buli":14506,"col":14507,"cni":14508,"dri":14509,"diar":14510,"des":14511,"dle":14512,"dawa":14513,"eshor":14514,"fng":14515,"fiew":14516,"gm":14517,"gw":14518,"gar":14519,"gra":14520,"gre":14521,"hew":14522,"hti":14523,"iie":14524,"iiang":14525,"jk":14526,"jp":14527,"js":14528,"joit":14529,"joag":14530,"kym":14531,"ksi":14532,"klong":14533,"kiar":14534,"kui":14535,"kylliang":14536,"kudi":14537,"lQ":14538,"lw":14539,"lis":14540,"lep":14541,"llong":14542,"liar":14543,"lian":14544,"mp":14545,"mam":14546,"mun":14547,"mcn":14548,"muka":14549,"mikar":14550,"oong":14551,"oar":14552,"pla":14553,"pbi":14554,"pers":14555,"pisa":14556,"port":14557,"qng":14558,"rm":14559,"ror":14560,"rieu":14561,"rwiang":14562,"sL":14563,"sta":14564,"sian":14565,"sug":14566,"sima":14567,"scm":14568,"sner":14569,"stal":14570,"sogew":14571,"tk":14572,"tiang":14573,"tlem":14574,"tngen":14575,"tron":14576,"tyllaw":14577,"une":14578,"uer":14579,"uist":14580,"vlla":14581,"weh":14582,"wthuh":14583,"xv":14584,"xic":14585,"yf":14586,"yh":14587,"Ġait":14588,"ĠkL":14589,"Ġken":14590,"Ġktab":14591,"Ġkuli":14592,"Ġkdeu":14593,"ngcn":14594,"Ġkak":14595,"Ġkael":14596,"Ġkaja":14597,"Ġkahap":14598,"baa":14599,"bani":14600,"ball":14601,"Ġbac":14602,"Ġbamih":14603,"Ġbashong":14604,"Ġbaphylla":14605,"Ġbashlei":14606,"Ġbasting":14607,"hano":14608,"Ġld":14609,"Ġluri":14610,"Ġlura":14611,"Ġlera":14612,"Ġkih":14613,"Ġkik":14614,"Ġkiak":14615,"Ġkibi":14616,"Ġkibu":14617,"Ġkibe":14618,"iaU":14619,"iao":14620,"iaii":14621,"Ġsie":14622,"Ġsisa":14623,"Ġsuti":14624,"Ġscene":14625,"Ġsign":14626,"Ġuin":14627,"Ġuda":14628,"Ġubi":14629,"ongnai":14630,"Ġjynr":14631,"Ġjim":14632,"Ġjone":14633,"Ġjnang":14634,"Ġjler":14635,"Ġjngem":14636,"Ġjogai":14637,"Ġpc":14638,"Ġpyl":14639,"Ġpien":14640,"Ġpab":14641,"Ġpbr":14642,"Ġpban":14643,"Ġpgi":14644,"eir":14645,"eiig":14646,"Ġiangi":14647,"Ġiabun":14648,"Ġiania":14649,"Ġiatb":14650,"Ġiathaw":14651,"Ġiabiria":14652,"Ġialadc":14653,"Ġdf":14654,"Ġdhar":14655,"Ġdist":14656,"Ġdnr":14657,"ĠKL":14658,"ĠKO":14659,"ĠKU":14660,"ĠKbar":14661,"ĠKoit":14662,"ĠKara":14663,"ĠKmei":14664,"ĠKissor":14665,"ĠKlement":14666,"ĠKYLLA":14667,"Ġnr":14668,"Ġnie":14669,"Ġnwei":14670,"Ġnoi":14671,"Ġniaw":14672,"Ġnion":14673,"Ġtut":14674,"Ġtob":14675,"Ġtynda":14676,"Ġtbang":14677,"Ġtohi":14678,"Ġtmai":14679,"ĠtCa":14680,"Ġtold":14681,"Ġtreat":14682,"Ġtyllaw":14683,"Ġbv":14684,"Ġbul":14685,"Ġbynt":14686,"Ġbtai":14687,"Ġbest":14688,"Ġbusiness":14689,"ohg":14690,"Ġjingrai":14691,"Ġjingpa":14692,"Ġjingbieij":14693,"hid":14694,"hil":14695,"Ġrr":14696,"Ġrv":14697,"Ġruti":14698,"Ġrlew":14699,"aria":14700,"arian":14701,"Ġmt":14702,"Ġmed":14703,"Ġmieij":14704,"ĠUh":14705,"ĠUfa":14706,"ĠSel":14707,"ĠSaid":14708,"ĠSfa":14709,"ĠSrom":14710,"ĠSynrang":14711,"ĠSAW":14712,"ĠSYM":14713,"ĠSAH":14714,"ĠSING":14715,"onom":14716,"Ġix":14717,"Ġium":14718,"Ġila":14719,"Ġiil":14720,"Ġikwah":14721,"ĠiCa":14722,"anna":14723,"Ġngj":14724,"Ġngem":14725,"Ġngit":14726,"umba":14727,"ummat":14728,"ĠkhU":14729,"Ġkhien":14730,"Ġkhup":14731,"orn":14732,"ĠjongU":14733,"Ġshc":14734,"Ġshf":14735,"Ġshur":14736,"Ġshieh":14737,"Ġshoo":14738,"Ġshruh":14739,"ĠKali":14740,"amon":14741,"amen":14742,"ĠBt":14743,"ĠBy":14744,"ĠBla":14745,"ĠBit":14746,"ĠBin":14747,"ĠBok":14748,"ĠBynriew":14749,"ĠBlai":14750,"ĠBoun":14751,"Ġpyna":14752,"Ġpynang":14753,"Ġpynih":14754,"Ġpynin":14755,"Ġpynpa":14756,"Ġpynthoh":14757,"Ġpynthih":14758,"Ġdadien":14759,"ĠHd":14760,"ĠHah":14761,"ĠHur":14762,"ĠHung":14763,"ĠHynt":14764,"ĠHig":14765,"ĠHow":14766,"ĠHYN":14767,"ĠHYNN":14768,"ĠHOK":14769,"ĠHIST":14770,"yrshah":14771,"Ġlongsb":14772,"Ġlongbru":14773,"Ġlongkni":14774,"ĠNc":14775,"ĠNath":14776,"ĠJV":14777,"ĠJj":14778,"ĠJoh":14779,"ĠJyng":14780,"ĠJep":14781,"ĠJeb":14782,"ĠJyntang":14783,"ĠJhep":14784,"ĠJunior":14785,"Ġnal":14786,"Ġnaneng":14787,"thur":14788,"Ġkumka":14789,"ĠMU":14790,"ĠMom":14791,"ĠMud":14792,"ĠMuij":14793,"ĠMisteri":14794,"ewa":14795,"ĠLX":14796,"ĠLin":14797,"ĠLung":14798,"ĠLYN":14799,"ĠLlan":14800,"erial":14801,"unai":14802,"ĠTK":14803,"ĠTamar":14804,"ĠTymp":14805,"ĠTikir":14806,"itis":14807,"itom":14808,"urei":14809,"ĠPl":14810,"ĠPeh":14811,"ĠPen":14812,"ĠPaw":14813,"ĠPdiang":14814,"ĠPOR":14815,"ĠPAR":14816,"ĠPekah":14817,"ymen":14818,"ymih":14819,"Ġdonblei":14820,"Ġdonkara":14821,"Ġthur":14822,"Ġthou":14823,"Ġthyllah":14824,"Ġwo":14825,"Ġwut":14826,"Ġwap":14827,"Ġwish":14828,"uture":14829,"ĠIdei":14830,"ĠIwet":14831,"ĠIkon":14832,"otle":14833,"ynrad":14834,"Ġshij":14835,"Ġshijot":14836,"Ġshilak":14837,"ĠDh":14838,"ĠDiang":14839,"ĠDud":14840,"ĠDec":14841,"ĠDept":14842,"ĠDiph":14843,"ĠDiv":14844,"ĠDisi":14845,"ĠDevelopment":14846,"Ġhg":14847,"Ġhym":14848,"Ġhot":14849,"Ġhop":14850,"Ġhylla":14851,"ĠRynta":14852,"ĠRymp":14853,"ĠRthem":14854,"ĠRngin":14855,"ĠKijing":14856,"Ġsngevv":14857,"khian":14858,"khublei":14859,"khyndew":14860,"Ġkynthi":14861,"Ġkyndeu":14862,"noi":14863,"nop":14864,
[...]
